#version: 0.2 - Trained by `huggingface/tokenizers`
i n
Ġ .
e r
o n
a t
Ġ :
Ġ ,
a l
e n
o r
Ġ a
Ġ t
e s
e d
i s
Ġ 1
Ġ s
r e
i t
i c
Ġ P
Ġ p
a r
h e
Ġ c
i on
l e
a s
en t
Ġ m
a n
Ġ n
Ġ o
Ġ M
Ġ C
Ġ d
Ġ w
0 1
Ġ S
Ġ )
Ġ /
Ġ f
Ġ A
Ġa n
r o
Ġ b
Ġ (
in g
Ġ N
Ġ D
Ġ -
Ġ 2
Ġo f
Ġ R
Ġ 0
Ġ in
o u
Ġan d
Ġ I
i l
Ġ h
Ġ T
c t
Ġt he
l o
at ion
o m
2 01
Ġ H
Ġn o
t h
u l
i g
â Ģ
e l
Ġt o
Ġ re
Ġ e
u s
Ġ L
v e
Ġ E
i d
u r
âĢ ¢
Ġ r
Ġ F
at i
a b
Ġ 3
Ġ O
Ġ l
o l
o s
or m
i m
a m
es s
t er
Ġ B
0 0
it h
a c
a g
Ġt h
Ġ or
R E
Ġ is
at e
Ġw ith
e t
is t
a in
u m
Ġ 4
Ġ 5
Ġf or
1 1
a d
Ġ on
e m
l y
es t
u n
ati ent
c e
a y
ic al
u t
d er
as t
O N
I N
e c
ig h
ĠP A
i f
o t
G E
Ġ 6
Ġ 7
Ġ g
ab le
o c
A L
s t
orm al
or y
Ġs t
v er
Ġ W
o p
igh t
r i
Ġ 9
E R
1 9
Ġ ;
Ġb y
Ġ 8
Ġ >
Ġc on
or t
Ġ1 0
i r
Ġ V
A K
o d
Ġ y
e p
201 8
ĠPA GE
p p
A T
Ġ he
c h
e w
v i
ul t
Ġ G
B RE
m ent
i es
Ġ at
BRE AK
ĠPAGE BREAK
Ġ âĢ¢
O R
ar y
S T
in e
Ġ U
il l
E N
ĠI n
I C
e f
1 0
h y
on e
Ġno t
a k
i al
e g
ist ory
Ġe x
e ct
Ġa s
Ġ v
ĠM D
Ġ2 01
a p
ag e
Ġm g
lo w
as e
er e
ou n
ig n
Ġc h
Ġ1 1
Ġ J
201 9
ĠN o
it y
u re
q u
Ġ1 2
o w
A N
at ed
able t
ar t
Ġ le
lo g
r ess
m p
i ve
Ġd is
N o
1 2
g e
i p
i a
Ġw as
1 8
ĠS t
Ġ u
Ġa b
f orm
Ġp ro
Ġp ain
Ġa re
A R
en d
al l
el l
Ġ *
Ġb e
th er
om p
Ġn ormal
i z
E D
s e
a ct
i v
y p
Ġ #
ĠD ate
in al
e ar
ar d
Ġp er
f t
Ġp atient
ati ve
vi ew
an t
I T
T he
1 7
a x
Ġt ablet
t r
u e
Ġ K
T h
Ġ un
a il
f f
er al
ĠO r
ro m
Ġ '
b er
O B
P atient
I ON
y mp
ic ation
Ġh as
o log
2 0
Ġ %
E S
r es
ul ar
O M
Ġth is
v id
1 4
ou r
a re
ion s
im e
201 7
l l
r on
s s
L E
1 5
ou s
es ult
I S
ic e
3 0
ou t
e e
in t
n ess
an c
H e
u b
en s
Ġa d
ĠH istory
u d
ĠM R
Ġn e
Ġs p
m o
Ġd ay
1 6
n c
ĠP ro
Ġa pp
Ġ k
ĠP M
ĠM ed
EN T
an d
i b
1 3
R O
Ġ al
Ġre c
am e
2 5
at h
is it
Ġr ight
ak e
I n
u p
C T
us e
as s
Ġ im
an ce
" "
ĠR e
i ed
Ġth at
ĠN ot
c c
Ġw h
Ġ Y
hy s
0 2
Ġh a
A M
p t
0 5
Ġ lo
r ic
eg ative
Ġle ft
er v
at us
r an
0 6
Ġ i
form ation
ĠA M
Ġd i
n e
le ct
Ġ ""
S he
ol low
er t
Ġ 01
O L
Ġre p
A S
os is
2 4
ĠC T
0 4
I D
l in
Ġs h
ac k
I L
Ġ x
Ġ ]
ĠC h
s p
c l
le t
ag n
2 2
al e
Ġh er
T H
0 3
Ġ1 4
O S
oun ter
0 8
or e
Ġm ed
it al
olog y
Ġcon t
Ġs e
Ġy ou
R e
r u
ur r
en ies
an g
res ent
0 9
E L
ur g
ĠE x
2 7
0 7
Ġha ve
Ġf rom
os t
Ġno d
l an
Ġin t
2 3
Ġc omp
if ied
d om
at eral
Ġ =
on t
2 6
al th
en ce
l d
i an
Ġ1 5
2 9
P ro
ĠH e
Ġ1 3
view ed
er g
u c
IN G
ĠD OB
Ġ ?
ymp h
ion al
R A
Ġa r
it e
Ġ [
Ġs ign
H E
y st
e x
2 8
A B
ep ort
Ġ0 8
c ri
g h
Ġ0 9
nc ounter
Ġan y
Ġ1 9
u le
re m
Ġc m
er r
O r
re at
ut e
c o
i o
e ase
ĠOr der
AT ION
I M
Ġs c
it t
ou th
le ase
ĠI N
ĠD r
ail y
it s
C C
vid er
an ge
urr ent
u ro
Ġs he
S t
en der
Ġd o
or d
Ġdis c
Ġ âĢ
es p
u al
Ġ0 7
2 1
r a
h one
us c
el y
ĠT h
' s
v al
Ġm o
ĠP age
ĠR E
mo k
Ġw e
ic h
5 4
en c
Ġf ollow
Ġrep ort
D ate
A D
os e
ĠA N
ĠN ormal
Th ere
T E
il d
ication s
Ġch est
Ġh istory
Ġor al
ĠD i
C H
id e
i le
ĠM G
b le
om e
Ġ1 6
k s
Ġm e
O U
am in
Ġ0 3
Ġ low
il y
Ġwith out
Ġ &
Ġ0 4
anc er
ver y
at ic
ĠP atient
Ġ201 8
Ġu p
t t
Ġd aily
ical ly
Ġdis ease
5 5
Ġ !
t om
Ġ1 8
U M
C h
qu est
il ateral
Ġb re
4 4
ĠN ame
ter n
Ġ0 2
3 1
is s
if f
Ġw ell
ct ion
um b
ĠA d
ĠR eport
un g
Ġm ass
um ent
ĠS ign
Ġy ear
um ber
Ġm outh
Ġ ro
Ġm m
ect ion
Ġd r
U L
Ġw ill
5 0
Ġ1 7
M R
ĠA n
s on
E T
ĠC on
end ed
Ġ j
k e
Ġw ere
Ġbe en
e ver
Ġ1 00
at ory
on ary
Ġ0 5
ic ian
ad i
c ed
Ġin formation
Or der
yp e
Ġne ed
Ġre g
Ġ0 6
oun d
O G
tr ast
Ġ2 0
Ġ Z
IC AL
Ġ it
om m
am ily
as ed
ĠP r
Ġ use
ac h
Ġp resent
ac e
Ġl ymph
ro p
s y
om a
I V
ĠO F
ĠT ime
S S
lo s
Ġ us
Ġd ist
hys ician
ar k
ment s
form ed
at hy
Ġp os
ble m
Ġh ad
ymp tom
ĠR ef
3 3
u th
ation s
M ed
y s
oc ument
ĠS p
ĠU n
I A
ĠOr al
P H
ll erg
k in
ĠV isit
ĠMed ical
ĠN egative
o int
ĠR esult
Ġre f
Ġm on
ec k
d ay
Ġl es
ag ing
n ormal
ĠSt atus
A d
Ġo b
Ġ3 0
ĠS T
ow n
i ent
id ent
Ġa g
o b
E x
a v
E M
Ġ +
i or
Ġh yp
4 5
lo od
Ġd e
lect ron
6 6
ĠE ncounter
Ġs u
Ġab dom
Ġre viewed
d it
Ġcon s
e uro
Ġp re
ens ion
Ġin f
t e
ĠA b
Ġ Â
Ġb ack
is e
at es
Ġ2 5
o g
Ġb ilateral
I ST
or k
er y
ap y
Ġb ut
Ġl i
as c
ri or
in d
Ġo ther
ĠB y
lo p
Ġ all
c re
3 4
Ġh is
i e
le ar
it ies
ymptom s
ct ive
ap s
Ġa c
st ru
ar g
A C
Ġt est
ent er
i um
Ġex t
Ġ ed
us s
al p
if ic
8 9
it is
ĠI D
ĠF ax
Ġ Q
en ing
v el
3 9
ĠC omp
ain t
Ġw ee
11 11
3 7
cl ud
O D
Ġt ime
r al
Ġs ub
Ġe very
lin ical
o od
ran s
ur es
Ġn on
ĠT he
3 6
O P
Ġwh ich
op h
ĠMR I
l u
O T
er n
5 9
Ġ en
ul m
agn osis
ĠA l
r ain
Ġ201 9
4 7
os p
r en
U R
Ġd enies
ou gh
ur n
em ent
ress ion
uth or
5 6
4 6
ĠD is
C on
ĠAN D
ced ure
Ġc ol
ef t
D i
m in
5 7
ĠT ablet
om y
P I
n d
ol ic
Th is
im ary
Ġm in
s o
lectron ically
Ġ201 7
i at
N E
v ed
AT E
v is
ang es
ĠC ON
ĠN Y
I G
le x
asc ular
d L
ce iv
Ġin ter
B C
ĠIn formation
8 8
4 0
Ġ X
ĠF inal
Ġm et
Ġ if
ĠPro vider
b e
yst em
Ġlow er
oun t
m m
l i
er s
O C
Ġnot ed
al c
Ġhe ad
val u
Ġs ymptoms
cri pt
P age
Ġs o
Ġmon th
ess ment
Ġr esult
ĠN umber
Ġm ay
ing s
r am
ĠO n
em a
9 9
Ġr es
I I
iz ed
aps ule
U N
R esult
r y
P T
D T
ĠEx am
ĠMR N
Ġv isit
ceiv ed
Ġto day
5 8
em ale
on d
it ed
as h
IN E
3 2
I AL
a w
f ter
on g
or s
i i
reat ment
I f
ulm onary
Ġp r
201 6
OR Y
Ġper formed
ar c
op y
ou ld
Ġin clud
ard io
Ġreport s
7 7
as on
Ġs in
Ġp l
Ġc ancer
Ġday s
llerg ies
en op
urg ical
im es
Ġse en
o ve
o th
ĠA L
4 9
Ġl ung
il ity
4 1
A X
3 8
en eral
re ct
is h
Ġd iff
od e
Ġy our
hys ical
Ġk g
Ġs mok
enc y
it ive
m a
P r
ĠÂ °
pp er
ag es
Ġ _
ont in
oc ial
P RE
Ġcon trast
esp ir
ron ic
S p
umb ar
Ġs w
R ef
M I
Ġ5 0
Ġin d
erv ice
4 8
U S
ct iv
re e
a use
Ġn egative
Ġapp ear
ak ing
A P
us ion
Ġch anges
iz e
19 6
un d
h n
Ġsh ow
ill s
3 5
ĠO R
Ġab normal
euro log
ĠHe alth
Ġl ast
Ġneed ed
ĠI C
ar r
at ing
er apy
N ot
ard i
ss essment
end ing
Ġbre ath
d ress
p h
Ġd ef
o le
F ax
ĠNot e
Ġun der
I E
enop athy
Ġa m
Ġab ove
ic k
U E
Ġlo ss
Ġim p
ar ge
AN C
ĠP RO
Ġt imes
ter ior
at ure
ain ed
g ress
Ġe ff
vi ous
ff ice
j ect
A l
h ol
ac co
urg ery
Ġc an
er c
W e
Ġo ld
Ġc or
Ġv is
osp ital
ĠP h
ĠNot es
ĠâĢ Ķ
D ING
em p
t al
ĠSign ed
Ġal so
iz ation
7 8
Ġu g
5 1
ĠN E
ĠT ake
Ġp alp
Ġ2 4
cript ion
n own
sp ec
Ġd ocument
A b
Ġsc an
v ascular
ĠC ol
ĠM ED
5 3
Ġs y
Ġas s
ĠP hysician
ĠH E
Ġ4 0
ĠI V
tern al
OR M
Ġst atus
Ġcon f
7 9
L I
Ġp rior
Ġe valu
oc ation
dit ional
Ġc l
A n
Ġex am
Ġu pper
ĠL ab
im en
ĠP lan
ific ant
D OB
ert ension
ur al
Ġsign ed
OL OG
Ġe vid
Ġa fter
Ġt ender
oc i
Ġc urrent
OM P
O W
ĠI s
ĠC are
ĠT H
em ber
S A
OR T
C L
ĠN one
Ġm L
et ail
MR N
Ġc apsule
Ġ9 0
espir atory
Ġhe art
c k
Ġyear s
Ġre t
Ġme as
Ġd ec
ur ing
ĠM ar
Ġc o
Ġhe m
Ġc lear
u gh
Ġm ild
m all
IST ORY
Ġp ar
7 3
Ġ2 00
Ġdisc uss
Ġhe alth
Ġlo be
Ġ6 0
E lectronically
st it
Ġcont in
Ġex p
Ġof f
Ġth ro
ow el
Ġwith in
ac he
ib le
y e
Ġre ceived
Ġo ver
ĠC enter
blem s
ĠP hone
ĠR ec
lin ic
Ġf e
ul l
Ġst ud
I R
Ġevid ence
Ġc are
ĠS c
amin ation
um or
ĠP R
Ġed ema
co hol
ul se
Ġ0 00
m itt
Ġc om
U n
Ġar ter
Ġt rans
Ġsign ificant
Ġc he
Ġmonth s
ad e
em ia
ĠS h
A Y
Ġp el
2 00
S K
ĠT O
us t
stru ct
E ncounter
Ġint act
Ġh our
ĠS u
4 3
Ġo ut
o id
ab et
Ġb lood
ound s
Ġn ew
ĠF OR
LE T
a ir
AN D
Ġle g
sy ch
Ġ <
A ST
s ur
8 6
ro id
ath er
Ġth an
Ġdo es
i op
ardio vascular
Ġt ab
Ġat t
Ġp ost
7 6
Ġles ions
ter ed
T ake
V ital
Ġ1 11
l aint
Ġt reatment
Ġper son
Ġg ro
ĠIC D
e z
Ġac ute
I t
Ġt w
it ion
ĠT ype
Ġwe ight
od y
Ġc y
Ġt r
u los
er m
P hone
4 2
Ġon e
T RA
i ous
F R
ress ure
Ġcomp let
ec imen
a i
Ġ qu
cri b
ĠA pp
U T
ar m
ind ings
u g
ĠE DT
ut ion
ark able
int ed
AR D
ast ro
e b
ĠC M
C I
ĠP ain
H istory
ON E
ĠY es
arc in
Ġl ab
Ġtender ness
Ġs ize
L ab
ĠT AB
Ġor der
Ġabdom inal
P ast
s et
S ocial
ĠS ervice
ĠS ex
l as
Ġm id
PRE SS
e at
Ġmed ical
Ġch ange
rem arkable
ĠP er
ystem s
al s
m ed
Ġext rem
Ġmet ast
ult ation
v ent
v ing
ne a
Ġ \
Ġbilateral ly
5 2
Ġ2 6
ĠP H
Ġsp ine
erv ical
spec ified
ĠL eft
7 0
ĠC H
y es
ĠH yp
th m
a it
Ġp lease
N ame
Ġt ake
en er
o ther
ĠR o
ĠA B
g th
ĠR ight
9 6
i et
Ġa cc
es e
OLOG Y
us p
Ġp ast
IT AL
ĠP O
I P
u ed
N eurolog
Ġbre ast
C omp
ĠMed ic
PRESS ION
ĠD O
ro x
u es
c are
N ormal
Ġ3 6
ke let
Ġs ome
Ġle vel
Ġm an
7 5
Ġint ended
N T
Ġl im
le ep
IT H
ĠC om
at a
Ġles ion
ĠCh est
ĠE X
Ġin cre
ang ed
Ġd ue
Y S
um m
C ON
ch ed
Ġp lan
Ġhour s
Ġabdom en
F amily
re t
F IN
ur s
abet es
L Y
Ġin tr
Ġh ere
ĠA m
i ver
ĠB P
hy thm
Ġnod es
S ign
sur ance
in ary
Ġl b
Ġd ep
ect ed
arcin oma
o x
iv en
ve lop
Ġr adi
kelet al
oc al
ĠD enies
A cc
L A
ĠâĢ ŀ
on s
D enies
is k
Ġwee k
P ORT
Ġf ac
agn os
M ENT
ult ip
Ġrec ent
Ġm ot
IV E
Ġ2 8
ir ed
ause a
Ġa x
ent ial
or der
Ġab out
h ib
iat ric
ĠI m
P E
os c
l a
Ġp ulmonary
l or
A RE
if y
ic s
ĠI M
i x
Ġb owel
Ġnod ule
in ess
Ġst art
m iss
es cription
ĠE n
Ġs ee
Ġon ce
TRA ST
C urrent
un ction
y t
Re view
Ġ2 1
F ORM
AL TH
ĠP os
y d
Ġt iss
Ġ ver
Ġ ur
Ġ2 9
usc le
Ġs mall
Ġro ute
Ġl umbar
usc ulos
A ssessment
ip ient
Ġr ash
Ġc ough
ident ial
Ġth ere
Ġm c
ic t
Ġc ell
crib ed
Ġwee ks
v en
ĠA r
Ġ2 7
Ġo p
Ġpre vious
ĠO ut
Ġcon c
Ġso ft
Ġe p
Ġresult s
ĠW e
Ġn eck
it ing
Ġf at
Ġob t
ĠU se
Ġre l
A llergies
Ġim aging
l en
st r
Ġth erapy
ort ness
Ġe ar
Ġs ounds
ĠA P
ĠO ther
usculos keletal
p atient
ĠR ange
Ġin v
Ġf ile
ect omy
p r
ĠC ancer
an e
201 5
E X
Ġp le
ĠP resent
miss ion
al ly
8 0
stit ut
Ġr ate
ĠRe quest
P er
Ġp res
Ġm ore
Ġmed ications
Ġp art
Ġun specified
Ġg l
Ġsu pp
is c
Ġt umor
y sp
Ġb l
Ġsin ce
Ġarter y
6 0
p l
Ġw ork
ĠD ep
A G
I F
struct ions
i el
ep h
ĠU p
ĠH ISTORY
Ġfollow ing
Pro vider
U RE
r ine
ultip le
err ed
or ac
iop sy
Ġa ctiv
C E
Ġm y
c ess
ĠS mok
C om
ec ond
r ay
Ġst able
Ġ end
ak ness
ĠCON TRAST
O n
Ġw he
ES S
ob acco
stitut ional
dom en
ic ult
C ardiovascular
ist ent
I ENT
at in
g ram
ĠResult s
Ġrec ord
ĠL e
ĠR adi
Ġon ly
olog ic
Ġf ever
ch arge
i re
Ġ q
Ġrec ipient
IL Y
Ġp at
ĠIn f
Ġre view
HE ST
Ġc ar
Ġf ax
OS P
AR Y
P hysical
Re viewed
ĠV al
Ġ2 2
Ġ9 8
Ġdist ress
el ing
Ġcol on
Ġevalu ation
r ap
er ence
ĠD IS
ur m
T ER
9 8
P t
ĠA cc
ĠS he
al ign
G eneral
Ġdiscuss ed
le v
al y
der ate
ĠH ospital
as al
l ight
IM PRESSION
Ġrec omm
ĠN J
ce pt
Ġc all
ul es
t y
9 0
n o
S H
Ġf emale
IC E
O ther
l ine
h al
ĠL E
o k
en ous
Ġ0 0
Ġwh en
Ġ ent
Ġ2 3
Ġpel vis
Ġf r
ip id
or n
Ġse ver
ĠW ITH
ch anged
ĠB MI
ig ue
S kin
umm ary
Ġb rain
at ely
ell ing
olog ist
g est
t i
P lan
Ġthro ugh
re qu
ĠE R
Ġo cc
Ġg o
agn ost
it amin
P re
V E
il s
ĠO ffice
P AT
ĠP re
Ġtiss ue
ĠM e
t he
6 5
ĠN e
AR T
Ġinclud ing
OSP ITAL
Ġor ient
in a
Ġ ident
al k
ĠHE ALTH
ĠO N
erc ise
in ation
ro l
ĠB Y
Ġwh o
ĠD A
a h
AK E
Ġj oint
he a
ĠA D
om iting
P sych
St atus
u ff
o ol
1 00
ĠC ode
Ġa ge
ĠR out
rop ri
ĠTAB LET
ri b
7 4
l es
Ġs up
i ef
le ed
Ġc alc
C O
a z
ĠN O
Ġs urgery
ĠL ocation
ĠRE PORT
Ġp ressure
Ġne uro
ot al
R eport
C P
Ġstud y
Ġch ronic
Ġ enc
orac ic
cl er
IT Y
ad der
7 2
F T
Ġto tal
F ollow
iet y
Ġs ide
in s
es ter
ne y
k ely
Ġth en
ent ric
R I
ain s
Ġwe akness
Ġg iven
Ġr hythm
Ġorient ed
ĠA ll
ĠH OSPITAL
Ġim ages
ur ia
C OMP
Ġre quest
Ġs kin
ĠN ew
ĠA ge
Ġd es
y n
Ġnod e
S ub
Ġimp ro
Ġc linical
Ġag o
Ġf l
m an
el s
ĠT HE
Ġn ausea
em at
ec h
Ġmass es
ĠA ctive
M usculoskeletal
ĠE ST
â Ŀ
âĿ ĳ
B P
8 5
ĠMedic ine
Ġg r
x iety
ro w
en al
oci ated
ff ect
ĠS ystems
Ġre ve
ĠA s
ac y
ish ed
ric t
as is
Ġd id
ur ther
N eck
Ġus ed
7 1
Ġd ose
Ġf lu
ĠI I
Ġwhe ez
art ment
il i
P lease
ĠF amily
Ġt e
Ġr est
Ġc ervical
ĠC L
Ġhe p
l arg
Ġ ir
FORM ATION
Ġg et
p s
ĠP l
Ġb iopsy
Ġv al
He alth
r it
re et
etail s
Ġ9 9
M C
UM B
UL T
ĠR N
Con stitutional
ĠD E
IC ATION
A IN
mo ther
if ication
Ġd ate
Ġre qu
mitt ed
ad enopathy
ĠD ay
Ġreg ular
ĠL ast
DING S
ĠC O
is ion
L eft
D ER
Ġpro vid
Ġs er
Ġin j
t ic
Ġm urm
ĠL ist
Ġk n
b ul
IG H
Ġ5 00
Ġr ed
Ġconf idential
osc opy
im al
ic es
mm et
ĠC ar
ĠIN FORMATION
Ġf indings
f l
Ġde velop
ardi ac
Ġs leep
Ġdec re
ĠA T
Ġhe l
Ġex amination
ĠIn ter
Ġ1 10
Ġm uscle
iz z
r ist
ach es
omm un
ĠC l
Ġ201 6
Ġmc g
Ġdiff icult
Ġst ates
6 9
Q UE
Ġ8 0
Ġshow ed
Ġ3 5
Ġ3 1
Ġt ype
AS E
Ġl ight
R espiratory
C linical
ren gth
ĠG r
t o
r ation
Ġa ort
p ret
Ġret urn
Ġd el
Ġb leed
Ġd eg
Ġh igh
V ER
I ES
GE R
ir th
R ight
ĠA ss
y c
Ġno w
ĠP L
t on
ec hn
R ec
Ġpresent s
or al
it ations
ĠMed ications
8 1
GE N
Ġs ens
eg aly
AL L
ĠQ u
ĠC linic
11 1
N egative
Ġd em
itt ing
Ġsh ortness
Ġnod ules
lect ed
ĠS P
ĠI ll
IE W
Ġb en
Ġad enopathy
ĠPr inted
M ED
E yes
ĠMED ICAL
Ġsin us
ro s
agnost ic
ĠA llergies
ĠO nc
Ġactiv ity
I s
ĠA c
Ġ7 5
ary n
Ġhyp ertension
Ġr esp
ĠR eg
Ġsw elling
ĠT est
Ġpos s
ir st
Pr imary
Ġth y
T o
usc ultation
8 7
l er
Ġoff ice
ĠS o
Ġd ysp
D L
ĠF or
ĠF L
Re ason
ĠM SK
est inal
Ġsmok er
Ġident ified
ĠPr imary
ĠCon trast
a f
ĠC o
D OM
ic ular
Ġpro blems
C G
Ġp o
Ġp m
Ġli ver
Ġw all
Ġobt ained
ĠC ont
Ġa w
Ġv omiting
arr hea
Ġp h
ip h
t s
I m
Ġ quest
ĠA uthor
S E
N O
8 4
Ġb ru
Ġdi rect
Ġs usp
on str
Ġd one
Ġ9 7
I O
id ual
ill ary
00 0
N I
Ġen larg
it us
Ġf amily
c al
an n
or r
C ol
V isit
oun s
ec ial
Pro cedure
ĠAd dress
Ġmed ication
Di agnosis
ĠD ec
h a
ĠD e
r s
at er
9 1
Ġ3 3
ĠF emale
Ġt aking
ANC ER
ropri ate
Ġf urther
ĠE nd
Ġmot ion
err al
ag ement
he m
L ast
Ġr ange
P M
ar s
D ATE
Ġin c
Ġa v
Ġ err
astro int
ĠSt reet
an y
ĠU s
Ġconc ern
Ġw ould
N P
Ġas p
Ġmeas uring
Ġe qu
P L
6 4
A CC
Ġdis order
izz iness
act ive
EL L
ĠOrder ed
Ġ1 01
Ġl ateral
Vital s
Ġn ight
Ġvis ual
Ġ7 0
d u
Ġapp rox
Ġa p
Ġg ood
a e
astroint estinal
Ġare a
id er
i ew
Ġpos terior
ĠComp laint
Ġlymph adenopathy
Ġun remarkable
IS ON
en n
Ġall erg
Ġf ocal
er ative
Ġr ad
V ID
ĠJ an
E ST
Ġpos itive
ĠL ow
Ġ8 1
Ġmetast atic
los ure
l ing
ĠHe art
ĠC HEST
ĠS C
ĠD R
ĠP ER
F AX
ac ed
Ġm ale
ĠDi agnosis
ĠD ocument
v ic
C ore
ĠM ay
ĠS cre
uc ation
D r
Ġc yst
ĠTh ere
ĠI L
ĠS ub
act ion
ĠRe view
ĠEX AM
st e
ĠP ulse
ear s
ĠM on
P RO
Ġm uc
er l
in k
ĠIn t
b y
ĠD escription
FIN DINGS
Ġ es
Ġcomp l
ath ology
t rem
ve ment
ne um
ĠC ANCER
en osis
P A
Ġin s
ri al
Ġ el
Ġincre ased
ĠPro cedure
am m
ot id
ill ed
ĠN P
ĠB l
8 2
Ġpro hib
Ġd ys
Ġli kely
or atory
ess ion
ĠS U
8 3
ĠF ollow
Ġbleed ing
Ex am
ro up
A ll
ched ul
ĠS urgical
ĠB lood
ef ore
Ġb et
OS E
IL L
Ġs ent
ĠP ET
umb ness
201 4
ac c
ul s
Ġu L
Ġre m
and s
w e
ran ial
ontin ue
od es
A uthor
A t
9 3
t ing
le y
tr a
Ġhead aches
a ff
Ġar m
Ġdi agnosis
as es
ĠJ o
is m
Ġdem onstr
id ney
ĠDis p
Ch ief
it or
ar ing
9 7
on al
ĠF AX
Ġvis ion
Ġan terior
Ġc arcinoma
ĠComp let
op las
Psych iatric
IA G
Ġad ditional
ut es
MR I
Ġb oth
O ffice
il ed
6 3
Ġint o
ĠI S
t ime
Ġm em
il ar
oint ment
ĠW t
ĠP at
ĠIm aging
ĠE l
ent s
ip ation
6 1
Ġpl ace
ĠB re
9 4
ĠSign s
Ġappear s
Med ications
Ġtest ing
Ġth ese
Ġp ol
Ġc ase
Ġus ing
ep t
Ġal ert
P ain
ĠI t
ĠRec ord
x t
A pp
Ġmm ol
ipid emia
Ad ditional
ol d
Ġp ort
ĠIn d
it ial
F inal
ess age
Ġgro ss
Ġ3 7
Ġ ve
ĠL ymph
Ġtw o
S C
Ġim age
Ġp t
Ġe m
ĠSu ite
Ġa ir
Med ication
Ġst enosis
h anc
A s
align ant
Ġextrem ities
Pro gress
ent ral
ĠS er
Ġr isk
ĠU N
t oc
d ated
Ġoral ly
Ġfat igue
and ing
ĠDIS E
lo b
Ġc at
ĠE d
oplas m
I AN
L ymph
Ġhel p
C K
ĠOn set
Ġdef ic
an k
PAT IENT
ĠA t
y m
er ified
ro und
6 8
ĠN on
Ġ z
Ġ3 2
AR ISON
st ipation
en se
Ġ id
ĠTh is
Ġcomplet ed
an s
g n
iel d
ĠA R
Ġcont act
Ġs ur
ĠSo ft
ĠT emp
Ġst ress
tt ending
ĠâĢ ĺ
Ġv entric
Ġc opy
ic ious
S ON
Ġreg ion
P ER
OU TH
6 7
ĠCon s
D A
ph al
EL V
ĠRe viewed
P R
anc y
Ġprohib ited
AS S
Ġ3 00
Ġ7 4
th es
Ġw alk
agnos es
econd ary
iph eral
9 5
T obacco
ut ure
EM OR
Sign ed
ĠOral ly
n i
Ġhead ache
ys is
as tern
Ġinv ol
Ġquest ions
F rom
Ġmo derate
N A
er ior
Ġp ri
ron ch
Ġ3 8
ĠIll ness
Ġ7 2
Ġcor onary
Ġeff usion
Ġa ffect
Ġpro cedure
ĠS Y
od ium
ĠA ug
Ġne xt
n ia
ent ion
s w
ĠJ ul
Ġ vi
id ed
ĠB L
S h
ation al
Ġnot e
L ocation
an el
ic ated
err ing
OL IC
ĠM ale
qu e
ane ous
ĠOnc ology
ĠF R
Ġerr or
l der
ĠA S
ens ive
Ġdi arrhea
dom inal
c i
ENT ER
r itis
Ġun changed
y ear
le g
ĠOut patient
Ġto b
n er
o f
ĠT ab
lect ion
rop h
ĠM et
EMOR IAL
ard ing
Ġf requ
C A
He art
ĠM O
ĠW ith
F F
RE S
Ġsc re
Ġdis charge
Ġst rength
i ast
ay s
Ġsu g
6 2
el f
ĠMSK CC
re g
COMP ARISON
ĠA pr
He ad
Ġdifficult y
IN ICAL
mother apy
w ise
ĠRadi ology
Ġtrans mission
ĠDA ILY
ab ility
Ġ8 00
Ġe ye
T ype
Ġh yd
T est
ex t
Ġapp ropriate
We ight
Neurolog ical
Ġtob acco
Ġd own
Ġp hysician
Ġm ost
rib ution
Ġe t
Ġnot ify
Ġh ome
ur ation
Ġm ultiple
ail able
ĠCom ments
I mp
V IEW
S U
l ant
Ġcont ain
Ġth ick
M O
at t
ĠS e
N ew
ĠY ork
C l
AS ES
ĠH igh
Med ical
ĠAL LI
Ġenc ounter
Ġsy mmet
lo c
ĠD ATE
ĠM I
ri ed
ĠWe ight
AN T
Ġple ural
b ral
Ġf unction
Ġn one
Ġ4 4
Ġim med
ĠA ssessment
Ġex ercise
DOM EN
Ġ4 1
g en
U RO
Ġprevious ly
Ġg u
Ġmin utes
ĠPro gress
Ġ4 5
uc ose
P hysician
D o
ĠR AD
Ġdisc losure
Sp ecimen
Ġeff ect
ce phal
Ġn umbness
Acc ount
D is
IGH T
Ġcontin ue
iv es
Ġw or
Ġd uring
ĠN OT
ĠT AKE
erl ipidemia
Ġc al
at or
G FR
Ġ5 3
EN D
Ġdevelop ed
u ation
ER AL
Ġha ving
ak en
Ġhe aring
Ġre lease
Ġal cohol
ra um
ĠF orm
om egaly
Ġpalp itations
ĠAb normal
ab olic
Ġcomp laint
is ter
is on
a ve
ĠN ever
ĠDISE ASES
CT ED
ĠB r
Ġprovid ed
ontin ued
Ġstart ed
E nd
ĠA C
Ġth oracic
ern al
ĠRequest ed
Ġinclud e
a j
ĠD etails
Ġh ip
ĠALLI ED
H er
Ġ3 4
G astrointestinal
Ġh im
ĠCh ronic
Ġdecre ased
erv ices
ĠA CC
Ġb one
AM E
d e
is ing
av enous
ol ution
ĠM an
Ġl aw
CH NI
ĠP T
p m
Ġb ody
Ġf ull
ĠT o
in n
ĠS ummary
op e
K G
our ished
mm un
ĠC OMP
Ġse iz
Ġne oplasm
ĠPos itive
Ġl ist
1 01
Ġf orm
U C
Pro blem
f ort
ĠJ un
ens ity
Ġwheez ing
Ġnot ified
f ul
on es
ĠP lease
Ġ $
G en
H yp
ĠS E
Ġrecomm ended
C V
ay ed
iat ely
AG ING
ĠST AT
Ġass ociated
L e
Ġl ong
In ter
ĠU S
j un
Ġc a
Ġb ed
ĠW O
IC H
ĠPR N
Ġsh ould
CHNI QUE
Ġad min
ot ic
a el
A m
Ġcons istent
ĠF eb
Ġdiff er
Ġch ills
T N
ar ed
lo y
sp ection
ect ions
Ġan g
Ġad j
A ss
Ch est
Ġex cept
Ġsp ec
Ġm arg
1111 1111
Ġrel ated
Not es
Ġan t
ĠM AR
Ġn umber
L ung
re ated
M D
os s
ĠO ct
st ate
Ġr enal
TH ER
ent al
w w
Ġf ound
dit ion
ĠL AB
Ġflu id
ĠOrder s
Ġk nown
Ġsever e
N e
ĠS H
ĠM o
ol id
en e
ild ren
Ġ6 5
ĠH CC
Ġd izziness
Ġ ill
v ast
Ġr h
ĠT r
Ab domen
ĠSt art
N one
toc ol
n a
ĠC or
Com ments
Ġpro vider
ĠMed ication
Ġli ke
Ġdep ression
cl es
M P
o ot
en z
oc yt
p le
Ġp hysical
T R
or th
ject ive
Ġhem at
orm o
Ġpr imary
ĠO f
Ġdirect ed
ĠB irth
Ġm essage
ĠR es
ouns eling
Ġ201 5
stru ction
Ġav ailable
ĠP rior
Ġb efore
c er
ĠC A
U P
oth y
I Z
ven ue
H g
oc rine
Ġb r
Ġ very
Ġf t
TE CHNIQUE
ĠEx p
Ġen hanc
Ġ15 0
aryn x
Ġad en
Ġappear ance
ber t
b ing
Ġradi ation
uls es
th ritis
D I
ou lder
il le
l ic
k nown
Ġmid line
Ġmo od
0 01
ĠHe ad
os a
Ġn g
9 2
chedul ed
C or
L AB
Ġg ait
ener ated
Ġ ul
M ar
Ġthy roid
ard ial
Order ing
Ġw ors
Ġa ctive
ĠCom ment
A ge
iv idual
Ġ6 4
ardi ology
ict ated
IG N
ĠK nown
ĠR ate
er ic
ĠA venue
Ġdysp nea
it our
Ġbe ing
ĠScre ening
C are
ĠS UR
n ot
ĠE D
ĠC urrent
201 3
Ġn ec
Ġk idney
Ġenlarg ed
al lop
yst olic
S Y
C UL
our ce
Ġche motherapy
Ġequ al
00 00
in es
Ġlim its
on ent
is tered
i k
Ġs urgical
Ġextrem ity
itour inary
ĠN eurolog
rap h
ĠHyp ertension
S urgical
om et
Ġsupp le
Ġan xiety
Ġ2 12
Ġdist ribution
v es
Ġsusp icious
ow ever
Ġp age
er ve
ĠD ata
ER G
ra z
Ġ6 1
Ġgross ly
ĠC D
Ġ5 5
el ed
Ġkn ee
Ġis s
UMB ER
ĠC linical
ĠInf o
Ġg reat
Ġm l
Ġf illed
rom e
Ġreve al
Ġa uscultation
S c
et urn
ĠIn structions
Ġor g
O H
ĠT otal
Ġ6 8
Ġres ection
ro c
Ġimmed iately
' t
et s
Ġ7 8
ro ved
ol ester
ER V
RE SS
en a
Ġcons ider
Ġtw ice
ĠT rans
Ġdocument s
Ġsp e
Ġt echn
t a
Ġab s
an osis
ID ENT
EN S
Ġn asal
D ep
Ġb ased
CON T
ĠM A
Ġposs ible
Ġo pt
OR D
O b
ĠSp ine
E n
it ation
Ġc ould
L C
ĠG roup
ĠAb s
_ _
jun ctiv
Ġf ib
N D
Ġo z
i as
ĠC alc
and ard
ro ss
Ġ view
T ime
Ġin hal
Ġr ub
Ġ er
ist ration
Ġa uthor
Ġcon stipation
ch ing
H emat
Ġsug gest
ĠI mp
th ma
Ġp neum
ĠVal ue
ĠB e
Ġag ain
ĠOn ce
ig rain
CT ION
Ġre ad
Th ank
Ġstud ies
ĠG eneral
agnos ed
op erative
ich ael
ĠP res
ĠDi rect
F A
Ġp anc
p hone
ou se
g o
Ġdo b
ĠE lectronically
In surance
ĠDep artment
Ġdi et
Ġbl adder
C ont
ĠR ES
ur y
ĠI f
Ġl ess
ĠS ite
Ġc linic
Order s
Ġrec on
F or
Ġsmok ing
Ġcont rol
ĠD a
pret ation
m un
Ġdi abetes
ĠPRO TE
Ġex ert
r ac
ol ved
ĠRo ad
Ġd est
cephal ic
ĠV iew
Ġrep resent
ĠW ill
T emp
M G
ĠP el
ĠCont act
ĠA ve
ĠJo hn
a pp
ĠP t
ab ly
ha vi
ĠC OM
i am
te in
Ch art
Ġreport ed
RE N
ul ation
it one
ĠH t
u ter
re l
Ġd u
et ite
s im
S mok
Ġad dress
Ġin k
ud y
C o
ĠL A
IN AL
Ġallerg ies
D isc
g l
vis ed
Ġpalp able
ĠAb domen
Ġorder ed
Neurolog ic
Ġcurrent ly
ĠD iff
Ġpro cess
ĠRout ine
M e
P ulse
Result s
Ġe mp
Ġman agement
ĠW h
trem ities
ir c
W ill
th op
M IT
Ġother wise
ĠRe ason
ĠPro blems
P O
Im aging
Ġfr act
U D
ĠN UMBER
ul a
ĠE astern
s ide
Ġhyp er
lu x
Ġst rict
T O
ĠIn surance
Ġrep eat
ul ated
b l
W h
V A
u k
Ġ5 1
Ġep is
ain ing
C ED
ĠC BC
ĠRef ill
Ġmeas ures
ol um
ĠC apsule
Ġcy anosis
ĠR el
Ġ est
ĠN eck
OU T
Ġal ong
P h
ro ll
us h
F IDENT
R AN
A r
Ġsub c
olic y
Ġshow s
I on
E E
Ġ5 9
Ġrequ ired
OS IS
ĠDis ease
r il
Ġintr avenous
Ġto ler
Ġhere by
vast atin
le en
ĠS urgery
ĠC ENTER
ital s
ir in
Ġcontin ued
ĠC AP
ar row
Ġmed iast
Ġno se
I B
nd rome
O X
ced ures
i ency
M A
Ġa ct
O OD
Ġd il
le phone
AT IVE
Ad dress
FIDENT IAL
M ON
UN G
el t
ormo cephalic
ut o
I c
H is
A llerg
Ġ7 7
IC D
ell itus
ĠUn remarkable
Y N
Ġlo c
on se
ST EM
ĠT IM
AM IN
Ġpro blem
s he
ĠOR AL
m l
Ġinj ection
Ġche ck
eg ment
Ġ3 15
IN T
Ġmm Hg
ĠC PT
al es
ener ative
Ġmurm urs
Ġcell s
f ace
Ġ3 9
Ġdocument ed
ĠT aking
ĠI b
w ard
Ġs cler
os ure
ER T
Ġthro at
Ġe lev
reat in
ĠAl cohol
Ġ0 01
ĠIn s
ĠU r
Ġpri vi
ANC E
ar n
ĠO b
Ġo ur
ys m
Ġ4 8
ot t
Ġf lex
Ġunder st
ĠF ac
ĠM c
ĠD aily
B lood
es thes
ĠM other
ĠD I
ĠPA T
ol ute
l ess
sw er
ol er
Ġrecord ed
v ant
oc arcinoma
H ome
sim ile
ĠPH YS
Ġ6 6
ter min
Ġr espiratory
M PH
ĠM em
lo l
ĠW ell
ul f
ĠDi agnoses
CED URE
In t
an a
Ġw ww
CL INICAL
Ġsp ecimen
ĠRef ills
ĠM OUTH
A c
ĠDi abetes
Ġ9 6
et t
Ġcomplet e
ang u
ur ed
ĠP ELV
Ġbe low
at ernal
up ils
ĠD ose
on y
Ġ8 8
ip s
Ġ4 2
v a
Ġab le
reatin ine
H ISTORY
Ġlab s
r n
Ġ7 6
Ġ7 3
im ately
Q u
ar a
ĠCol lected
as ound
h tt
Ġcopy ing
r in
Ġpatient s
Ġbet ter
ĠSmok ing
RE AT
lex es
ĠG I
Ġ @
P ulmonary
Ġre mo
N euro
Ġf act
M other
ear ing
Ġaort ic
Imp ression
Ġ `
OU R
op ic
ĠF l
or ks
Ġb ronch
leg ed
Ġax illary
Ġs light
ĠG l
Ġstrict ly
Ġ7 18
ĠPRO VID
Ġo s
I OLOGY
ĠL ung
H PI
AIN S
Ġdis s
Ġsub mitted
er os
I UM
IS IT
ac ement
Ġgr ade
ĠUn its
Ġs ender
Ġre ct
y l
Ġo v
Ġb ec
Ġco ver
Ġrecomm end
te bral
Ġpr ed
K E
ĠR esp
201 2
ĠY ears
Ġa round
ĠP C
S ex
Ġ1 30
11 0
m it
Not e
ĠI d
Ġ4 6
ill ing
o ber
M S
Ġm ax
Ġben ef
Ġabnormal ity
C PT
ent ly
M ild
ĠH AND
v ille
Ġf ail
Pr inted
F E
ĠDis c
Ġval ve
Ġc ap
Ġhep at
Ġm ade
Ġ âĿĳ
ĠHe ight
Ġre active
ĠR O
IAG N
Ġmon itor
ĠQu est
ati o
he ter
ut aneous
Ġh ospital
ĠG L
it es
N umber
un ct
Ġl arge
ĠD o
ĠC C
Ġg allop
erv ed
R IC
ĠR D
angu age
Ġc ardiac
In g
i er
Ġmurm ur
Ġc ommun
lo ck
ĠM S
Ġ6 3
M T
Ġdo ing
Ġe ach
RO S
ep s
R Y
Ġsy ndrome
ĠEx ternal
Ġmo b
ĠC DT
Al cohol
or ial
ĠH x
ir m
hy roid
ĠSY STEM
en gth
Ġn ame
am ed
as ional
Ġf ree
Ġe vi
Ġ5 4
Ġim mun
ĠR fl
ĠH PI
Ġsign s
ĠPROTE CTED
lop athy
Ġdi agnosed
Ġm ellitus
V D
Ġprivi leged
ĠR R
ĠF r
Ġst ool
Ġdist al
C OM
ros is
Com ment
ot ass
OLIC Y
A GE
Ġy rs
rap hy
Ġpres cribed
B MI
ID E
He ight
Ġexert ion
Ġs ystem
ĠReg ular
Ġsu ch
ĠSt e
ĠB ilateral
eat s
ĠM E
ĠP ark
Ġs ite
ĠAn d
Ġ4 00
x y
L OG
Ġmo ve
ur a
Ġc r
Ġ7 1
Ġ5 6
ĠV erified
am es
Ġ ive
ĠL umbar
AT H
Ġf ew
C ase
HE ENT
Ġ6 2
are tt
ICATION S
ur b
Ġcomplaint s
ĠS TE
if e
ĠB rain
Ex p
Ġabnormal ities
ĠRe qu
Ġinf l
Ġpel vic
Ġax ial
Ġapp etite
Ġ4 9
Ġthick ening
l and
al g
iz ing
if er
Ġd ata
Ġrash es
Ġ ery
Ġcl ub
IT E
Ġed ucation
f en
Gen itourinary
Ġhep atic
C ar
Ġf all
it u
ĠRe lease
ar act
Ġpalp ation
ir med
PH YS
otass ium
ĠH ome
Ġth ree
k i
ĠSc an
I AT
ĠP OLICY
erv es
Ġqu ad
raz ole
R adi
Ġscre ening
ut om
pt ake
Ġs ystems
pp le
a u
orr h
Ġlb s
ĠS kin
ĠBre ast
ĠL V
OR DING
ĠC AR
Ġthrough out
ĠT obacco
ĠNe ed
u ary
Ġto p
Ġre li
Ġsupp ort
ĠFR OM
Health care
ic u
Lung s
lor ide
OU NT
Ġthe y
Ġ5 2
in ed
D ocument
S ite
ĠF rom
oph age
ĠHAND LE
ĠEn tered
ĠD AY
Ġventric ular
Ġiss ues
roll ed
d le
ĠLe vel
Ġind ividual
ĠC ARE
lectron ic
ĠM y
ĠSP INE
al m
ĠF ather
ĠR ep
Ġur inary
ig arett
Ġsh oulder
om as
CONT AINS
ro at
arm acy
Ġ3 55
ĠB RA
Ġm aint
er ature
ĠPELV IS
ĠACC ORDING
am mo
b al
in ent
ro ther
ar i
ĠSt ate
Ġnot es
ĠC OP
Ġreve als
ĠRecord ed
Ġper ipheral
ĠDay light
T otal
ĠResult ed
nc ope
el ess
t il
Ġs im
Ġwalk ing
Ġnec ess
stru ctive
V EN
Ġ201 4
M CH
G I
raum atic
ru ct
Ġg eneral
Ġser ies
Ġr n
ing ling
Ġp oint
Ġst ill
ing le
ĠP CP
Ġent ire
ro y
th od
Ġ5 7
S u
ched ule
etail ed
C ARD
Ġn erve
ĠC R
M AN
an ic
ap e
ĠPROVID ER
ĠB ID
Ġcy c
Ġp ulses
Order ed
Ġor ig
ĠS O
D ictated
oph en
ĠEx amination
ĠT e
ophage al
ĠRef erence
S in
Ġc c
Ġwor se
Ġthe ir
ist s
Ġ5 8
Ġ6 9
Ġcar otid
Ġb pm
Ġher nia
S e
R N
ri ent
ĠA ttending
Ġ12 5
d ed
ĠM ichael
C ARE
ĠP ressure
ĠI II
IAGN OSIS
Ġt emp
Ġimpro ved
Ġinf ection
ing er
re h
Ġu ptake
A A
Ġ4 7
t ender
ic a
acc ine
lo m
Ġf ron
Ġaort a
Ġre ce
ĠPel vis
l ast
H as
el ine
ĠV itamin
Ġreg arding
Ġt aken
ir ation
Con s
C OP
l ed
R ON
Ġ its
Ġ ing
id s
LE Y
ĠAB DOMEN
ĠE KG
ch es
Ġy o
ĠK n
ĠP a
od ay
Ġ8 5
Ġery the
il tr
ch i
F ER
w ay
k le
Ġcon gest
Ġas c
Ġ7 32
St art
Ġne ver
on ia
ĠB E
Ġdiffer ent
ĠIM AGING
p er
ĠM ild
ot or
Ġapprox imately
ag ed
Ġf irst
Ġref lux
Ġn ourished
ĠN euro
iv ing
Ġatt ach
E l
ĠS in
ate let
Ġro und
Ġfac simile
r ant
om fort
Ġper s
Ġs l
Ġresp onse
Ġfe els
as ure
Ġsens ation
N on
ent in
Ġs ec
Ġneuro log
ad y
ual ly
F ather
P rior
D escription
oler ance
Ġt i
em og
M on
ĠH R
ĠA g
Ġ ^
Ġ4 3
Ġh r
re es
Ġsymmet ric
ĠP e
M E
NE URO
un t
H C
Ġe ch
m e
f erred
ĠR x
ĠLab oratory
Ġvisual ized
ap h
ont ender
ĠF uture
ĠM EMORIAL
se ous
ĠE ast
Re quest
Ġrecord s
ĠPr int
Ġper form
olester ol
Ġ12 0
Ġpl aced
ĠM L
Ġreveal ed
OT AL
ĠB SA
V AS
lic able
Ref erring
cri ber
IC IAN
w ent
Ġst op
ĠM CG
O RE
Ġdef orm
Ġw arm
ĠT N
Ġf ood
Ġmem ory
Ġrec urrent
ve m
ĠV ISIT
A ctive
ardio gram
re as
EM ENT
ren al
Ġ il
ic ter
ast olic
lob in
or es
ĠE m
ĠAl ert
C S
Ġ2 50
iver s
ĠIn c
uc lear
Ġc entral
ĠComplet ed
ĠW est
Ġ6 7
Ġ ult
Ġin itial
Ġconcern s
Ġ8 4
ĠCon f
Ġt ub
Ġst age
Ġsw eats
aj or
Ġmove ments
Ġseiz ures
11 9
Per formed
Ġex hib
y te
ERG IES
W orks
olum e
ĠAss oci
am p
ĠE st
itone al
ĠA llerg
Y ou
S P
Ġst ate
Ġ enter
R ad
Ġs egment
ĠS ch
D G
Ġclub bing
Ġy es
ĠApr il
uss ed
ak es
ĠS ee
Ġincre ase
er i
Ġpat ent
Ġmo ist
Ġtest s
ĠP anel
ĠV itals
Ġinfl amm
Ġmediast inal
Q U
Ġ5 16
ĠSmok er
it i
Ġbed time
ĠR T
ĠP art
C Y
Ġsp inal
h ip
u L
ĠMED IC
R eturn
or ax
Ġt one
ce ased
Ġ9 5
ER S
Ġh and
Ġmarg in
ĠN OD
ss ential
ĠN M
ur se
G ICAL
alp ation
ro ke
ept ember
oph ag
ou ch
b ran
ĠDirect or
Ġs at
Ġmuc osa
Ġug s
es ity
Ġf ace
ĠP ost
Smok ing
Ġ6 00
ĠC he
ĠC lear
ole c
Ġst ated
Ġdeg enerative
i ot
av icular
Ġaden ocarcinoma
ĠGr and
C BC
T ON
ĠOct ober
V I
ontin ence
ocyt es
Ġat raumatic
Ġi i
Ġr a
U B
us ed
L L
et amin
io g
ĠDa vid
G ender
o h
u ch
olog ical
ĠPA N
R AL
Ġs econd
C ontinue
Ex tremities
uss ion
Ġmo ther
w are
ru ary
ĠMar ch
low ing
OR K
Ġexp osure
ĠC r
X R
x imal
Ġdes cribed
Ġcomp ared
ĠAug ust
Ġro ut
op t
Ġb ul
etamin ophen
Ġfract ure
Ġv ess
ited Healthcare
ĠD el
f usion
Ġper ic
Ġt erm
vem ber
ĠPer formed
Ġe c
it ary
ĠR d
Ġref ills
ĠT op
act ions
ter s
od one
Ġm orn
Ġlung s
arr ative
GEN ERAL
B re
ĠL a
Ġch ildren
FIN AL
ver s
ION AL
Ġm od
Ġfrequ ency
ong ue
Ġf low
R esp
ĠH emat
Ġad vised
eric an
Ġt reated
ĠU P
ĠS itting
r ate
Ġpol yp
st ance
ĠC OL
Ġt ingling
Ġapp ointment
en ance
AC K
ĠS PE
ĠT X
ĠNeurolog y
Ġdest roy
12 5
L ow
Ġs ter
D E
Ġst ruct
c hem
Ġth ough
Ġdu ct
ĠM od
op ro
ĠB en
rom b
Ġinter val
Ġl a
ĠOrder ing
Ġs cheduled
TE ST
ĠA VE
Ġ8 6
ĠP ar
Â °
Ġpro tocol
erg ency
ct or
ĠUp dated
d ist
Ġp uff
Y es
ĠS at
i que
B UN
Ġm ult
Ġ ut
Ġerythe ma
p os
Ġcat heter
In d
Ġp ack
re a
Ġin ject
ĠS m
N Y
End ocrine
Ġm el
ĠF ACC
ab ap
ĠN AME
ĠComplet e
OM Y
Ġun it
Ġdisc omfort
Ġun c
Ġunder went
ĠJan uary
anc ed
VER Y
Ġs ection
AT ORY
Comp let
Ġref erral
ĠP E
in op
Ġs ame
Ġ ate
Ġben ign
Ġj sp
icu lopathy
Ġn ontender
Ġhem orrh
reg ular
Ġrecent ly
Ġfe eling
P at
ĠJun e
ĠRo bert
Ġent ity
c ent
Ġapp licable
R T
ĠTh roat
L V
Ġc ounseling
P l
ord ination
Ġneed s
Ġg enerated
ĠM el
ĠTh erapy
ĠC P
ĠRE C
et ic
Ġind icated
p athy
Ġh owever
Ġbru ising
ĠPAT IENT
uc ed
ĠG u
Ġare as
as p
Ġlim ited
ivers ity
ater ial
Ġ9 3
Ġ3 25
ĠM ET
Ġmot or
ut ic
Ġref erred
ĠJul y
ĠAcc ession
ĠEx t
Ġenhanc ement
O PH
Ġd im
Ġ ess
ĠSp ecial
âĢ Ķ
ĠC ount
AL T
urr ed
A tt
ist or
ĠSign ature
l avicular
Ġn amed
esthes ia
Ġp e
Ġmorn ing
IN ATION
ver se
Ġup on
ĠS y
Ġ7 9
m s
Ġpro state
R BC
enz a
ĠR ad
ar ison
Ġelev ated
Ġhealth care
AM ILY
j ection
Ab dominal
U G
Ġinvol ving
ast ric
RE D
go ing
ĠCh rist
c a
IN S
Ġex c
Ġm igrain
ĠI mmun
01 1
Ġ14 0
ear ance
A H
Ġeffect s
AT ED
Ġfollow ed
abap entin
ĠL Y
ur ysm
Ġpro gress
f or
ĠS I
R AM
Ġinj ury
Ġup dated
RE NT
Ġab use
Ġvi a
omm end
ĠS IGN
Ġexhib its
Ġn i
D e
201 0
et te
ain e
ef f
Ġc ere
Ġperson al
b ably
Ġ8 2
Ġext ension
R el
rop hy
ĠH CI
Ġhealth y
Th erapy
F I
C D
t ected
ĠRe ceived
itt al
ĠN orth
um in
Ġinv as
Ġ100 0
Ġquad rant
a a
Ġos seous
reh ensive
Y our
Ġe as
P ART
ĠSp ecimen
Ġcontin ues
Ġm alignant
Ġ9 4
Ġwors ening
Ġcommun ication
ĠPA TH
v d
E CT
ĠP ulmonary
Ġar th
Ġadmin istration
ĠC re
ĠAcc ount
oc k
Acc ession
lu enza
ĠM ON
o v
PHYS ICAL
Ġmem bran
os eph
ĠCol on
O ut
ĠL I
Ġdi agnostic
rac lavicular
ĠN PI
usc ular
len omegaly
r t
ii ii
ĠP ort
Ġde termin
AL E
Ġsever al
Ġf oot
S ummary
Ġm ark
Ġfail ure
un n
oid s
is ks
ĠS ystem
ĠR isk
og n
at s
Ġex ternal
P os
ĠB ack
Ġo ste
Ġred u
Ġa in
Ch ronic
ĠT EST
ĠA SS
our se
Ġc ert
A CT
ĠP hysical
ab l
Ġspe ech
he l
ĠFac ility
ĠD es
o ff
on chi
ed eral
IN D
ia z
ĠDocument ation
Ġb ase
G ATIVE
ĠL aw
ĠNo v
Ġr ales
Ġgl and
V IL
ac ral
D oc
Ġwh ile
ĠH A
Ġp ath
Ġp g
uter ol
V AL
Ġc irc
ĠS ur
ĠC ardiology
ĠSt andard
Ġacc ess
or ph
I d
aff e
ag ittal
v anced
Ġdel ayed
omm on
ib ly
ĠPL AN
en ied
Ġcont ained
dist ended
al t
ĠL i
Ġhemat uria
CUL AR
Ġslight ly
OH N
Ġs ections
el low
ĠM g
he ad
anc es
ĠM ark
Ġleg s
Ġult r
vent ion
GER D
b uterol
In structions
ment al
it le
O LE
bl adder
Ġevi Core
ĠWill iam
ĠS i
L OW
Ġm ember
Ġcyc le
cript ions
d i
LE ASE
cess ive
ĠAd min
f ord
Ġte lephone
Ġw al
v acy
ĠP athology
Ġf ield
ĠSYSTEM S
Ġind ex
ĠC ontinue
Ġfac ility
H ENT
ĠS eptember
Ġad ult
Ġd et
Ġover all
Ġf ind
Ġbec ause
Ġs itting
ĠRAD IOLOGY
ĠBRA IN
L UNG
Ġs ore
Ġr i
ĠH TN
u inal
om ach
al ine
Ġob s
Ġ8 9
cc up
ĠPro blem
ĠPA IN
B S
Ġt rem
n t
as one
Ġint olerance
ĠH FA
ce ed
G U
ĠF DG
mitt ent
ĠR OS
ag inal
I l
ĠMem orial
T r
R D
align ancy
Ġad renal
Ġc av
Ġtablet s
LE X
all bladder
Ġlo cal
ĠA CT
ili ac
ESS MENT
P res
Ġop ac
ĠH g
Ġgreat er
Ġp hone
Ġauthor ization
n ed
ĠW BC
Ġresp ons
reat ic
ĠSer ver
Ġc t
Ġcongest ion
al og
ĠUN IT
Ġs olid
ix ed
ĠC a
EX AM
ĠFeb ruary
8 00
C alc
Ġ201 3
Ġw o
en ic
Ġf our
N ESS
ort ic
ĠRE VIEW
ĠM M
act ice
3 25
us cles
aract er
Ġsy ncope
Ġp ed
Ġkn ow
du ction
Ġnod ular
um p
ĠNo vember
Ġn eg
Ġrub s
h at
Ġdist urb
ĠL AD
Ġg en
Ġorg an
201 1
ĠAssoci ates
s criber
G l
Ġs n
Ġ9 1
at ures
Ġinc ontinence
b umin
ĠAL L
Ġm s
Ġultr asound
ĠE valu
Ġpos ition
Ġinf erior
PI R
Ġ7 12
low she
Ġf L
Ġun til
or ed
ĠE OM
las ma
Ġcons ent
Ġpart ial
ĠPAN EL
Ġm aterial
ĠE VERY
ĠC ell
A ttending
UMB AR
Ġpro ximal
Ġe v
ĠS ERV
ib ility
htt ps
Ġob struction
B as
V C
ant s
Ġis chem
ĠIN TER
Ġinf iltr
ĠCOP D
ammo gram
Ġapp roved
ect al
Ġd L
ĠF AC
ĠDec ember
4 00
Ġqu al
Ġres olved
Ġper i
T reatment
ĠT reatment
T rans
Ġn t
er ential
i ber
ĠC AD
PART MENT
Ġ8 3
Ġp athology
ĠS ep
urr ence
ĠM ember
re ci
â ĸ
OU S
ĠB R
ĠA tt
Ġcan not
im ated
Ġwh ite
M s
Ġpo or
Ġsup erior
c on
Ġdys uria
Ġdefic iency
ĠH Y
G L
spec ific
Ġlymph oma
Ġan e
U r
Ġcan al
ĠR A
a id
11 4
Ġflex ion
bul atory
Ġp ur
Comp onent
en ch
an iel
Ġfe el
ĠD on
Ġsup raclavicular
r id
ĠE N
Ref erence
Ġm ic
Ġcolon oscopy
ĠU R
ess ation
F indings
ĠSc ore
Ġur ine
et ter
Ġmid dle
ol i
Ġre ason
it a
e th
Ġocc asional
Ġc ount
Ġs ervices
ĠS ervices
Ġr d
Ġan swer
Ġm alignancy
F L
mp loy
Ġant ib
C ode
M EMORIAL
ĠA f
ST IC
Ġm es
affe ine
Ġsh ort
Ġrh onchi
Ġp al
ĠD one
ĠPHYS ICIAN
Ġacc omp
ĠH ER
Ġcol or
ĠDi agnostic
Ġass essment
Dep artment
Ġle t
ĠF OL
ĠI r
ran sp
19 57
ress ed
ĠB as
ĠPer form
Ġapp reci
E d
B ody
Ġlab eled
ĠS ocial
em s
ĠN ose
10 4
R ep
Ġat h
J o
en ed
01 0
Ġun its
id es
Le vel
V al
P S
Ab s
Ġv enous
utom ated
A fter
ĠAn g
Ġs econdary
ad ing
ĠT Y
pp ort
f unction
ĠW ork
R eg
mo id
ĠM alignant
k y
P ost
IT AMIN
ĠL LC
ĠO NE
Ġpr int
ver tic
ĠNE W
Ġc lo
ĠIn spection
il t
Ġbe havi
Ġper t
U TE
ĠUs ed
velop ed
ĠSp ec
p ro
Ġve in
ĠR OM
Ġfact ors
Ġscan s
Ġmetast asis
Ġ11 2
11 7
Ġst ent
Ġmetast ases
M r
O pt
ĠEXAM INATION
ak er
ĠP ast
19 55
is inop
ĠRout e
ell ar
ĠC ARD
W BC
or b
Ġon set
Ġn d
P AST
Ġgl ands
S UR
Ġap nea
ĠS ig
d end
ĠB ar
Ġperson ally
Ġn arrow
RE VIEW
Ġshe et
R out
19 56
Ġcon dition
Ġar ran
ĠIn hal
igarett es
Ġm uch
Ġsp ray
IS S
b urn
Ġqu it
o o
ĠJ ames
xy gen
Ġinf ar
lo or
Ġbreath ing
ĠP RE
Ġe yes
HE M
Ġle ast
S ervice
itt le
Ġwheez es
Ġv ascular
Ġfron tal
ĠTH IS
Ġh ilar
Ġmo vement
hy d
ric k
Ġass ess
V erified
RE AS
Ġb as
ran u
Ġremo ved
Ġsmok e
S ens
Ġnecess ary
g ent
Ġevalu ate
P art
PRO CEDURE
om in
E C
Ġf em
Ġ10 8
ĠPh armacy
Ġ9 73
Ġcol d
ĠN eg
ub in
ĠL ateral
Ġo t
Ġane urysm
G B
ĠAb dominal
ĠCh anges
Ġw r
ĠE S
as ant
Ġth er
Ġunderst anding
Ġdemonstr ated
Ġl ine
ut roph
it ral
isinop ril
oc ardiogram
02 4
Ġob structive
ĠE CG
ĠS OB
ĠWITH OUT
Ġgo ing
Ġc re
ich ard
Ġperic ardial
MED ICAL
ĠX R
I r
ac er
ag m
Ġe vent
ĠDep ression
LUNG S
ac ent
ĠS N
ĠP ed
ĠPrior ity
Ġt end
ĠAn n
ĠP olicy
ĠCons ult
ĠS L
Ġind ic
B ack
ĠS HE
ĠCON T
Ġmild ly
Ġing uinal
ĠSt age
o ice
Ġsign al
Ġ10 9
oc yte
ĠBl vd
ĠM ic
Ġm al
Ġorig inal
ĠA q
roid ism
Ġfac ial
L OR
ĠC V
is one
Ġs ystolic
r ill
eros ol
Ġes ophag
19 59
ĠCl ass
Ġn erves
requ ency
ĠUs er
isit ion
ĠS w
s ided
ep razole
os in
us ions
ap se
Ġt reat
op pl
Ġg ain
Sign ature
Ġm at
urg itation
Ġb al
R x
ĠPh D
ĠHyp erlipidemia
ĠHealth care
us tom
17 7
Ġ8 7
th ing
Doc Type
06 1
d en
ĠAn xiety
Ġbenef its
y le
Ġro om
up ro
19 58
opro lol
ORM AL
ĠRadi ologist
8 66
ot e
ri um
ĠC ommun
a im
Ġinter pretation
ĠMan agement
C N
Ġinf o
A V
eg ument
IS H
Pr int
ol l
Ġr isks
Ġfever s
Ġrece ive
Ġt ouch
at igue
Ġth ose
Ass ociated
C IS
Ġun less
ord ing
ĠG ender
Ġl if
C ardiac
ro ch
ĠG RO
opt ysis
Ġag ree
ĠLE FT
ĠD IF
M o
ĠO x
Ġin ternal
a ugh
im um
ĠUn known
ĠR IGHT
F ac
RE EN
oc us
ĠB ody
Ġch aracter
g er
D ec
Ġo w
Ġview s
upro fen
T RE
re y
O ver
Ġasp ect
ĠO P
Ġ GE
ĠE MR
r ical
we ight
ĠUn iversity
v ir
ĠR OB
Ġlist ed
C he
Ġt ri
s c
3 00
if ications
ĠK e
ĠD L
ĠAuthor ization
l it
es ophageal
P CP
ĠE ssential
ĠU l
ar ian
ĠRES ULT
ĠInd ex
Ġc lin
ĠC AL
Ġas k
V itamin
Ġ16 0
Ġasp irin
ĠC ST
Per form
de veloped
p ed
ĠL UMBAR
x ic
I mmun
oc ardial
ĠN ormocephalic
ĠM r
iz ations
Ġpers istent
Ġimpro vement
g ression
en ia
Th ese
ĠPos ition
ĠM ICH
GER Y
Ġgallop s
Ġrad iculopathy
Ġrest rict
Ġk e
r ed
ĠM ain
E G
ĠPATH OLOGY
T AKE
ĠSUR GICAL
Ġin ks
G ait
is es
ag ia
Ġm uscles
enc es
Ġor thop
ĠM in
C HEST
ver age
Bre ast
Ġattach ed
Ġfe et
11 8
ag er
ĠNO TE
Ġ0 04
ĠReport ed
ĠIn ternal
Ġcy cles
NO STIC
Ġdecre ase
ĠE p
tr act
oppl er
il ir
u vant
ĠS odium
Ġt an
Ġcont rolled
Ġfrequ ent
el a
ul in
Ġsp ent
e al
Ġs et
Ġbru its
ĠW H
ĠT im
Ġas thma
ĠPl aced
Or al
emog lobin
v ice
Ġth romb
Radi ology
Ġs ervice
Ġ9 2
ĠT OTAL
ar ent
RA PH
ĠTIM E
struct ed
on ic
se y
ros c
Ġm E
196 0
Ġc ord
PA GE
Do es
01 9
19 54
Ġex amin
ĠT SH
in c
ĠApp earance
ĠM ass
ter m
Ġr t
T aking
Pre vious
B L
i atic
OS COP
ĠAm erican
ĠEd ucation
r r
ig o
Ġm ut
Ġ8 66
Ġcon junctiv
ĠSt able
A EL
rop er
ĠCol lection
01 3
ĠP RES
ĠB I
ĠAC CT
N arrative
ĠS S
ĠR espiratory
Ġmob iled
ĠR est
C ancer
ĠM ultiple
Ġ11 7
Ġmed ial
Ġeff ort
b s
ĠY ORK
es is
he um
ĠG U
ĠF IN
Ġinter mittent
Ġo m
ĠOF F
ri a
ys ter
ĠV is
ALL ERGIES
Ġe GFR
IAG NOSTIC
ame ter
ĠAn t
Ġpro p
In f
ond y
ĠL O
Ġt ry
Ġcons ultation
art an
ĠC S
ĠB ro
se qu
Ġs m
Ġevalu ated
ĠE C
O nc
ĠCON FIDENTIAL
D R
re ased
OM A
Ġres idual
U p
Ġdiss em
Ġenter ed
Ġexp eri
W ork
ri er
I nc
Ġb eg
Ġex tra
D iff
Ġdys function
ĠC E
M an
Ġ urg
Ġp ot
ĠT W
ĠE NT
ĠReport s
ĠDis charge
ASS ESSMENT
ĠL OW
Ġref lexes
ĠSU V
LE CT
Ġ0 02
ĠD x
Complet ed
yc le
Ġmin imal
01 6
Qu est
ache a
Ġhyp erlipidemia
Ġreg urgitation
e a
ĠLY MPH
R IST
Di abetes
ĠJ OHN
ĠW I
Ġepis odes
ĠAbs olute
Ġ0 03
ĠAllerg y
Ġwh ere
NEURO LOG
Ġd ensity
w ell
w ork
E ars
ĠTh omas
OG RAPH
lo d
Ġs chedule
ĠO p
Ġrec urrence
Ġpre gn
N L
OC IAL
E m
Ġr ib
Ġat rial
Ġs ocial
IC K
Ġ201 2
Ġs k
G y
oc h
ĠM outh
Ġver tebral
M ay
Ġh x
Ġ0 30
Ġint ake
Ġp anel
Cont act
Ġt t
AB DOMEN
R U
Ġt ongue
um s
M ember
Ġst omach
om nia
ĠAc ute
ĠC I
O K
ĠT RAN
C ranial
Ġinhal er
Ġch art
ly ing
ĠO rient
ĠG en
an der
Ġ10 4
Ġsp as
ĠE L
IL S
12 0
Ġsubc utaneous
ĠU L
Ġhe ard
ĠC ontinued
ĠM a
Ob jective
c m
Ġcont ents
Ġpart ic
Ġir regular
Ġsc ore
or vastatin
R es
itt en
Ġb lock
Ġv itamin
Ġpar ench
ĠO m
IL LI
196 1
ĠSTAT EMENT
M UN
Ġspec ific
du ct
Ġrequest ed
ĠL oc
Ġanswer ed
ĠDE PARTMENT
at est
RA DI
Request ed
Ġarran ge
l ab
ĠN A
roph arynx
ON ES
Ġsens ory
i ate
Ġu ter
R o
urs ing
Ġ ib
Ġde ep
E Y
Ġget ting
h am
Ġnarrow ing
Ġsw al
M et
rib ut
yp ical
Ġrequ ire
Ġass ist
Ġan emia
Ġdemonstr ates
ĠSTAT US
ilir ubin
ĠN S
IN A
T el
St udy
trem ity
ĠApp ointment
ar p
Ġreli ef
ĠPA R
ĠRef erral
5 00
ĠO ne
is f
MC V
S ig
Ġsim ilar
Ġsp leen
Ġdiff use
Ġx ml
Ġd ated
Ġf elt
Ġpro min
ir es
C OLOGY
Ġmed ic
ĠSc ale
Ref erral
V iew
Ġin surance
ĠSt ress
C M
ĠN OR
h agia
Ġact uation
ĠS outh
oph il
ĠF NP
Ġsp ecial
Ġseiz ure
Ġ18 0
Ġam ount
Disc ussed
CON FIDENTIAL
ĠD OS
et ry
A uth
ĠM at
Ġs olution
Ġprovid e
Ġpro ceed
Ġex on
B SA
N ever
OW N
01 7
ric an
an i
Lab s
los ed
v in
M AR
ĠM id
g r
othy roidism
ĠT w
Ġext ended
min istered
C OR
Ġthe m
14 1
ge on
Ġa ff
Ġa ction
ber g
Ġl arg
ĠC ervical
Di ag
rom egaly
Ġ9 08
Ġ GERD
agn es
Ġ0 05
ant ity
Ġn ear
ĠAr ter
B ER
ert ification
Ġlevel s
Ġs agittal
em pt
ĠIL L
c r
Ġobt ain
Ġv ar
Ġex cessive
ast ing
m its
Ġgu id
Ġc ourse
T I
lev ant
l t
ĠE ff
Ġenlarg ement
h ale
Ġ000 00
dend um
ab its
ĠPH ONE
ĠE M
Ġneuro pathy
O p
ĠSt udy
ĠO THER
Ġpro gression
I ll
t en
ĠAd ult
at Ion
n ing
Ġf ormal
AN S
we en
ĠM ult
Sub jective
Ġrect al
Ġepis ode
Ġadj acent
11 2
u ous
196 2
ĠCalc ium
II I
Ġpat tern
IN IC
c iled
S PE
Ġdeform ity
th alm
ĠMo derate
ep end
ĠE ar
ro ub
cri be
gl ish
Ġ3 54
I LE
ĠRE G
ST ER
Ġt ra
egument ary
Ġth igh
Hyp ertension
Ġdi aph
et y
i ated
St able
Con f
M y
O THER
in o
e qu
at tered
ud it
Ġ11 4
ĠM ary
Ġinclud es
ĠNOD ES
Ġto o
Ġm ast
ĠSt rength
Ab normal
T hyroid
h er
icter ic
Ġ10 2
200 0
yster ectomy
ĠC ough
ĠP sych
T echn
OR DER
ĠS ource
ĠJ oseph
ĠCM S
ud g
ĠB illing
l apse
ĠA ction
ĠTop ics
b o
Ġdef in
Ġb el
ĠMet abolic
ĠD IAGNOSIS
Ġad d
Ġdis pl
Ġan kle
RI PT
b or
Ġs ed
stit ute
a ud
Ġch ild
iv ity
ĠC ap
Ġfac et
n n
ĠM aint
L umbar
ĠF e
S econdary
ĠD ist
ĠIm ages
ii i
Ġwal se
ĠNE ED
SK IN
ĠTH OR
ations hip
op er
Ġ100 65
S ee
ell a
Ġrespons ible
l s
Ġill ness
erm et
qu ired
Ġopt ions
ĠCON S
R S
Ex amination
Ġstart ing
al ysis
RE L
ĠPRES ENT
Ġpanc reas
Ġd os
ĠM ST
F emale
P N
an oma
Ġdissem ination
Ġs ep
enn ifer
ac ranial
TH E
ĠD OM
ĠREC ORD
ĠSmok eless
T EN
l im
ĠL ine
ĠIN D
S O
b able
Ġ10 6
ĠU rine
Ġrep air
ĠScre en
ign ed
OC Y
ĠSer um
st ant
Ġ11 3
ĠA Z
Ġs ingle
ĠA uto
Ġdefic its
PL AN
Ġhem optysis
y len
ĠO UT
Ġ0 06
oph ils
r ing
Ġsub ject
o e
Ġmed s
it er
w ays
o ar
ĠCor onary
Ex ternal
ĠS ymptoms
Ġrout ine
ĠD etailed
ve y
Ġr ule
Gl ucose
ĠS ever
ĠNE GATIVE
Ġloc ation
L D
M ultiple
at ation
ard ia
ĠCons ultation
N S
Ġwh at
ĠBL OOD
Ġp ass
ĠJ oint
iff ness
Ġde ceased
196 3
Ġl ength
ĠPos s
Ġthy romegaly
a uthor
H S
RA Y
ĠCO VER
roub le
Ġref er
Ġstruct ures
ĠBre ath
Ġfor am
01 8
ĠC ardiovascular
ymp anic
VIL LE
OM ED
RE E
Ġ2 05
ĠT E
OSCOP Y
Ġasc ites
VAS CULAR
Ġaddress ed
Ġbet ween
Ġ10 3
Ġ6 09
H ospital
14 8
R ange
Ġj ust
Ġtub e
ĠV er
ith er
ĠOFF ICE
d l
Ġcompl ications
ro log
Ġlo b
11 3
ĠF E
Ġem b
Ġ1 1111
U s
ĠD ES
a que
Ġm ake
at itis
ĠS am
oc ular
ĠAL T
Ġconf irm
ĠmE q
M em
en ess
Ġpresent ed
rit ical
ut um
ĠRo om
Ġpanc reatic
ĠF indings
ĠPro tein
Ġs ch
EN N
Ġple asant
G roup
ĠIn clud
AT A
Ġain age
i ri
olec yst
Ġpro tected
N AME
ĠD M
Ġw om
Ġear s
Ġabs ent
11 6
ĠH IP
Ġo x
P ET
f er
Ġhe ight
ĠC ity
Ġ7 05
th ough
Ġredu ction
Ġrep l
os acral
Ġut il
ĠP I
C U
k a
ĠB UN
ĠP SA
Di agnostic
Ġapp end
n ourished
Ġ iliac
ĠForm er
unct ional
Ġ }
Ġs odium
D O
arc oma
Ġp all
Ġag ent
11 5
Ġdo ctor
end s
ĠK Y
ĠInt act
Ġcont ains
ĠIn tr
Ġorder s
10 9
Ġmc L
Ġsur face
ĠE ch
ĠGl ucose
Ġmembran es
Ġhyp ert
h t
QUE ST
Ġin structions
ĠG astro
dit ions
AR M
Ġarter ies
ĠAP RN
Ġf inger
ist ry
S tr
Ġdeg rees
Opt ions
ĠS leep
Ġp ulse
Ġs aw
Ġdec ision
Ġdiscuss ion
Ġout side
op l
W AY
Ġm ar
2 14
ĠG FR
ĠR atio
Ġro t
ĠHemat ology
ĠSoft ware
ar ant
Ġt ight
Ġver t
196 4
Mar ital
ĠA ST
ĠSu pple
g ia
NE CK
ĠCM P
Ġappreci ated
ĠB C
ĠY OU
10 2
ĠIn v
ĠV IEW
Ġexp l
agnes ium
iss a
d ate
ĠL o
Ġemp loy
Ġcirc um
ĠH er
ĠA ct
LY MPH
ati ves
RO ID
ĠD aniel
Ġl y
ĠSHE ET
Ġun known
umb osacral
T e
ĠT hyroid
z a
ĠH em
Ġg astro
M M
AD D
Ġpartic ip
Ġs it
Ġpneum onia
ĠR ash
Ġ10 5
Pro blems
ad ol
ul ations
Ġsp ace
ĠH yd
oc aine
ĠPER R
V T
Ġapp ro
ĠI T
Report ed
Ġmobiled oc
Ġh ow
Ġpot ential
ver tebral
ĠPro f
Ġv aginal
Ġur ination
Ġm ajor
FR OM
raph ic
S M
Ġcomp ression
01 4
ĠH I
ĠF irst
ĠC OR
ed ness
ĠSUR GERY
ra v
ĠJ er
Ġ ure
Ġf il
ĠN I
ĠNE URO
Ġdef ect
H t
ip t
Ġ ic
Ġs ac
ĠGRO UP
Ġm a
W t
re en
Ġc ardi
Rec ommend
Ġdil atation
ĠV ER
ymptom atic
A g
ĠN ational
Ġ â
Ġtoler ated
Ġan other
SY CH
Ġinflamm atory
osc opic
ĠAD D
Ġbehavi or
Ġate lect
ST E
PH ONE
id a
Ġs on
Ġear ly
H Y
ĠMaint enance
raum a
A I
G u
H igh
us es
ro g
ĠCalc ulated
ĠIM PRESSION
ĠH ep
Ġch anged
AC E
Ġjoint s
10 6
Ġn ormocephalic
Ġactiv ities
ĠL L
ne ys
Inter val
A CH
Ġfind ing
ĠLow er
Ġinhal ation
10 3
SU LE
ĠS M
Ġapp arent
Ġperi od
a ise
Ġar thritis
Ġ201 0
OGRAPH Y
M otor
Ġm ain
ĠM IN
Ġ10 7
Ġintr a
ĠCre ate
ĠMedic are
Ġp a
Ġs ix
ĠG e
am s
U RA
Ġcons olid
AN Y
ph thalm
Ġsc iatic
ĠV I
Ġo l
ab eth
ĠC ustom
IE F
ĠP ol
Ġ201 1
Ġdi ameter
ĠB o
ing ton
os ter
Ġnon specific
ed s
is a
ir d
ĠC K
Ġret roper
ĠCh art
Ġ9 20
ysp nea
Ġp ink
ĠS ize
Ġp ap
Ġadmin istered
ĠA sp
15 0
IV ER
Ġh rs
Ġdep end
ĠR iver
ĠSex ual
Ġdel iver
ĠDep t
Ġdi vertic
MCH C
Ġp ending
AM ES
re w
Ġan n
itu itary
Ġpat ch
L AND
Ġ0 08
ĠN ausea
Ġg abapentin
ĠS W
Ġr r
ĠA ctiv
In s
ĠCOMP LA
ĠN ext
Ġul cer
n al
Ġ5 18
ĠA V
IM E
IA C
ulf ate
Ġc ode
RD W
ĠTAB S
Ġe lect
if t
Ġhe at
Ġdetermin ed
ĠN urse
ch arg
ĠAr m
n isone
Ġto ld
ve ill
E KG
Ġappear ing
S cre
Ġclin ically
ge al
8 89
ĠRequ ired
ĠG A
ĠRO AD
Ġexamin ed
Ġcal iber
ou ble
Ġlab oratory
row n
ĠIn itial
VEN UE
as ing
Ġeas y
UL L
ĠDisp ense
RE ET
in ate
id neys
Ġ111 1
B owel
H A
N ose
author ized
ĠT umor
Ġ {
Ġg allbladder
Ġs ig
Ġrh in
Ġher ni
Col on
ĠAd ditional
ul itis
Calc ium
Ġport ion
omin ant
Ġ13 5
Su ite
Ġ4 01
veill ance
R IS
n ers
ĠOn ly
M SK
Ġhepat osp
The y
ist ant
ĠEn glish
Ġb id
asure ments
pret ed
14 0
Ġ1 19
ĠBl ue
Ġimp air
ime ter
ĠH ol
ĠT R
ear ch
ĠP erc
Ġorthop nea
ĠHead ache
erv ation
E P
s h
Ġswal lowing
C ommun
ĠI A
Ġf ocus
Ġcor onal
ĠSh ortness
Ġun able
rox ine
oc hem
Ġc ommon
Ġp hys
ĠP ages
Ġcat alog
Ġfollow up
O ccup
re ad
Ġme als
Ġinclud ed
lect omy
10 8
ĠILL NESS
Ġpres ence
ĠP hys
ĠT el
Ġl anguage
li ance
Ġp sych
Ġso on
e ech
Ex ercise
Pos itive
Ġvess el
Ġ13 6
iz abeth
Ġsmok ed
C R
Ġon c
L iver
Ġ6 06
196 5
an o
Ġhyp ermet
P e
Ġse qu
W ell
c ious
C AL
ĠH EM
ĠA VENUE
S o
ĠMed s
arm ac
ax is
ĠCL INICAL
vant age
A uscultation
T oday
ĠCAP SULE
ĠR ichard
Ġhemorrh age
ĠPres criptions
ĠP lasma
rill ation
ili ary
P olicy
B l
augh ter
10 7
chedul ing
ĠMICH AEL
I X
Ġe a
ĠWith in
ĠB AS
in ating
ar in
S OL
tr y
ĠSt eph
Ġpro bably
ĠJ r
G r
Ġver s
O ne
Ġatt ention
vi x
ĠConf irmed
ic iency
H owever
Ġv olume
ĠS G
g i
ĠUn changed
Ġ7 24
ĠCOMPLA INT
Ġ ip
qu es
Ġcomp lex
Ġpert inent
or ing
Ġv accine
ĠCL INIC
Ġintr acranial
Rec ord
IM AGING
ĠWh ite
P V
ĠPRO CEDURE
Ġdemonstr ate
AB OLIC
s urgery
ĠI R
ĠJ O
ĠNeed ed
in um
M US
1 30
al f
ĠCh ar
Onc ology
Ġn a
Ġst iffness
er ia
ĠN ON
lin ed
in anc
Ġperform ance
Ġc ause
ĠC uff
ĠF ood
ĠP alpation
ĠOR DER
Ġse x
Ġb ran
C t
ĠO S
f ather
Ġcons ists
ĠRef erring
Ġsp ondy
TRE MIT
ILLI AM
Hemat ology
LE TE
Ġconcern ing
Ġal buterol
Ġf ather
Ġhepatosp lenomegaly
01 5
Ġi le
Ġtab s
ou d
10 5
M ental
f r
ĠO T
Col lected
ut r
Ġman y
RA D
H R
ĠHEALTH CARE
Ġm Gy
icult y
D RO
ig ital
AC S
onal d
Ġ5 85
Chart Options
Ġenhanc ing
ĠA GE
Ġ7 16
Ġtechn ique
D a
Ġe ti
c ern
TREMIT IES
Ġright s
MED ICATIONS
E st
Ġcons ult
Ġal tern
Ġfem oral
ĠCL IA
J ECT
ĠI g
en uation
ri vacy
Ġs af
Lab oratory
Ġ6 39
heum at
inanc ial
last ic
aryn geal
AT ERAL
Ġp i
Int egumentary
f ield
um ab
C reatinine
le ased
Ġdisturb ance
ĠT oday
ĠEff ort
ĠH our
ĠSt op
Ġatelect asis
S mall
Ġ0 07
Ġal ive
Ġradi ologist
der ately
ĠA uth
Ġcere b
Ġadj ust
ĠC ardiac
T Y
19 53
ag o
Pro cedures
ri e
ĠT M
P upils
eph rosis
Jo hn
ĠD oppler
CI UM
ĠH IGH
Ġs qu
Ġm en
ap ai
Ġc op
t ed
Ġhe al
LET AL
Ġg ram
2 12
Ġg m
ĠB IL
ast atic
ĠJ eff
u el
oth orax
ĠInhal ation
Ġof ten
u a
err y
Ġimp lant
c ers
20 4
Col lection
14 4
ol len
act ic
ow er
EN MT
ow s
ĠD OSE
Dis p
ill a
Ġheart burn
Ġche mo
ĠSN OMED
Ġ8 45
S OCIAL
on a
ĠD ef
c ending
Ġex ud
Cl ick
ati v
Ġp am
E lectronic
IC A
Ġa ch
Ġw ent
Sp ec
ĠST REET
ug ular
ĠROB ERT
Ġ8 89
ĠASS OC
Ġformal in
Ġ14 5
Ġneed le
ĠMe thod
ĠUn itedHealthcare
ĠV ITAMIN
Ġgl ucose
ĠK ar
ĠV AL
istor ical
ĠEx tremity
le c
ect or
19 66
ĠJ VD
00 5
E mploy
Ġcav ity
ape utic
Ġtop ical
ĠIn cre
ĠA U
J an
F AMILY
ĠS ER
ST IN
ĠUn it
ĠJ E
AN I
ĠUr gent
ĠLymph atic
Ġpro l
Dep ression
havi oral
Ġn r
ack s
arr ing
ed ic
ee th
ĠM Y
ol ar
Ġt ric
ĠW ee
ad ministered
ĠGr ade
S I
Ġb ony
et work
Ġres erved
ĠS olution
B ilateral
S odium
Ġ6 31
ĠO pt
Ġgro w
ir t
cler otic
us iness
ĠC ase
ĠT ax
Clinical Works
Ġconsider ed
ĠF ull
el i
ĠC opy
Ġbal ance
ĠT erm
ĠL ee
orb id
ĠS econdary
Ġp et
ĠE s
Prior ity
ĠRef erred
ĠCh ange
iaz ide
Ġfollow s
Ġs ister
IO VASCULAR
ĠW E
024 06
Ġpromin ent
ac hy
AC Y
AR A
Ġimpro ve
OP SY
urn ing
Med ic
ĠH ow
a und
REAT IN
Ġc essation
Scre ening
ĠI U
ĠL IP
RIPT ION
ic it
M ale
Ġtr ig
id ine
h r
o y
Ġd etail
ĠEx ercise
ĠLE V
M in
Ġposs ibly
ĠInter val
HE ART
ri p
F l
yt es
A Z
B R
ĠDiff erential
IN TER
Ġtiss ues
Al so
oph arynx
Ġt in
ron g
res p
54 0
ĠSERV ICE
N AL
ĠC odes
junctiv ae
b ound
ĠPl ace
Ġc ram
ĠR ed
20 3
ĠL DL
Ġle v
ro gen
Ġmigrain e
Ġm arrow
ĠC at
Ġro ot
ĠDay s
ĠIn stitute
G H
ĠO ver
Ġ12 6
ĠE ND
Ġth in
y mmet
Ġd enied
Ġch olesterol
ĠM s
Ġ14 6
ĠH CL
C OL
i en
up s
ĠT OM
Ġe lectronically
Ġatt est
88 8
Ġ14 1
ĠL eg
ert inent
C ity
Ġ11 8
OG RAM
ion n
ĠTH AT
Ġcol lection
2 13
Ġconf irmed
Ġpl acement
oph er
Sin ce
ĠV accine
ĠTY PE
ĠW NL
charg ed
ay er
Ġrecon ciled
ĠM C
Ġex erc
id al
Ġar t
ĠA x
Ġc ranial
Ġsp utum
M IN
ĠN or
ĠAs thma
Ġst roke
P alpation
Ġver bal
i y
n g
ĠAf rican
P SYCH
T umor
REATIN INE
Ġan ti
II II
P a
Dis charge
08 0
Ġrecommend ations
Ġdefic it
Ġs om
O V
ylen ol
ic ed
C IN
W I
am ine
ĠB RE
rect ed
ĠS A
En tered
ĠE F
Ġtrem or
P otassium
oh ist
AST RO
AN GE
Ġag re
ĠL OC
Ġscler osis
ĠU SE
n s
Ġob vious
ĠA v
ĠR eturn
ĠT aken
ĠPr actice
os al
ĠA RE
ĠH and
Ġang ina
usp id
ĠC AT
Ġhyd ron
Ġob esity
Ġcor rel
arant or
Un its
Ġgr and
Ġlo t
Ġn uclear
EN C
Ġ01 1
Ġpro f
ĠMET ABOLIC
ĠE very
F orm
S ever
Ġstop ped
ĠF lu
ĠMar ried
ĠC reatinine
D IAGNOSIS
C i
om og
ĠL N
hys ema
vir on
ĠJ ennifer
op enia
Ġab d
EL D
UC OSE
Ġreg imen
ic le
Ġn eph
Ġfib rillation
Ġref erence
U se
om ic
UL MON
ĠO cc
Ġ6 15
H ep
ĠDocument s
200 9
54 02406
ĠAB D
ĠN odes
and a
Ġs elf
lan k
Ġw ant
30 5
Exp iration
Ġconc ent
rosc opic
Ġconsolid ation
con trast
HE ALTH
Allerg ic
espir ation
58 5
Ġir on
ĠN C
utr ition
oli osis
cc ess
Ġh t
il a
ouns eled
Ġsch ool
Ġp ages
id ated
Ġsur veillance
ĠLab s
Ġpneum othorax
196 7
Ġgu arding
Ġimp ort
is ed
KE LETAL
Ġit ching
F e
Ġl ig
ĠK im
Ġinvas ive
ĠKn ow
ĠRout ing
Ġt rial
B r
ol t
Ġm itral
Ġ0 09
ĠO K
Z A
Ġcalc ified
othy roxine
Ġsciatic a
cler osis
ĠM AN
ĠAc ct
Ġac id
C r
O ct
our aged
Ġgro und
V is
Ġh ands
ĠUn ited
ill in
Ġdocument ation
ell s
Ġe ither
s urgical
aund ice
ĠLateral ity
Ġapp ropri
inn itus
Ġech o
Pre ferred
ĠSm ith
w ood
Cor p
lo bul
13 6
Ġcl ass
b on
am a
alg ia
Hemat ologic
Ass ess
CUL OS
ly cer
ĠBen ign
Ġst anding
el ines
Ġleg ally
U A
Ġam bul
20 5
Ġm ammogram
ĠMEDIC INE
a us
UR RENT
if i
IC T
In spection
Ġc i
ĠJ AMES
Ġcompl ains
ri an
am ous
head edness
ac es
P LE
Ġacc ording
abet ic
Ġh o
Ġinfar ction
W ith
Ġapp t
Ġentire ly
AC IC
ĠBI OPSY
ĠG o
Ġa vid
Ġne ural
ĠPa ul
b r
Ġt ons
h ere
ĠC OUNT
thes is
ĠR et
ĠTh oracic
Ex t
Ġre action
LE EN
ĠV e
ĠB RO
30 6
ĠM uscle
Ġt er
Ġy r
Ġpuff s
M ER
ELV IC
Ġ11 5
13 1
Ġhypermet abolic
ĠTe am
enter ic
OR ATORY
Ġterm s
Ġ13 4
Ġsc arring
Ġrem ains
ĠMar ital
ap ar
Ġinter est
Allerg y
O TH
Ġc ore
Ġrecon struction
ĠM art
Ġretroper itoneal
12 1
Ġend omet
Ġqual ity
ĠP LEASE
Ġfr ag
Ġh tt
Re ceived
ĠI l
the w
14 6
Ġsymmet rical
ĠM AT
ĠPer son
ĠE G
ĠL anguage
ym al
Ġper c
Ġcalc ium
ohist ochem
ĠC entral
Ġcalc ifications
ĠM AIN
Ġdim ension
Sp ecial
ĠC ritical
ĠF A
Comp arison
ual ity
olecyst ectomy
ĠA F
B irth
Ġduct al
he ez
or i
Di agnoses
05 4
ĠF act
m et
ro z
ri ers
Ġsh arp
Ġf inal
ĠP ath
Ġhydron ephrosis
Ġref ill
Ġst andard
ĠR I
Ġischem ia
ap er
Ġaccomp any
Ġaff ected
ĠS CH
AN K
h ab
Ġn or
Ġal though
MENT S
Ġtemp oral
yn ec
Ġauthor ized
ĠP upils
Ġ6 46
Conf idential
ĠON COLOGY
J ul
Ġsub sequ
Ġmet abolic
Ġ9 14
ĠDel ayed
ĠAd vantage
Ġn n
ĠR BC
St aff
ĠD uration
ĠY our
ĠF all
Ġv s
Al k
ĠCT A
ter ol
ĠPro cedures
Al bumin
D x
ĠD eb
ĠMon th
ĠC VA
h an
lo an
00 4
Ġrem ain
Ġadj uvant
Ġtr achea
Ġreli ance
li kely
Ġt it
ĠL oss
Ġbre ak
Ġm ye
Ġov arian
Ġv oice
Ġvess els
ĠPed iatric
Ġul cers
n es
Ġtr act
ĠDA VID
Ġs am
Ġcalc ification
Ġc ur
Ġmel anoma
Ġwr itten
EX TREMITIES
Ġt akes
2 10
ĠN D
CULOS KELETAL
Ġexperi enc
Ġs low
P ar
ra ft
Ġad equ
Ġth ink
Ġt rouble
25 0
ĠS ystolic
ĠS elf
AS H
V ENT
Ġspec ified
ct omy
Ġcor n
ĠN a
p ing
Ġbru it
gh t
erm at
ĠE ll
lab ored
ĠRe actions
ĠH as
ĠSO FT
Ġt rauma
AN A
Ġpar asp
Ġe ClinicalWorks
N PI
Ġreturn s
st ory
Ġt a
Ġb rother
im ens
Ġinflamm ation
ĠN AD
az ine
H em
ĠW A
Ġd etails
oc oc
ĠO H
m ia
Ġath eros
Ġwom an
ĠRequ isition
Ġdest ru
ro ugh
Ġ13 8
O F
ĠCommun ity
alp itations
7 12
ĠD EL
ĠL im
Ġcre am
ĠRE FER
B E
196 8
Author ization
Ġov ary
ĠCONS ULT
16 0
Ġe y
ĠF ree
ĠOr thop
ĠC ertification
ĠAn th
00 8
Sub ject
T SH
cious ness
uc k
ic ial
ef ined
lex ion
Rec ent
ĠM CH
ĠC Y
ri pt
ĠRR R
08 9
Ġm ill
Ġsc attered
ĠP P
L i
Ġhe av
R ING
In e
OG L
U AL
Ġd ouble
rolog y
Ġe at
ĠOrient ed
AN E
Ġ14 4
iot ics
ĠÂ ®
Ġp ub
O Y
Ġfield s
ĠN T
Ġsee ing
ĠAuthor ized
r ight
ĠAN C
ĠDis order
H x
Ġt ried
âĸ ł
A ug
Ġforam inal
ĠL PN
ĠComp any
Ġventric le
oar thritis
ĠIN ST
ĠRE CE
ly c
Ġsinus es
ĠM ill
Ġ200 0
acer b
Ġlo s
Ġm ust
Ġ11 6
ĠF loor
Ġaccompany ing
M outh
An y
S usp
ĠEOM I
loc ytes
ĠM ot
los is
Ġh abits
ch olester
g y
Un itedHealthcare
N OT
ĠF lowshe
Ġvert igo
ĠF atigue
iv ely
Ġh y
196 9
Ġcyst s
Ġ2 10
Ġex clud
Ġdiss ection
LE AR
SOL UTE
Ġem ergency
b urg
ĠSC AN
Ġess ential
ĠSIGN S
ect ious
tr asound
etter ing
ĠL ake
ĠSC REEN
Ġbenef it
n ic
Ġl ittle
g an
Ġbas eline
OM E
Ġfr action
ĠS ar
Ġ2 02
B e
Ġ2 11
ULMON ARY
Ġs ided
ĠL T
H CT
Ġ3 01
C ardiology
Ġpro gram
Ġpre p
lobul in
ĠB one
Ġmaint ain
Ġread er
ĠFl ag
Ġinvas ion
IM ARY
TH OR
ĠR em
Ġnon distended
ĠE T
or a
Ġmarg ins
Ġeti ology
ĠDi astolic
12 9
Ġcon ditions
Ġno ct
ĠW ILLIAM
ID NE
RE CT
Ġcyst ic
R IT
ĠPAR K
Ġth r
ĠM ax
Low er
hol d
Ġhyd ro
ĠST RESS
h ood
19 52
abl ished
Ġvers us
Ġl ife
Ch loride
ĠU A
ĠM al
re p
c es
Ġha ir
ame th
crib es
ail s
ĠJer sey
Ġsig moid
ĠU pper
Ġsat isf
Ġag g
Ġc ran
ĠRE QUEST
az ep
ĠOut side
ie ved
o i
Ġapp l
Ġwork ing
Ġm om
Ġbl urred
Ġre bound
Ġon going
an ied
12 6
od ies
O x
Record ed
Ġad dition
P athology
ĠB ox
Ġc ass
Ġreg ard
f i
s mok
Ġinvol vement
Ġad vanced
ransp lant
AL B
at al
Ġo k
Ġke ep
ly n
r um
IL I
let e
ĠA p
ĠI F
Ġth ings
Sc an
x x
Ġc igarettes
ai re
um er
ason al
ul ly
19 70
ĠN ic
Ġ12 4
B AS
Ġat orvastatin
l on
R est
01 2
ĠN ORMAL
ĠVal ve
ĠH X
Ġl ip
ulos is
agnost ics
ĠC all
im ate
ol ism
H ow
Ġ5 40
ĠF AMILY
Ġlo ok
ĠAM B
Ġs ays
IT ED
Ġat rophy
Ġsignificant ly
Ġexpl ained
Ġurg ency
ra ight
ĠF DA
44 4
iop s
S ymptoms
F requency
ĠG ait
ĠON CE
Ġtight ness
Ġl isinopril
Ġdifferent iated
ATION S
ĠNEED ED
ĠI mm
ĠPre vious
App ointment
ĠRE F
he alth
Ġib uprofen
Ġco operative
ĠRec on
Y L
Ġw ater
AR L
ĠH ILL
ĠL U
ĠMel issa
IV ED
ĠNE CK
IV ERS
Ġ3 05
Ġh ot
ĠO ste
eg r
Ġrepl acement
UT ED
A pr
Ġg astric
Neurolog y
C OD
Ġwork up
Ġ12 8
C linic
Ġas ymmet
Ġa f
ĠEl izabeth
it in
ĠD u
Ġm orph
est yle
el ly
ene ous
ap id
it ivity
Ġh i
E ye
ĠS n
ĠB AR
Ġmark ed
ĠQu antity
Ġh old
Ġmin ute
G iven
Ġso le
ĠST UD
B ONES
ĠQuest ions
US ION
ĠL iver
Ġdysp hagia
hy l
ĠDIF F
Ġdil ated
o or
Ġport al
utic asone
Ġdel ay
Ġd aughter
ib ial
Ġn ature
Ġfall s
Ġh ard
ĠWith out
las ia
K A
Ġe ating
r im
ST AT
ENS IVE
Ġrad iog
Ġin structed
an set
IF Y
Ġcom es
ĠA rea
ĠUn specified
3 27
Ġ2 03
ran k
Ġmonitor ing
ĠS up
Ġm il
Ġref lex
ĠW il
ĠD izziness
US E
Ġh es
CTION S
ĠPH ARM
yp es
rit eria
ĠY ou
ĠCh olesterol
i ques
UM OR
espir ations
ĠHE AD
Ġn ative
ativ ely
1 2018
ĠS mall
00 9
Ġlong er
Ġc ardiovascular
ĠON LY
ĠSt ud
anset ron
N orth
ĠP otassium
ter og
ray s
Ġw ish
Ġm aking
ĠAb d
omet imes
Ġtemp erature
Ġred uced
Ġd ied
ir r
IAT ES
u i
m g
E nc
m al
Ġmes enteric
ip ine
OGL OB
Ġappropri ately
Ġpres cription
Sub scriber
Ġve ins
re x
Ġ14 2
ĠJ OSE
us an
ĠSPE CT
Ġet c
00 6
epend ent
icter us
ĠEvalu ate
as ured
ĠGrand mother
ĠH AR
Ġc e
O t
Ġmat ter
or ge
an ie
ĠS l
acc ines
ĠHyp er
L atest
ĠTh er
ĠRel ation
ent imeter
B en
ĠV olume
Author ed
Ġspas m
roch lor
Ġspe ak
ĠMED ICATIONS
Ġb i
MUS CULOSKELETAL
ĠE P
valu ation
T ES
erg y
Ġcircum f
id ocaine
ĠPAGE S
weight ed
NO TE
Ġmy ocardial
ĠS ens
Ġpr n
A U
Ġpol y
ĠSin us
ĠM CV
ĠComp rehensive
ache al
Ġle ad
ĠS ent
Pl atelet
ĠH IV
Ġme thod
Ġdist ention
ĠC ELL
I OR
ĠNOT ICE
ĠH DL
ococ cal
Ġext ensive
ĠS im
Ġc ou
24 06
Ġnight ly
OM AS
ĠT IS
12 7
ĠLung s
ĠM otor
PIR ATORY
Ġl um
Ġp ituitary
Ġr ig
Ġl it
H GB
Ġev ening
3 15
ĠM en
Ġp ounds
ĠE EG
st on
Th er
H ave
Ġq d
Ġel ig
Ġthough t
ĠT ID
Ġav oid
resp ond
Ġan esthesia
ĠIN J
Ġf uture
ĠM U
ĠAg ency
PRE H
ĠE r
S ource
c ell
45 2
CARD IOVASCULAR
OLOG IC
F irst
Sub stance
Ġloc ated
AL K
Ġorgan omegaly
Ġaw ake
8 061
lev ated
19 51
a o
O rient
Ġj aundice
Ġc ut
Ġsep ar
OB LE
IC AN
Ġred ness
ĠPer ipheral
udg ment
Ġarth ral
ĠT itle
rochlor oth
ĠInter pretation
Mo derate
ĠIN CL
in i
ĠA A
Ġd ors
iss ue
IC ES
IR TH
Ġcomplet ely
ĠS loan
Ġsleep ing
ĠCOL ON
ĠI ss
igrain e
D IS
Ġmet oprolol
EY ES
ĠF ederal
M aternal
yt ic
Ġc ort
arg et
op athy
ĠCOMP LETE
ĠL ind
F lowshe
Un changed
Out patient
REL ATION
ĠAP N
utroph ils
Ġom eprazole
Ġe ver
Ġo c
R IN
Ġpred nisone
Ġacc ur
p ose
Ġ3 03
n l
ĠEvalu ation
ĠB M
Perform ing
d a
p i
Ġtechn ical
Ġport ions
ĠH earing
Ġan icteric
ĠA UT
ĠSc ott
Ġa mp
Ġ4 23
osp hat
ĠR ob
ĠM aternal
ast ic
i us
Ġinter vention
ĠSub scriber
us ing
In itial
ĠTW ICE
om ed
REN AL
Ġdes cribes
Ġc er
ĠC an
w al
ĠPr ed
Ġin spection
ĠM ULT
ro d
Lymph atic
ĠO ld
D D
Ġus es
Ġesophag us
00 3
ĠKn ee
Ġmo derately
ĠD IAGNOSTIC
C RIPTION
r at
G enerated
ack son
12 8
30 4
ang ing
Ġconjunctiv a
14 5
REN CE
ol a
ĠP al
ĠN erves
IND ICATION
12 4
Ġpall or
ĠH C
Ġw ife
Ġtechn iques
ĠW ed
L ess
N M
ĠSin ce
Ġpro cedures
ir al
Ġmeas ured
N ER
ot ine
Ġdiffer ential
ĠK idney
Ġwalse a
ogn ition
ĠF INAL
20 9
Ġle uk
Ġins ulin
CH O
Ġex tr
OD IUM
U rine
ur t
un e
ĠS K
ĠM t
Ġs urg
Ġmedic ine
An xiety
AL D
Ġallerg y
ĠN asal
Ġto e
ĠB owel
v ance
uc as
ĠAr thritis
p sy
ĠP neum
Ġparticip ate
ess ional
ĠG ood
V ITAL
ĠV ascular
IT ONE
ĠO B
b and
ĠD OC
ĠEx tremities
Ġr atio
pos es
ĠO L
ĠW ELL
er ed
Ġins uff
ĠM usculoskeletal
Ġstool s
M ic
ĠD eg
ĠSPE C
12 3
ON D
Ġ13 7
ĠPro tocol
Ġcons ciousness
Ġpro tein
ne x
c om
ĠE V
ĠD yspnea
ĠBe havioral
Ġsuggest ive
ĠH ill
Ġp ay
ĠTRAN S
Ġsc ale
Ġ2 15
Ġa uto
2 15
ĠDO E
Ġgro in
ĠR hythm
ĠSpec ific
ĠB ru
ĠO M
Ġparasp inal
Ġacc ident
op razole
ĠP le
ifer ol
11111111 11111111
ĠCol lapse
Wh at
ĠTest s
Ġun authorized
MP V
est ation
D ata
is p
Ġf oci
Ġex acerb
ĠH OUR
Ġinject ions
he p
C ervical
order line
Y ROID
U l
Temp erature
ĠE ye
Val ue
Ġm r
and ra
Ġg ranu
c ont
Ġget s
ĠTOM OGRAPHY
Ġb est
E ch
SU ES
Ġd ent
ĠL yn
Ġcomp arison
ĠMe asurements
Ġremo val
M L
Ġdeform ities
Ġco ordination
x ious
20 7
ĠH CT
k ing
Wh en
19 71
Ġ13 9
Ġshow ing
ĠDL P
em aker
ĠD ATA
g ing
s elf
smok er
19 50
T IME
Ġread ing
ĠD iv
op or
ĠCh ildren
Ġe ven
B A
ĠH ar
ĠF ever
heez ing
Ġcere bral
Ġ icterus
M id
O ff
Ġnot iced
D ist
ĠA lex
Ġcr ack
ĠE dit
w ith
Ġph ot
20 6
achy c
AB LE
alc iferol
h en
cholester ole
Ġunder lying
PREH ENSIVE
MIT T
Ref ills
Ġhypert rophy
y an
yc in
On set
Ġech ocardiogram
in ished
et a
ĠC ENT
ĠF M
W N
Ġapp ly
Ġep id
Ref lexes
ĠTIM ES
at ous
Ġsecond s
ĠQ ty
Ġj unction
00 01
Ġcl aud
D ay
OGLOB IN
ĠC N
Ġ iv
ĠSu pport
ĠW EST
ĠNot ice
o z
20 20
IC S
Ġbeg an
ĠAbs ent
b ow
Ġtend on
Ġs i
Vis ual
f e
pp ed
RE G
ĠA fter
igarett e
Ġ07 9
Ġcon stant
Ġmax imum
kin s
St e
Ġsec ure
AR S
ogn itive
Ġopac ity
orm one
Ġmeas ure
Ġpur poses
ĠFOL LOW
Ġlarg est
Ġrect um
Ġweek ly
F eb
Ġn al
M c
Ġs ure
A re
Ġh alf
Ġf ederal
ist ics
a L
ĠPro bable
itone um
ĠR os
hel le
H AM
ĠRe ad
ĠCo ver
ĠB rother
Ġincre asing
ĠRep ly
ow der
du ctive
CH LOR
IAT RIC
K n
Ġ8 56
ĠA udit
S at
Co ordination
ĠCar otid
ĠO ff
13 8
ON G
AT IO
Ġest imated
ĠH ip
M od
ĠCH RIST
Ġexc ision
i oma
g u
S m
Ġh ysterectomy
ass es
ĠC al
enter ology
ad o
Ġcalc ul
lo fen
Ġradi ology
Ġallerg ic
Ġres olution
AR GE
R R
Ġ12 2
all uc
ĠM ore
ĠCar rier
13 5
ĠE nc
W E
Ac ct
G ross
Ġrec o
Ġg ive
Ġcontain ing
St ate
Ġout patient
F IR
ĠPHYS ICAL
Ġint ensity
PRE T
ĠAb use
c or
Ġb iliary
Ġsk ull
22 6
Ġinitial ly
HE AD
osphat ase
r agm
Abs olute
ĠArter y
Ġax is
ĠRe action
Ġd en
RO SS
em b
Ġmaint enance
Cor onary
ĠTw ice
ĠReg ional
le ge
uc le
ĠTIS SUES
N J
Ġa erosol
Author izing
Ġb usiness
Ġt innitus
en ne
Sens ation
P rivacy
Ġf i
ĠActiv ity
ĠA ir
Ġ6 07
AN G
ĠCar ol
aus al
Ġsw ollen
D ose
ĠPhysician s
Per ipheral
oint ments
Ġp T
Ġl ives
NE W
Ġ14 8
ĠFIN DINGS
Ġsubc entimeter
Ġd etailed
ĠF LA
ĠB OX
05 0
UM ENT
Report s
ip ital
y ma
Ġd I
Ġuter us
Ġf usion
htt p
ĠL ong
Ġgo al
Ġsed ation
Ġme th
C all
Ġdes cending
Ġext ending
IZ ATION
L a
O ropharynx
Ġclaud ication
L o
ĠCon stitutional
he ck
CONFIDENTIAL ITY
Ġfor ward
ĠM N
orr hea
ĠIN H
ĠB S
ĠVIEW S
ĠIN V
ĠCol or
gl ass
Ġinter preted
Ad ded
Ġeff usions
Ġn yst
ĠOr d
SS N
N eg
ĠAm bulatory
Comp rehensive
Str ength
Ġpain s
Ġ4 07
CIS ION
cholesterole mia
enop ausal
ĠP S
Ġ18 00
I a
Ġv ari
Ġask ed
ath an
en hanc
Ġe jection
G YN
Ġ8 77
Ġinf ections
TEN DING
ĠM arg
OM S
T S
ĠC la
NEUROLOG IC
Ġl ump
S ome
ĠA uscultation
ĠL D
Ġgrow th
OP ER
Ġe lectronic
ĠL UNG
00 2
Ġb urning
act ition
Ġcough ing
Ġ7 86
ĠCE A
ener ation
ĠM OR
7 04
Ġrepresent ative
as k
Ġk idneys
ĠA utomated
Ġper fusion
13 9
ort a
I th
ĠPro state
Ġac etaminophen
D ear
Ġep ile
Ġc aps
P ertinent
V ED
ress ive
Ġneurolog ical
ĠS ister
ĠRadi ation
u lo
Ġdep ressed
19 47
ĠL ex
ars eness
ar on
Ġcy t
P hys
Ġad mitted
Ġw ound
ĠShe et
Ad dendum
us band
o ag
Ġa ches
Ġmuc ous
form in
ĠL u
P resent
ĠD ise
enz ap
am uscular
r c
ĠMat thew
Ġ2 07
Ġne bul
Ġr an
I mm
Ġper cent
Ġc riteria
ĠChrist opher
ĠApp t
ĠJohn son
ult ure
ĠCon cern
30 9
H emoglobin
Ġ9 01
Ġ8 88
M uscle
ĠC OD
Ġatt empt
Ġw rist
h s
ĠPro bably
im m
opor osis
Ġple asure
R ay
k t
Ġcom ment
N G
Allerg en
B B
ĠH emoglobin
W O
ĠP ap
ĠSte ven
Ġan tic
IVERS ITY
ĠM or
Ġcomp onent
F H
Ġ12 1
Ġp en
ign ment
ob ia
Ġref lect
Ġpam apai
ĠD ys
Ġischem ic
Ġp ulm
erv ous
So ft
ĠPHARM ACY
h i
Ġ2 17
Ġemp hysema
on in
ĠPat el
20 2
ĠB ase
w o
Result ing
Current ly
Ġlet ter
ĠFlowshe et
Ġp ac
Gu arantor
D OS
vi ation
at o
V IS
ĠC ounseling
ic idal
ĠD ue
rochloroth iazide
ĠP ending
Ġthick ness
O FF
Ġir rit
OU ND
ĠTerm s
ĠFact ors
Ġver ified
ĠA G
loc ks
ĠAT TEST
Ġst r
L OD
ĠS ingle
last y
B UR
ay lor
OCY TES
Ġcon tract
ĠHIP AA
ĠL t
200 8
ĠBRE AST
Ġ01 0
Ġhyp o
AP P
19 49
ĠCon junctivae
ĠJ ac
p re
ĠAnd rew
ĠInt ended
op lastic
ric ia
Ġcon vey
yc odone
N ING
Cons istent
Ġbran ch
Ġh ouse
ĠV A
u ber
Ġdeliver ing
ĠG YN
4 11
m ill
re ady
Ġf ar
' d
ĠAsp irin
UM IN
ar b
Car otid
ĠM ajor
ĠEd ward
S UM
ĠStud ies
lob enzap
i C
Ġcont ent
ĠAs h
Ġfe atures
Ġ200 9
Ġpolyp s
Ġn it
ĠRESULT S
g et
ro ad
ĠS cheduled
es a
vent ive
aint y
T A
Ġdi astolic
COMP UTED
ĠO D
Ġpoor ly
Susp icious
ĠR enal
oc rit
Ġcompl ication
er o
Ġdeg ree
ĠH el
rect omy
ĠI P
ĠTest ing
B Y
is thesis
Ġprint ChartOptions
in ations
Ġasc ending
ĠDise ases
C AR
Ġcom fort
IA STIN
Ġmel ena
mo g
ox ysm
13 4
achyc ardia
Ġevent s
7 24
16 8
ĠColon oscopy
Ġin st
ia e
Ġsit uation
Sp ine
Flowshe ets
l n
ĠP F
actition er
ĠF lor
ĠAss istant
OD Y
20 8
Ġprogress ive
ĠSpecial ty
Ġdet ected
I ED
en o
Ġ4 12
ĠS ol
T IN
Ġp in
ĠH P
Ġt ip
Ġch loride
Ġobs erved
C ough
on n
g ias
L DL
Ġatt enuation
6 00
Ġadequ ate
ĠN it
ro b
isc ell
Ġpet ech
ĠP ager
IM EN
CH IEF
Ġsur round
ĠM il
ĠV ital
ept um
Ġ17 0
ĠASSOC IATES
vi Core
ar es
ĠOb esity
ĠExt ended
ati ble
EC OG
ĠAss ess
M ood
agm us
Ġpregn ancy
SPE C
ores is
ĠAuthor izing
Ġ GEN
W OOD
Ġj ugular
ew hat
A nd
oxysm al
FE RENT
Ġfat ty
IL D
ĠDR UG
le an
19 48
ĠD VT
ĠALL ERGIES
ĠF inancial
IASTIN UM
Ġgeneral ized
ĠProvider s
OW EL
ĠId ent
ib ular
yn th
Ġcert ainty
W as
Ġbl ack
ĠD X
Ġni pple
ĠB iopsy
F ORD
entric ular
e y
OC K
Ġpri vacy
it z
Ġtrem ors
ĠD igital
33 3
E p
P oss
et ric
ĠS CI
Ġb ases
ant oprazole
ne es
ĠMAR K
X X
ĠSU ITE
Ġ log
Ġ74 177
F lu
Ġm ental
gr ade
Ġmar ried
4 01
ian a
Ġan xious
lim inary
ĠA erosol
Ġdisorder s
ĠB IRTH
C a
am ent
ic ient
R em
Ġmut ation
Pres cription
Ġ2 40
ĠVal ley
Ġ7 19
F r
b opl
ĠV omiting
ac etaminophen
Ġtreat ments
iv itamin
ex as
d efined
AND S
ĠS ounds
ĠD T
an asal
ist ing
ĠG ap
P B
Me an
ĠPoss ibly
Ġy et
K DA
ĠOUT PATIENT
at r
Ġwh om
C affeine
RES PIRATORY
ĠT ra
ĠEm ergency
Ġcrack les
tra ocular
19 72
ĠComp onent
O VE
id ge
ĠSur geon
ĠSp ouse
urr ing
Ġocc ur
ul ature
Ġst rong
OL D
ar ies
Sens ory
Ġst raight
M ichael
ĠM AY
Ġemploy ee
Ġparench ymal
ic eps
ĠB ou
Ġal ready
az ole
30 3
Ġs ites
ICH ARD
Rout ine
IC RO
LOD IP
ĠE yes
Ġdef ined
mitt ing
Ġradi ating
Ġl umbosacral
ransp ort
Ġlaw s
Quest ion
Ġins omnia
d y
lobenzap rine
ĠChar les
iscell aneous
Ġpro tr
ĠM ad
Ġneurolog ic
Ġb iops
oc c
ĠN uclear
od en
Ġgr ad
ator ies
utroph il
Ġinsuff iciency
Ġenc ouraged
at I
P el
ĠL C
ather ine
AT URE
ĠW ay
Ġal one
op hy
Ġt itle
Ġarm s
Ġf asc
Ġscler a
Ġconf usion
ĠPl atelet
Ġg ums
ĠV i
roc odone
30 8
IN O
ĠIN T
Ġper itoneal
Ġs ores
ĠDi et
Ġo xygen
12 2
Ġsc ar
Ġtr ace
P C
ie ve
Ġdiff usion
Ġ4 14
Ġb o
00 7
ĠB EN
Ġtrans verse
Ġparench yma
An n
Da vid
Con trast
U pper
ĠD en
B ilirubin
Ġrhin itis
ĠC t
RO L
Ġcomp atible
er a
d isc
ĠSER UM
Ġabs cess
Ġr are
ĠEd ema
M ain
lod ipine
Ġaw are
N ursing
ĠIm age
ĠT B
ameth asone
AD RENAL
ĠBC BS
Ġ3 50
bopl atin
ĠG astrointestinal
hep atic
Ġ13 1
LE V
stit ial
ot omy
R isk
Ġat ypical
sur ed
ĠQ D
Ġ7 17
Ġink ing
Ġindic ates
Ġopac ities
R OM
in ter
Over all
Ġ2 20
Ġha pp
Ġde vice
END ED
OLOG IST
C enter
Sh ow
AP Y
7 05
ap t
T OTAL
Ġ4 11
ĠInter face
Ġs s
is l
ĠA re
Ġ ide
Ġpro duct
Ġnormal ly
Ġl iving
Ġr ing
ut ed
Ġm ight
V P
et ine
ĠHA VE
C ENT
ĠB ed
H L
Employ er
M ost
ET A
Ġd uration
ITONE UM
raph ics
Ġst e
os ed
ĠC amp
Ġf air
l ig
ATE LET
ch ester
Ġasp x
Di et
iet al
ĠM ont
Ġcal f
ĠP OS
ĠIN C
RE FER
iog raphy
am il
Ġatt ack
G A
EL Y
ĠL es
v I
ĠC ross
erv ative
Ġinvol ved
AN N
h osis
ĠL y
ait ing
Ġlo st
Techn ique
ĠForm ula
Ġclo se
res h
Ġop en
ĠBL VD
led ge
c in
ĠM ID
P ed
Ġhyp od
i ologic
S leep
oc et
Ġ4 05
i very
REAS ON
Ġsp len
Ġbul k
our t
ĠJ ess
Ġl ater
ĠPH Q
Ġin formed
air s
B y
ĠP la
P ACS
aw n
ri es
Ġ esp
ri val
22 7
ĠDec reased
H ad
ĠPh armac
ĠRECE IVED
EN CE
Ġdist ended
Ġ13 3
Ġs ymptom
Ġposs ibility
ĠEG D
Ġus er
ann a
Un likely
ĠW ood
M ARY
Ġe ct
Ġf und
Ġn s
oun g
St age
REAT MENT
14 3
Colon oscopy
In ternal
ud e
ĠS R
H I
ĠCh loride
o lo
Ġon d
ĠU T
Occup ation
le m
Ġp p
erm an
ĠDo es
ĠC U
k ed
Ġm ention
ĠAnt ib
1111 1
L ink
Ġme et
Ġ2 99
ĠP D
Ġin iti
er ies
Ġin let
ate g
LOG Y
Ġantib iotics
ĠC ranial
Ġ12 9
O f
Ġc is
ĠAP P
COR RELATION
Ġre ceiv
Ġb asis
Ġh ist
Ġinf usion
Ġ13 2
ĠGrand father
ĠOR G
ĠCare Core
ĠJeff rey
le vel
od g
ĠPERR LA
F OL
ong ed
rop athy
u ity
Ġs ymp
ĠB u
Ġdefin ite
vent ional
ucas ian
ĠAm b
Ġa verage
Ġassist ance
alg ias
ĠChe ck
Ġg raft
Hyp erlipidemia
Ġh usband
V e
3 01
ĠC ASE
m L
S ister
Ġap ex
Ġgastro esophageal
ĠM ob
Ġsqu amous
Che ck
ĠCH OLE
Ġc ost
Ġhes it
Ġure ter
al a
ĠH GB
Ġ ion
Other wise
ĠSe iz
JECT IVE
19 73
Ġt eeth
Ġp upils
ĠO ccup
ust in
Ġf lank
OT T
ic o
ĠConf idential
Ġst ation
j sp
ĠAn emia
I U
ĠRec ommend
Ġe val
ĠT UMOR
Trans cribed
ĠâĢ ľ
Ġvis ible
Ac ute
ER N
COM M
Ġs ometimes
m ail
Ġsign ature
ĠG iven
Ġpath ologic
100 0
cer ely
Ġorig in
isc an
Ġrot ation
Ġus ual
if orm
Ġse ems
ĠJOSE PH
IT OR
lan ar
he z
ĠTH OMAS
IDNE YS
l c
ĠS usan
D etails
UL AR
Ġmember s
e an
Ġfl at
ST IT
Ġcall ed
ĠE LECT
ĠMet astatic
23 5
ĠCOM MUN
Ġor b
P ANC
ur ity
Ġexerc ises
Pro tein
19 46
ĠG ranu
Ġdepend ence
Ġother s
âĢ ŀ
at ch
AS ON
A ID
ol in
Ġre form
Ġ2 27
Ġ5 20
Ġquest ion
Ġarthral gias
j u
in ous
ĠGr p
ĠM ARY
Ġsaf e
Ġclear ance
A sp
z e
ot s
ĠCon stipation
P RA
ĠB ED
ict ed
ĠU HC
E osin
ĠIncre ased
CIN OMA
Sp eech
ĠTH ER
ash es
read mill
Ġb irth
C URRENT
Ġform er
ĠR U
ĠVis ual
AB DOM
ĠT echn
GE NT
Ġinfar ct
ĠW all
S i
COD ONE
Ref ill
Ġn c
Ġval ue
ĠW al
ay ing
B illing
Ġs end
Ġpain ful
est ig
ĠAR NP
ĠImmun ologic
Ġexud ate
ĠO t
Ġinc ision
r up
Ġf loor
ew here
d o
P ak
Ġdisturb ances
âĸ ª
I cal
or ation
Ġ2 06
Ġwors en
Ġarter ial
SU B
30 7
ĠB lock
B OR
Ġnecess ity
RE PORT
Ġpartial ly
th o
__ __
ĠPe ter
ro us
r hythm
re ction
ĠM uc
Ġclear ed
Ġsom ewhat
Ġv itals
ĠH o
ĠT i
ĠL ou
R ed
Ġsc oliosis
Ġk ind
Ġ7 04
Ġche m
Ġdist ension
ĠP FT
ĠÂ £
ex p
Ġ3 12
ĠD et
N ORMAL
Orient ation
A ir
cc inate
14 9
g g
ĠS usp
Ġh alluc
R IL
ĠHOUR S
ĠSERV ICES
ĠSt roke
Ġster oid
Ġc enter
ĠT I
ĠPro vid
n ip
Ġdis charged
ĠS end
R IGHT
ĠA w
ir us
AT IC
Ġelig ible
Ġf f
Re ading
Ġsuggest ed
as ion
ĠNeuro surgery
Z I
14 2
app earing
Ġdestru ction
Ġ6 01
ĠS UM
Ġrem ote
Ġto es
Ġass ay
F all
Ġor opharynx
Ġhe terog
Author ized
ĠREFER RAL
ĠM OD
D IAGNOSTIC
ro t
OT ASS
ionn aire
Ġ4 04
Ġm i
Ġcon tr
Ġbronch i
19 74
ID ES
ant ar
3 11
22 1
Ġster oids
Disc ontinued
ĠRAD I
B rother
vi a
D ue
ĠK ath
p ass
Ġ4 80
c he
A f
mog lobin
if act
P ort
H earing
Ġo d
Ġn et
AMIN ATION
mitt al
Ġ8 080
ĠRe leased
Ġsu ff
PANC REAS
ĠN G
ĠR am
Ġreg ions
Ġp urs
Ġhel ical
ol one
ĠW arm
ĠF unction
ĠAP PE
Inf luenza
lev ard
ĠTemp erature
ISS ION
Ġsurround ing
AT OR
13 7
N OWN
io gram
AM M
ĠGL ANDS
O s
Ġfron t
v ices
W ELL
ĠO l
ĠW T
SP LEEN
Ġre levant
Ġt ransplant
ĠSur face
ĠP i
hal f
oc rin
Ġgreat est
ĠS un
Ġobs ervation
Ġl ate
Ġs ummary
S L
ĠK rist
ail ure
b ut
Ġperc ussion
Ġlight headedness
ĠSever e
ĠL IN
Ġh op
ĠPlan s
F uture
24 4
Ġ08 8
ax ial
Ġm ening
Ġapp eal
Ġpar a
ANI EL
as ive
b a
ĠS al
I OGRAM
ĠDi agnostics
6 08
Ġsup er
ĠO ropharynx
Or d
19 75
ender ness
ĠSt at
ĠDi arrhea
Ġnyst agmus
og ram
Ġw ed
SA ID
Ġwh ole
ĠR V
ir a
13 3
t le
Ġspondy losis
Ġreg ulations
ENC ES
Ġad ded
B one
Ġg ent
Ġoccasional ly
G astro
ĠDe ceased
emog raphics
ĠL isa
ĠF ib
ĠDES CRIPTION
P ages
ĠE ric
S ent
ap rox
ĠR ATIO
PLE URA
ĠIn ject
ĠEch o
M alignant
ĠM arc
ĠMon itor
Ġ7 34
ĠE mploy
PM H
Sin cerely
Ġp ole
ĠÂ ©
Ġdos es
ĠBou levard
Ġimpro ving
K IDNEYS
ĠC ent
M AD
ĠS k
arn ing
Rel ationship
M ES
Ġ01 3
P P
Ġcol lect
ĠAdmin istration
Ġa i
OTASS IUM
E Z
Ġ8 50
R AS
inal ysis
ĠP alpitations
E s
Ġimpair ment
C ounseling
ĠH MO
Ġl ack
Ġ5 12
17 6
EX AMINATION
Ġf ine
IM M
el d
Ġan al
ĠP ND
ron t
E ssential
HE PAT
ĠF ace
Ġhe el
in v
RE Y
ĠMar ia
Ġgen etic
Ġwhe ther
ĠLe v
Ġcou ple
S er
Exp and
ad ine
ĠCP AP
Ġt om
Ġhyper int
Ġy ellow
Ġopt ic
Ref erred
Di rect
Ġs ource
ĠSat uration
Ġepid ural
Ġk nees
Ġvar ic
Ġmediast inum
ern ia
Ġset ting
H DL
z ing
ĠBro ok
Ġvisit s
ĠC ard
ĠL S
ĠSIGN ED
ĠT ympanic
Ġar c
lo ma
Poss ible
Ġst ones
Ġs x
ĠSign atures
18 0
Ġscre en
Care Core
Ġutil ized
H yd
2 11
Ġcass ette
Ġpart y
Ġheav y
ĠB rian
Ġt or
Ġr un
ĠT RA
LE FT
Ġsever ity
Ĥ ¬
ĠS an
Ġ200 8
ĠD ale
12 75
Sp leen
ron x
roz en
U DING
ĠT ri
Ġtric uspid
P ath
T T
y r
RU CTIONS
1 2019
ĠLab Corp
Ġb ar
P le
V er
Ġpost operative
Ġc los
CON TRAST
ĠNOR TH
B RA
B IL
in son
UC LEAR
ĠDisc ussed
Te lephone
E ar
aprox en
o ke
24 0
m on
Ġf unctional
Ġt able
ĠC orn
Ġper mitted
ĠC HE
RADI ATION
29 26
ĠIn j
ĠZ ip
Ġcar ry
A IR
ili ation
Ġ12 7
ector is
v an
Ġi ii
Ġdifficult ies
ffect ive
ort s
Ġsoon er
ĠQ U
oster one
ow a
Ġocc l
th a
Ġpre c
ĠAB OVE
Ġm A
Ġinf ectious
r int
SUR GICAL
act ory
ĠCor p
ĠD U
p al
Ġ2 70
h l
le e
viron mental
Ġrestrict ion
Ġw ay
ir ing
ou g
V ascular
Ġ01 4
ĠEncounter s
h as
FORM IN
lo x
ĠR en
ĠG RA
Ġconcent ration
AG N
z ine
um e
ĠER X
ĠH arr
mo oth
Ġaccomp anied
ĠMedic aid
ĠTHOR AX
ĠCK D
ĠInf luenza
or atories
Ġdetermin ation
Ġ9 00
Ġn ervous
Ġ2 25
ĠJ R
ĠRec ent
ad a
Ġcert ain
adi ent
ther os
ĠSS N
io id
ify ing
vers ion
ĠG ross
HEM AT
MED IASTINUM
Un ited
ĠR CA
Ġsh ift
ĠT ylenol
ultip lanar
am ic
im ally
Ġl l
azep am
S ystolic
ĠC omm
L O
Ġtin y
Ġt n
err als
Ġbut toc
ĠNeurolog ical
Ġcor respond
Ġ3 04
Ġche w
ESS ION
ĠPsych iatric
IC ARD
200 7
Ġ3 30
R et
Man ual
Ġt im
oph obia
Ġby pass
IF IED
ĠM AL
li ant
ut s
l ation
ĠAL B
Ġp rem
ĠI G
Ġc reatinine
Ad mit
Ġcom b
Ġan alysis
Ġt ired
ĠW alk
ĠK E
ĠFLA IR
der son
I g
ĠS ed
ĠD C
M a
ĠT issue
Ġaw ay
G o
Ġ ig
17 0
ĠE t
ĠDIF FERENT
Ġr unn
l ie
m i
esthes ias
ĠN W
V O
X II
ĠCa ucasian
Ġin ches
K e
ĠE lectronic
H IB
loc ity
Ġres ident
Ġmigrain es
22 8
Ġf iss
LI P
¿ ½
ï ¿½
iz umab
ĠGu id
Ġmast ectomy
os es
K S
Ġcereb ellar
ĠE vent
Ġlev othyroxine
Ġ3 02
ĠR and
Ġcomp liance
Ġop er
22 9
Ġconcern ed
art rate
ĠP EL
Ġ3 47
Ġsp lenomegaly
ic ks
P anc
Ġf aint
Ġac quired
RES ULT
Assess ments
c n
Ġd ip
Ġmy algias
Ġ14 9
Ġcom ments
ĠT T
Ġeas ily
h es
Ġherni ation
Ġ712 60
Ġins ert
RIC T
ect ive
Ġw ord
Ġinfiltr ate
ere b
Ġax illa
Ġpregn ant
RADI OLOGY
PH Q
Ġd on
Ġimmun ohistochem
our ces
Ġ um
19 9
ĠCAL CIUM
roc ardiogram
g raphy
ĠApp ly
U FF
ar ry
Ġmuc osal
ĠF ORM
ĠC e
Ġpub ic
Ġ3 34
Ġde term
Ġal lowing
rop r
Ġbul ge
On ce
19 44
Ġap ical
Ġman ner
ĠUl trasound
i asis
Ġr y
ig en
Ġ ens
19 77
ĠView s
Ġscler otic
8 77
d r
Ġf a
u ct
Ġpos it
Ġ25 6
ĠR a
ĠKar en
th nic
Ġw it
uro s
iz er
AR ANCE
ON S
ĠH istorical
Ġ6 16
PER ITONEUM
Ġad mits
22 2
IT IONAL
D M
Ġmembran e
ĠJ on
Ġat rium
ĠAl b
ĠINCL UDING
iat al
st omy
Y E
os h
IP LE
YS IS
Ġp ectoris
IN U
ĠAn swer
heumat oid
Est imated
och ester
n r
ĠMe asured
Ġc reated
t l
ĠM ental
Ġpal ate
ronch ial
yd ips
Ġappend ix
f ocal
OR TH
ĠG reg
Ġaw n
Ġ2 13
Ġan at
Ġexperienc ing
Ġb il
ram adol
ex amethasone
Ġc ounseled
D uration
ĠApp roved
Ġaden oma
Ġfax ed
ĠSCI ENCES
Ġf ri
17 8
Ġst rain
Ġr apid
Ġcram ps
ĠG R
STER OL
P aternal
Ġen ergy
ĠC irc
Ġpetech iae
Ġcl on
M ax
ĠO X
19 76
hys is
ĠM ood
Ġ3 09
ff ee
s u
ĠN etwork
Ġhe moglobin
L IN
Ġpl atelet
A ortic
Ġw Ith
ĠB ACK
ĠDiff iculty
7 18
Ġho arseness
ĠOp en
v ar
ĠZ O
Ġsystem ic
ĠR h
H D
Ġexp ans
ĠF requency
ra w
Ġg ast
Radi ation
nip aque
P AR
in f
20 01
og en
ĠF ISH
ĠTHOR ACIC
Ġt alk
w h
19 45
Ġr ender
ĠM T
Ġst aging
Ġc affeine
Ġno str
Sh ortness
Ġd ull
Ġond ansetron
ĠT exas
Ġ2 14
ĠPr actitioner
rom y
Ġca using
ERV ICAL
An ion
Ġs em
ĠÂ ±
17 1
Ġsu icidal
Ġn ic
ac in
ĠV ision
Disp ense
omog raphy
Ġa st
Ġaccess ory
ĠD av
Ed ucation
unn el
at osis
ĠS cheduling
PRET ATION
I ent
Ġqu ite
omp lete
ec l
Ġsens itive
Ġlo op
Ġw w
ol us
g ed
ydips ia
Ġground glass
ĠIN S
ĠMR A
Ġesophag itis
ĠHyp othyroidism
ac ity
ĠR ay
Un remarkable
ol am
ĠR ICHARD
Ġcharacter istics
Ġb lo
Ġfract ures
ĠIND ICATION
AD DER
b i
Fac ility
ud den
ĠInclud ing
FI ELD
M ult
EL IS
ĠPat ernal
Ġ12 3
enne th
ĠSU B
w y
05 2
Ġdep artment
Ġrem aining
Ġâ Ĥ¬
Ġext ent
ĠOcc asional
c utaneous
Ġmal aise
L EN
Ġt ibial
Ġo phthalm
Ġ17 5
ĠDisc ontinued
Ġ712 50
AC CT
Inter pretation
Ġgent le
li er
b ased
Ġwor ks
ĠS OL
St ress
ĠS OUTH
Ġlos artan
it an
ab ine
Ġt ext
Ġi e
Ġ3 52
11 01
em ide
Ġdevelop ment
IS E
Per son
No v
Ġexp ected
25 6
P neum
E OS
Ġdeterm ine
ĠD ON
ĠRT C
nes day
C lear
Ġfib rosis
Will iam
ST ON
Ġpresent ing
ĠIs land
ĠF rank
Ġc and
k et
li ke
ast om
Ġt y
ĠImp ression
O l
ĠC igarettes
ĠImp ro
hyl axis
Cons ult
W S
ath ic
og enic
n ar
ĠVER IFY
d is
ĠF lex
Ġly ing
ĠV ENT
Ġpro duction
Ġm iss
utom atic
Ġthromb osis
ĠC lin
M V
Ġtoler ating
Ġm ac
im er
S ep
ste in
Ġfl ush
Ġe le
ĠSteph en
or ah
ĠC ycle
ĠAN N
L OC
ĠSub ject
ĠY ES
ĠORG ANS
Ġa z
Ġ2 04
Ġg ot
ĠWee ks
Ġl ing
Ġreturn ed
m t
Ġhigh er
ox ic
89 9
ĠUR INE
Alk aline
Ġw a
Ġst aining
ert ensive
ĠN KDA
ri ef
ĠLaw u
RO PH
ĠADD RESS
ĠAnth ony
Ġtoler ance
ĠPA C
Ġw i
ccess ful
ĠGen itourinary
Ġsmall er
ĠP ack
ĠCurrent ly
Ġ27 2
Ġg as
19 79
Ġ9 04
W W
Ġuter ine
Ġx l
il lectomy
LODIP ine
ĠTrans cribed
2926 089
ĠF ile
os itis
Ġcover age
Ġst im
Th oracic
Ġto xic
le b
23 4
IS A
Ġf av
S ystem
F atigue
i os
V IN
E TH
Ro bert
Ġnot ice
ch ym
Ġerr ors
ĠG reen
vic ore
19 78
Ġval ues
ĠÂ »
19 42
Ġd ig
it r
Ġcl aim
ers ion
TEST INAL
M OUTH
g round
ple ural
ĠC ath
termin ate
Pro tocol
ĠS US
Ġm ail
ile vel
ID GE
4 50
ĠPat ricia
Ġag rees
Ġab ility
Ġs cl
ECT OMY
lob al
Ġ4 44
ĠPro tected
19 80
NE GATIVE
Ad min
Ind ication
ĠPA TR
junctiv a
Ġconfidential ity
Ġredu ce
Ġb ad
AK ING
ĠN at
nc illary
Ġcatheter ization
Ġguid elines
o on
IN OP
ĠPRO HIB
Am erican
ĠSCREEN ING
ep p
ĠAc id
Ġ000 0
e ating
ĠVal idated
ĠM igraine
9 09
ĠX L
3 55
Ġc ame
Ġn orm
Ġp unct
D S
A x
ĠS a
ĠMic helle
Ġagre ement
ĠV V
Di astolic
ĠUNIT ED
Ġi o
ed ing
ĠP en
Form er
Ġpart icular
Ġfrag ments
Ġb it
C an
ĠH ist
AT T
l ipidemia
IL ITY
SC OP
cephal us
ĠR t
Ġ3 11
ĠAd en
Ġappro val
Ġradiog raph
Ġcompl aining
14 7
u f
ĠJ ackson
Ġsn oring
ĠM ixed
rox y
IS C
Ġte am
Ġpar ietal
s i
ĠTH YROID
ĠL ipid
ĠPA UL
STIT UT
Ġal ignment
ĠE osin
ester day
umb il
Ġt at
Ġs ulfate
Ġus ually
ar th
Ġ4 10
U K
Ġspas ms
rel ated
h or
G ood
an ne
IT T
op le
n y
Ġser um
J oseph
ĠINST RUCTIONS
Ġexam ple
H OL
ĠH old
pp ing
P lasma
Dis ease
Ġar ch
Ġ2 77
ont aneous
ĠImp lant
19 43
Ġ_ _
Ġp ict
ĠT OP
24 6
19 1
Ġc ome
ment ation
Ġ10 46
ĠHE ART
Immun izations
oint s
ĠIn jection
OBLE M
Ġpre vent
Ġob ese
A F
leed ing
Ġl ytic
ĠMod ify
Ġl apar
ĠHY DRO
o ks
H ER
06 5
Ġ16 5
he t
ĠE AST
Ġl ipid
F urther
as y
ard ium
It y
esp ite
ĠProf ile
ĠB ilirubin
ĠF low
on ance
tra um
st ances
Ġc omm
ĠBL UE
ĠMD T
03 9
ateg ory
ĠE lect
Ġasymmet ry
ĠRef lex
Ġref erring
Ġd ye
ĠMar ie
Ġcorrel ation
Ġonc ology
Ġt arget
ĠJ U
ec urity
Ġcheck ed
ce ipt
Cl ass
ĠO V
As thma
ĠS chedule
Ġp otassium
gress ive
ĠS AM
19 5
P ELVIC
ĠCon n
ĠG M
Ġdi abetic
ĠUr inary
ut ions
Ġt achycardia
Ġcont our
Head ache
Mem ory
Ġins ight
ĠB eg
IN ARY
ĠAN T
Ġp ron
Ġb ile
D es
Ġinject ed
Ġal low
urs day
Ox ford
aryn g
c iliation
ĠREVIEW ED
Ġad verse
Ġsusp ected
Ġprol onged
ĠB ur
Ġhepat omegaly
E CG
lop ia
Ġn f
ĠA IR
Ġdiaph oresis
Ġinter stitial
585 2926089
Ġs mooth
Ġpoly uria
Ġped al
24 5
ĠPro v
ĠTr ail
ĠCh ief
j uvant
PL T
23 9
ĠM ES
ĠPharmac ies
Ġlob es
ĠC ITY
ĠE qu
T EL
ig an
ĠC REATININE
ĠRE ST
ĠAB SOLUTE
ĠL ip
re ctive
arg es
Ġocc ipital
UL IN
ĠAr th
ĠSh oulder
ĠN SAID
Ġw ave
ĠAd vanced
FORM ED
C opy
M ark
inn ing
ĠW eb
ĠAN Y
ĠS IG
ĠHE IGHT
Ġsubsequ ent
ues day
24 3
Ġemb olism
Ġd x
Ġplan ned
urn al
Ġink ed
ĠIntr avenous
08 3
Ġreceiv ing
ĠMonth s
ĠAllerg ic
Ġadjust ment
ig astric
requ ent
Ġfl uticasone
Rout e
ax ia
ĠP G
Ġst ret
15 5
Ġs al
Ġpar ents
ASTRO IN
Ġtop ically
16 6
is ions
St anding
Ġb u
Ġur inating
Ġimport ance
Ġ24 06
ĠN orm
ĠAL K
ĠMEDIC AID
ĠS EX
Ġ8 59
17 5
ILI ARY
yst al
Ġmob ility
om al
it ch
Ġattach ments
Ġa id
ĠAUT O
EL LE
ĠB al
Un it
Ġp an
ICARD IUM
RO W
ĠO xygen
Ġad mission
ĠP ri
ĠAm y
Ġa utomated
Ġelev ation
U O
Ġ01 2
Confidential ity
am b
St ates
ĠSt ation
Ġc ard
Ġinter vertebral
Ġany time
ATH ER
Ġlim b
ĠM ER
ĠPER SON
att ed
Ġdisc ontinued
w s
ĠCM A
ransport ation
Ġinf luenza
Ġb ending
ĠM ac
Ġme al
Ġm ixed
Ġl or
Ġme an
Ġcount s
ot ional
Ġsug ar
ĠWe akness
Ġ3 37
ĠP CI
Ġ07 7
Ġ8 65
Rep eat
P erc
F OX
Ġ14 7
Ġabs ence
ĠE ars
allop ian
ĠC XR
Ġcor rect
Ġradi ates
ĠAd v
E valuation
os ition
ĠI owa
olec alciferol
ĠGastro enterology
un k
Ġunderst ands
lo xic
IT IS
Ġbe half
ĠE LI
ĠW heezing
Ġs il
ĠHg b
t n
B rain
CARD IAC
Ġbronch itis
ber ly
Ġad nex
Ġ200 7
k n
Ġimmed iate
ĠWilliam s
Ġth ird
ĠPh os
ĠPERR L
Ġiss ue
ĠPoss ible
RT C
ĠE MG
ĠS IN
Ġbe ats
99 9
Ġa y
ifi ers
r ated
Comp any
oc l
ĠDISE ASE
ĠP ORT
Ġfact or
Ġl idocaine
Ġverbal ized
us ual
ĠN i
Am bulatory
Ġscl eral
Ġsex ual
ĠK elly
ING TON
Ġsymp hysis
C AP
Ġec chym
Ġit erative
b re
LY N
um ed
orr is
cept or
RI B
ASTROIN TESTINAL
ĠR OU
Ġrel ax
ĠSG PT
ĠF oot
i ropr
ĠL MP
Ġinst ability
OC ARD
P ay
54 9
Ġs eptum
15 6
Ġp op
Ġsusp ension
ill es
Ġc uff
Ġl at
Ġsoft ware
ĠGe orge
loxic am
Ġdes ign
urg or
R ate
Ġse em
Ġatheros clerotic
ĠS umm
89 1
ĠD oc
Ġrad ial
ĠH S
Ġ7 27
AC EMENT
ni S
lo t
200 6
W H
Re qu
l ains
Ġst and
Ġtest ed
Ġd er
id ay
23 7
abl ish
Ġ ï¿½
ĠCARD IOLOGY
ĠB rown
e k
m outh
Complet e
ement ia
Ġm it
OR S
c s
traum atic
ĠT er
ĠBar b
ĠEnd ocrine
Ġca uses
3 18
gn ancy
Ġc ent
S ch
Ġmet s
Ġart ifact
ICAL LY
25 5
ĠI ron
T im
Ġregular ly
r as
st etric
Ġd ental
Ġcer vix
ĠAPPE ARANCE
M ore
ĠP RA
Ġde viation
OR AL
ĠT ub
ĠMEDIC ARE
Ġy esterday
ENS ION
9 01
44 0
Ġch olecystectomy
ĠSE E
Q ty
ĠRecord s
L ER
ĠMon day
ib l
Ġ17 1
ĠM ASS
b ec
al is
ĠMot ion
Ġ9 29
COMM END
Ġf ing
Ġrequest s
Ġ14 3
Ġnostr il
ĠRes ident
g s
Con st
ecial ly
Ġ01 8
ĠIb s
ĠCor rected
M B
ĠPh osphatase
Ġdec lined
ĠAcc ess
H TN
ĠOm nipaque
ĠSpecial ists
ĠSub stance
Ġ5 15
id ate
Ġgentle man
ĠN umbness
Ġtra vel
Ġhyper p
iv al
ĠState ment
A v
OPH ILS
ĠPL T
ANC Y
GL UCOSE
ĠMart in
ĠTemp oral
IM ILE
ĠC op
ĠS ulf
Ġheterog eneous
oss a
ĠR od
J U
Ġas ymptomatic
ĠSp O
p ut
200 4
P OS
ĠInd ication
ĠO W
Ġth irst
Ur inary
AN O
Ġm Ci
ox etine
Ġinv estig
ith iasis
ĠL og
ĠS ulfate
ĠMem ory
ST ATE
Ġ01 7
ĠBr un
ĠL IST
Ġintr act
oug las
A uto
ĠâĢ Ŀ
ĠC essation
ĠPro gram
E F
Request ing
C hem
Ġbiops ies
UB IN
Att ention
ro f
H P
Mon ocytes
ward s
ac ing
ĠW M
C AD
Ġs itu
I b
W Y
ĠLEV EL
Ġ3 36
ĠC AB
ĠP enic
N ausea
az e
op ram
ĠVis ible
Ġassess ed
er son
it hel
ĠS ide
il es
ch ange
ĠQ UE
ATION AL
ĠTh ree
m en
00 02
Ġp y
ĠP EN
' ll
Ġd ominant
Ġsinus itis
Ġesp ecially
Ġto ok
ĠPart ners
i ology
16 1
ric eps
r ence
S cler
ĠH AS
lo tt
of ran
19 81
ĠJess ica
ISS UE
St op
urr y
66 6
d on
RE CTED
W EST
ĠO v
ĠCR NP
ĠSar ah
ĠR ectal
ĠL at
ar ks
f ast
ĠL IM
amin a
lo ad
Ġp owder
ĠM er
ĠAll ied
Ġse asonal
Ġ17 2
Ġwe ak
STITUT IONAL
Ġann ual
89 8
Ġmaint ained
22 3
niS ONE
la uc
VE F
y cl
Ġexclud ed
in fl
re tt
ĠPerc ent
Ġst ab
Ġ4 50
ĠNeed s
ĠF ri
Ġsub s
ĠFr anc
C e
Ġpe ak
Ġli qu
in el
33 7
e terminate
i ative
ĠU M
Ġantic oag
Ġhalluc inations
am ide
ĠAl k
ON Y
Ġ9 11
Reg ular
Ġph ase
Ġf asting
Ġ7 50
ĠAND RE
it ic
ir g
Ġa er
ĠIn hale
ĠIN R
17 9
24 1
pt ion
Ġp ut
Ġ ice
Ġt s
Ġ2 39
Ġ19 2
D X
Ġill icit
ĠD ANIEL
Ġs tern
ĠB OWEL
ĠE OS
ĠF ar
odg kin
Ġ7 11
ĠPER ICARDIUM
RON IC
ess in
Ġn u
ĠP OC
Ġpre ferred
ip ose
ĠPROHIB ITED
uros emide
Ġn l
eg a
Ġrec all
ĠAd mission
Ġ4 02
ĠL ATERAL
ich ol
ĠC AM
In tr
ĠLab oratories
ĠF REE
ĠV ent
N OD
L ipid
Ġb other
LAB ORATORY
B o
IT A
Ġst airs
Ġre tr
Ad mission
Ġ1800 5402406
Ġ00 01
Ġf in
Ġhyp othyroidism
26 6
Ġ72 148
a ult
Ġpl aque
Ġinc ident
Ġde ath
Ġneph rectomy
ĠNot ed
ĠR om
Ġa ura
Ġguid ance
Ġpred ominant
Ġpict ure
i L
Ġac cept
Ġra ise
Ġth orac
Ġn urse
ĠS il
ĠP ULMONARY
M el
ash ington
S D
as ter
m ond
Ġe g
Ġf resh
Ġl in
ĠPh il
Ġsub pleural
Ġgo es
ĠST RICT
Ġ13 00
in ated
ĠCOD E
as ia
ĠG old
Ġsm ear
Ġ6 02
ict ation
Ġfood s
ĠDist ress
om en
pport un
ĠJ u
it abine
Ġd a
t an
ĠExp osure
and em
55 5
Ind ications
Ġpart ner
Ġ3 21
Ġif t
ling ual
Ġath ena
iot omy
ĠPat rick
er ent
ĠH O
Imm ature
ĠDR IVE
Ġcur v
Ġequ ation
lauc oma
30 2
OR GE
Ġpol ydipsia
em onstr
S w
ist axis
ĠNE G
ĠPre c
IT S
ĠR IS
Ġ5 03
Ġfl ashes
ĠLind a
on z
ĠD emographics
ĠJ ones
Ġwors ened
ĠFlor ida
S EX
ĠO s
Ġw id
u ing
Re levant
ĠC ardi
13 2
23 6
Al ert
ĠTHER APY
o vascular
Ġster ile
Ġintract able
ĠSch ool
am ber
L eg
FL U
Ġph armacy
Ġf rozen
ĠExp iration
ann ed
Ġan astom
Ġnodular ity
ĠS ing
Ġo xy
y a
ee zing
ĠStart ed
ĠP ulses
Ġdirect ly
ĠBr ad
ĠRec ycle
m ost
Ġocc urs
Ġcolon ic
ĠSub mitted
Ġh ives
Ġres earch
Ġcon vers
ĠKe vin
b c
Part ners
ol es
Ġbr ing
IF ICATION
O m
ĠE levated
es h
ro ok
ĠS on
Ġnon c
TH IS
ist ed
Ġsens itivity
isl ice
Ġdiaph ragm
Ġk V
Ġexpans ion
Ġhepat itis
ĠUL TR
en g
ĠGL UCOSE
ĠMill er
D U
H ist
B M
ee k
Ġin n
d s
it o
INU ED
ĠX II
W ARD
Ġg ene
ax el
larg ed
ech an
ital opram
S up
ĠIV PB
ĠQ uality
54 5
ir s
vis ion
Ġf ossa
S y
Ġal ways
ĠS r
ĠB ER
FOL LOW
pl atin
Ġther ap
Ġ7 13
P ulm
ĠJE FF
Ġpr ur
ĠLA W
ĠSTRICT LY
15 7
p oint
Un known
Ġsepar ate
ĠE GFR
ĠCENT RAL
CAL CIUM
o ad
J ames
ĠRest rict
PAT H
ĠAl bumin
Ġec w
ym e
ĠD enied
ial ly
AB S
w a
rom ycin
IF ER
ĠCreate Case
i N
Ch ildren
ĠMy ocardial
HY DRO
Ġpe ople
Ġ3 14
P LEASE
Ġcalc ulated
Ġcop ies
Ġth orax
An swer
Ġ6 18
ĠLD H
Medic are
A W
FE RENCE
19 82
ĠHEIGHT S
ble eds
Ġt unnel
ĠCont rol
An g
Ġpro per
id ity
4 04
C REATININE
i od
act in
ĠMe an
ĠAd mit
h and
Ġ16 2
Ġun labored
udit ory
36 0
Ġdestroy ed
P al
b ack
Ġw t
T ablet
Ġscre ens
OB ILIARY
ĠF VC
Ġendomet rial
ju ana
O cc
ĠN erve
ĠU nc
Ġsub m
ĠAn kle
Ġt urgor
ĠJ ason
x ia
ĠMULT IPLE
ud es
Ġpro st
ert ain
R V
Ġocc urred
IC IA
ENTER Y
ĠM OT
ĠH a
Ad m
Ġc ardiology
Ġo pportun
and ibular
Ġmax illary
Ġow n
Ġ9 18
oph aryngeal
ĠP essin
Ġexp ression
al ity
Ġdoes n
Ġst ability
Ġs q
Ġre ach
pos ition
Ġnec rosis
MO K
Ġunder go
h o
ĠG ran
um ar
au ge
ol ate
od ation
V V
Ġc ognitive
PR N
SK I
Ġper f
ĠP an
ĠM PI
ip l
Ġw ind
ĠDIFFERENT IAL
ACT IVE
Ġmin or
Ġ els
ĠO w
ĠY ear
ARE N
olog ically
ĠSTE PH
Ġ16 8
ĠD ETA
ĠEX T
Ġdivertic ulitis
ĠAm ount
O ste
e i
Ch rist
Ġne u
ĠLa ura
ry l
Ġco ffee
v l
os arcoma
ĠRes olved
Ġind ependent
k g
t ies
k o
ens ities
Ġatt ending
ĠMy Chart
u z
m c
Ġevid ent
D id
ĠApp ropriate
Ġ000 0000
Ġlocal ized
iz es
TH RO
O O
ĠV it
Ġ01 9
15 9
Ġ iving
ĠDOC UMENT
y line
C ardio
Ġa ud
Ġlif ting
17 4
B I
ĠW ALL
Ġun usual
disc losure
L l
Ġreg ional
Ġlig ament
Ġ6 50
ĠCOLON OSCOPY
Ġst one
N a
200 3
Ġ5 01
ION S
Ġmention ed
ĠM it
Ġe i
Ġm t
ĠD etail
Ġag gressive
ĠOT C
Ġresp ond
ro iliac
Ġtrig ger
Y ears
Ġneg atives
ĠL or
I ght
M ET
ill ins
Ġrequ iring
ĠOrient ation
ch er
romy algia
L anguage
Ġt en
Ġhelp ed
ĠH ives
ir l
ĠDI AM
oden um
23 8
ĠF a
Ġd iv
ĠG abapentin
Ġ GENERAL
Ġb asal
Ġ2 41
ĠL AT
f icial
Ġheal ed
ĠM CC
S itting
Ġpar esthesias
Ġc arcin
y el
E r
oc hez
Pro state
IT IVE
w in
24 7
os ities
C ell
Ġst atin
Ġes ophageal
ĠRD W
ĠPerform ing
Kn ee
E GFR
ec al
rough t
as m
id i
ĠM essage
cept ion
Ġ12 75
e viCore
Ġepile psy
19 41
0 25
Ġdis ability
Ġair ways
Ġsam pl
ĠP am
Ġair way
Ġheal ing
Ġmaterial s
Ġb orderline
SUR ANCE
Ġt yp
I p
ĠPROTE IN
Ġmic ro
Ġ705 53
ĠAd d
N ext
m ad
l icated
Ġ2 48
Ġplan s
16 9
37 5
6 01
Disc ussion
ĠM AKING
Ġ17 7
2 25
1111 11
ect asis
ĠV an
ĠCAP S
E OM
ĠA a
Ġpro t
il it
el le
Ġs udden
Ġt l
ĠEn try
ĠROU TE
Ġ3 13
ĠEch ocardiogram
Ġ2 09
Ġfiss ure
Ġrestrict ed
re te
AB ETH
PR IMARY
ĠV AS
ĠN ursing
Ġsub stance
ash ion
Ġmost ly
24 9
ĠH T
los ing
COP D
ad en
ALB UMIN
un s
ĠAss ociated
ĠC reat
L im
ĠC i
Ġsh ot
Hospital ization
N IS
av ing
ip olar
Ġaddress ee
Ġb ones
Ġhydro cephalus
p ort
Ġther efore
ĠAn derson
Previous ly
ĠAd ded
ĠS V
Ġrest aging
T ypes
S W
b ic
D one
CT OMY
S urgery
ĠH y
ĠC OU
Ġsc alp
ĠT EL
ĠInhal er
Ġvi ol
Ġf allopian
ĠO SA
Ġagre ed
Ġst ains
ĠFr iday
bec ca
lo on
Mem orial
Ġrepresent ing
istor ies
Ġ01 5
act er
rom etry
Ġneurolog y
erc y
Ġ200 6
J un
Ġsplen ic
ĠT en
Ġline ar
Ġ15 7
QU I
4 07
ĠMan ual
CL OS
Ġw ants
Ġhelp ful
ĠL ocal
c ome
ĠE CHO
Ġimpair ed
Ġabs olute
ĠC ERVICAL
ĠEn ter
ĠMult islice
Ġmast oid
ĠINTER VAL
ĠAN A
Ġv acc
Re ad
ĠJ AN
Ġd ed
ĠD ictated
Ġ7 06
IR UBIN
Ġ3 79
J E
Ġ2 78
Ġf ashion
K ettering
Ġlarg er
W AL
ĠSTUD Y
03 5
NOD ES
ĠIN SURANCE
ĠN ONE
ren ch
ĠSp eech
alc ified
Ġ3 22
ĠFE V
Test ing
OPER ATIVE
Ġproduct s
ĠQuest ion
et an
Ġbronch us
ript yline
al o
Ġc ath
Ġm uscular
Ġb rought
ocrin ology
Ġrepresent s
ĠK ettering
ĠA ffect
Ġwed ge
Ġsh unt
ĠD EN
dom et
Ġ3 20
F IC
Ġs aid
ĠDiv ision
ER ICAN
ĠCH F
ĠNeurolog ic
ĠC ALL
umer ous
Col or
Ġsl ides
Ġcharacter ize
ĠTrans cription
C ontinued
Ġ2 26
Ġhtt ps
ĠSw elling
R ichard
Ġcomplet ion
ĠDo ctor
ĠIM G
Ġ15 1
Ur gent
02 9
ĠW ILL
ĠCh ild
ĠEnd ed
ochez ia
7 27
ins ki
ĠR an
Ġm aternal
Ġunderst and
Ġg e
Ġgranu lom
Ġs r
D ICT
Ġhip s
on ology
ADD RESS
m at
Ġinfiltr ation
OS S
ĠDE CISION
Ġ2 31
re ase
16 4
Ġcircumf lex
Ġin h
24 8
ĠUN IVERSITY
y er
B RO
ĠCH ARL
ĠH i
Ġoste oarthritis
Ġ7 73
ic ago
Ġpres erved
stit ution
ĠP anc
ĠPH OS
Inter pret
ĠC y
L S
EN DER
Ġexacerb ation
r ig
Sub mit
ell ent
ĠR idge
ĠW d
57 5
Ġt ympanic
SA GE
Ġan k
p ar
ĠM eg
P ulses
p e
ad s
Ġd ictated
omet ric
I al
Ġdim inished
Ġbreak fast
ack ing
Ġflu or
Ġunc lear
igh bor
Ġcon n
15 1
Ġst aff
3 28
Ġcar boplatin
ast e
Ġt x
Ġdis e
or g
Ġsp ontaneous
ĠCOM PREHENSIVE
ĠC FR
Ġd espite
P SA
ĠTim othy
ER IAL
iv ed
ĠMED ICATION
C ASE
Ġopportun ity
ĠR OUT
Ġ4 06
Person al
NEUROLOG ICAL
D aily
Ġprof ile
Ġ3 07
Ġnose bleeds
ĠMCH C
ĠP o
Ġt readmill
ĠFall s
ĠLE E
ore xia
Ġpar oxysmal
Ġo lder
Ġthr ush
33 4
Ġdeg eneration
CON STITUTIONAL
Ġblo ating
ĠIss ued
ĠBl adder
89 6
19 7
ĠAc quired
H CC
Ġres ol
HEPAT OBILIARY
Ġsc ars
th y
omy opathy
cor en
ĠC ro
Ġ36 0
ĠNOD E
Ġco oper
Ġ01 6
ĠL ew
ĠS IM
Ġpl antar
Hemat ological
54 7
P EN
Ġ15 4
C LE
34 1
19 83
ĠATTEST ATION
Ġagg rav
Ġr am
ĠA I
Ġex empt
ĠL atest
Ġ6 04
pl ained
f a
Ġth Is
r ically
are l
ut ter
UT ROPH
ĠLyn n
Ġst ain
ĠG enerated
Ġrec ognition
Wh ite
ĠPark way
c p
Ġc losed
epp ra
Ġm agnesium
ri z
Ġbr ach
ĠFL U
Ab d
Ġmed ically
or ia
ĠL it
Op en
ĠPM I
15 8
44 1
Ġantib ody
19 0
ĠT ISSUE
19 8
Diff iculty
Pre ventive
ĠNEURO LOGY
200 5
Ġ7 08
M H
Ġ200 5
W ed
ĠW ar
ĠA h
ĠPe ak
Ġ2 08
ĠW AL
Ġgl asses
ĠAR TER
A J
ĠSh ah
Ġpalp ated
Ben ign
Ġar id
RON ICALLY
ĠR P
ĠS ING
t ablet
Ġt ax
ĠV entric
ch lor
Ġo il
25 9
Ġany thing
Ġ16 7
ID S
ĠAP PRO
ĠA ortic
n on
ĠPR IMARY
om ing
Ġmult ivitamin
PSYCH IATRIC
Ġv ag
udg ement
AT TENDING
ou l
Ġcort ical
IST R
ru g
be at
or iz
Commun ity
Ġnoct uria
ĠM ART
ĠSteph anie
ĠF H
ĠM ILL
D ES
or se
Ġa u
ĠL isinopril
Ġf o
r adi
ĠGreg ory
Ġe f
co id
ĠP ulm
Ġre ass
Ġutil izing
Ġflu ent
Ġ15 5
Ġmo ving
Ġ8 47
Ġremain der
in ion
G RESS
ĠA PT
rac use
ĠL in
Ġexc ellent
omm ended
16 5
Ġagain st
Ġslow ly
D eg
Ġindic ate
ig est
ĠIN F
ĠN IT
ĠK enneth
D izziness
ic i
ĠLa ur
ĠPro p
a vi
ĠFOL FOX
F ull
stru al
ĠIn patient
Ġdip lopia
Ġre ally
ers istent
lyc emia
ĠDe vice
ĠSG OT
Q uality
t es
r is
GEN D
resent ative
OFF ICE
ĠN um
ĠJ UL
ĠUP PER
Ne utrophils
ĠSh ow
end a
m enopausal
ĠMark ed
ĠA le
16 3
ĠHep atitis
Ġph arynx
8 054
og raph
Ex traocular
23 3
Ġp ush
Ġdef erred
Ġc lean
es tern
Ġarth ropathy
Ġt ree
yl ate
Ġt ear
Ġcomfort able
Ġa uditory
4 14
CH ARGE
Ġcurv ature
77 7
L ives
lin d
Ġ19 0
Ġhtt p
25 8
ric a
Ġp antoprazole
ER SON
ĠMAR G
Patient s
Test s
Ġdis pose
ĠM i
H T
ĠPER FORMED
Ġfall ing
f erence
Ġmark ers
Ġf ulf
M ary
ĠF U
d ose
ĠP enn
ĠEN C
ĠTra vel
ĠRE T
AM B
Ġsign ing
g ement
M EM
ĠDeb orah
Ġ299 10
H ip
are t
ĠBarb ara
ĠOb s
ĠLOW ER
Ġh iatal
Ġnoct urnal
d es
34 2
Ġ8 44
en i
O Z
in ium
19 40
Ro om
im s
Ġappear ed
or ced
Ġknow ledge
ENN IFER
ĠO U
33 8
ĠH ave
enn a
ĠN ED
27 5
Occup ational
sp ine
Th omas
Ġgro up
ĠIns omnia
ĠHEM AT
ĠRel ationship
ĠO A
Ġpoint s
Ġtry ing
Ġper for
ĠDIAM OND
ĠE v
ĠSam uel
ĠCARD IAC
ol f
OL IN
ĠDI RECTED
Ġs ick
ĠL ight
enc ed
Ġrequ ires
Ġne ut
ĠN od
ar en
ĠExp ected
M usc
Gr and
ĠMON O
ĠREG IONAL
E ARS
Ġ ia
ot o
ĠP LA
E LECT
ĠH OL
ed ics
ĠTrans mission
NE E
n asal
Ġthough ts
Ġb is
ache l
se ud
ĠR H
ĠInj ury
t ion
ĠPL LC
Med iast
ĠM ammogram
26 5
ĠDes ign
Ġrad icular
l ia
ĠExt ension
Ġf ast
ens es
AD M
lofen ac
ar inal
Ġgrand mother
Ġels ewhere
or ies
06 6
ĠLAB ORATORY
ighbor hood
7 32
Ġaltern atives
WAY S
Ġa ching
Ġser ious
ot a
Min imal
Ġt aper
ĠHY PER
ic les
ile y
ap ro
ĠP UL
Ġn y
Ġab lation
Panc reas
M at
asc ulature
Ġpost surgical
Ġcomp liant
em oral
Ġop s
Ġcontrol s
Ġ GER
Ġprovider s
ĠAs ked
ĠD os
ĠM P
enhanc ed
o in
Ġ7 87
Ġ5 05
Ġacc omm
ĠST ATE
im etry
ĠAD M
ĠEst ab
OCY TE
ĠT aylor
ring e
ro tic
P ON
ĠF t
ORDER ING
Ġsam ple
agn etic
25 7
Ġm is
Ġb iceps
Lymph adenopathy
Ġgu ided
ĠBl ack
RE ST
Ġ15 2
os us
ĠN ancy
Ġ7 80
Ġ3 27
TER NAL
ĠBo ard
ĠT A
et ics
ĠHour s
u y
ĠL ittle
Ġe ight
FF E
other apy
W A
Ġ2 18
on ide
46 4
ĠLex iscan
Ġpac emaker
i rometry
b rid
ind ing
04 0
ew ed
Se en
ĠB leeding
sw ick
Ġdefect s
55 0
Ġsp aces
th oracic
Ġmod ified
Ad vised
ĠLIP ITOR
Ġs eg
Ġcran iotomy
Ġ6 10
Ġret ention
Ġst ay
ĠSM ITH
te b
Ġs arcoma
3 17
ĠL ane
E t
ĠF re
Ġgro ups
ĠFAC S
ĠL arge
ĠFac ial
Ġval idated
ar ily
iat ry
26 8
ĠC hem
ĠSt aff
Ġrec heck
f ax
200 2
Hyp er
ced ural
Ġac ross
ĠCAR CINOMA
ĠAd m
umbil ical
ĠWO J
CO RE
Ġad v
gn osis
Ġ19 9
04 4
d ap
PHYS ICIAN
at on
ĠL iving
Ġ8 13
G R
ĠU rology
ĠM ount
Ġr s
ont rolled
ĠEdit or
ĠSp inal
R ace
D AY
App ly
Ġg i
u ke
len e
Ġsubsequ ently
ur p
Ġsurg eries
L ong
Ġc u
oll icular
ĠCOM MENT
Ġlif estyle
ĠAm anda
Ġcap acity
Me thod
i ation
ĠL as
24 2
ion ate
F ree
Ġy e
19 84
Ġm usculoskeletal
ĠA z
29 9
Ġp ress
Ġcol itis
L ateral
Ind ividual
Ġsup erv
US H
ĠIb uprofen
on ents
k er
J O
ĠWELL CARE
j a
ĠSu pp
R ectal
S IGN
ĠT REATMENT
ocyt osis
Ġpr inted
Y ES
N urse
Ġang iography
ĠWee k
re ational
V i
F asting
Ġoste ophy
03 6
ig inal
N ow
ĠK ent
54 6
Ġin hale
ial is
ĠBED TIME
Ġcol l
19 85
Ġf ix
Ġ8 55
Ġ19 96
ĠP PO
Ġshe ath
ĠAT T
ĠAD L
Ġ17 4
16 7
ĠK NOWN
ĠNOT ES
il um
Ġest ablished
F OR
01 11
ĠCOP Y
15 4
ĠTw o
ĠSh ield
ĠLOC ATION
bic ort
Ġrep ro
S oc
ĠEC OG
V ent
Us er
M essage
ĠB ill
Ġ5 02
29 6
ĠCAB G
Ġte lec
OPH ER
et e
Ġfulf illed
ĠAt rial
ĠS ODIUM
UT ION
Ġprotr usion
ar ic
Ġ25 1
Ġ3 10
19 4
ic lofenac
ost omy
ĠBIL ATERAL
Ġgo als
Ġ3 38
Ġend oscopy
Ġphot ophobia
25 1
R ash
Sever ity
Ġ ell
Ġhemorrh oids
ID A
if ocal
ĠW at
C entral
KE LEY
ĠA J
Ġin form
al i
C ontin
ch y
Ġcan als
ĠL FT
ĠBru ce
em an
ĠBu ild
I ve
Ġd ermat
ĠP ay
Ġs ymptomatic
ĠS D
ĠB ronch
un ately
uk ast
amm atory
Ġpar anasal
im a
Ġrel atively
ĠComp lex
s a
Ġhospital ization
Cons ider
Ġhel ps
Ġreco very
ĠOccup ation
ĠAd dendum
G ASTROINTESTINAL
V accines
ĠL OU
omp licated
ĠPre ferred
Ġind eterminate
Lo ok
H IV
Ġpass ed
ĠFe eling
Ġ110 42
O xygen
OTH Y
em ic
Ġ15 8
int ment
Ġd am
P ol
ĠC LI
19 86
LE GEND
ĠBP M
Ġlim itations
in ib
27 1
Ġam bulatory
ĠNic ole
Ġst ap
Ġj udgment
Ġf ully
ch ard
ON ARY
28 8
ĠH um
Ġpro bable
v o
33 6
Ġang le
Ġexud ates
Ġpatch y
ĠL ES
Ġear lier
ĠD OR
ĠB i
Ġ15 6
ri le
Ġcover ed
ĠH is
ĠE li
l ications
P AIN
ĠIt ching
ĠInd ividual
el ukast
ĠA X
Ġ12 00
ĠNE UR
ĠL UE
ĠF RE
G e
Ġ ith
26 9
ĠC ontin
ĠSL IDES
Ġventric les
Ġ ere
ĠApp end
ĠC os
37 0
ĠP OL
Ġbuttoc k
ĠV enous
ar itan
Ġun s
ĠComplaint s
ĠWest chester
Ġ17 3
ĠJ ean
Ġdel ivery
Ġasp iration
Ġw ag
M Y
valu ate
Un iversity
ĠInter vention
om es
re c
Ġdet ect
ĠAD V
Ġ079 22
Ġimport ant
ĠSm art
Ġat axia
ĠPel vic
ĠTe lephone
ĠG reat
Ġther apeutic
ĠH NE
SUM MIT
N asal
ĠL OR
ear ning
CV S
ĠROUT INE
r d
N ON
18 5
g a
Ġal most
B O
emat ous
ĠBrun swick
ĠD S
ine ural
ĠMod ified
Or ally
Ġocc up
App earance
Ġt id
rog lycer
Ġste ady
l aw
UN CTION
In hale
Ġimplant s
ĠD ian
lom er
g ers
Ġrib s
ĠHyp ertensive
ĠTh u
ĠApp ro
Ġtoler ate
Ġstruct ure
eli ac
Ġm U
ĠPort ability
SE Y
00 05
U LE
Ġcompl icated
Ad vanced
Ġheart beat
ibl ings
ĠFAC P
yc ardia
37 8
Ġplan ning
us ive
Ġecchym osis
Ġurg ent
ĠK EN
Ġ78 452
Em ergency
18 1
ern and
Ġdil ation
vent ions
D aniel
ĠC ert
Ġexert ional
ĠW AS
Ad ult
7 02
Ġexam s
ver n
ĠQu it
ĠG MT
ther n
Ġac et
ĠPC s
W est
ons illectomy
theros clerotic
il ol
18 9
Ġinterest ed
23 2
Ġext ens
Ġf ive
Ġ2 16
at ty
j e
Ġnic otine
Dec reased
le vi
Ġextra ocular
u h
ĠCount y
Ġfair ly
ĠCell s
ĠSub cutaneous
Ġrn g
I es
ĠM B
ĠF iled
ĠM ICRO
Ġlateral ity
M uc
ĠCONSULT ATION
18 8
Ġens ure
ĠInt ake
V ITAMIN
in ject
R INE
C lin
Ġrest ing
Ġsub mit
Ġc p
ĠA ch
ĠO il
rop onin
AT ING
j amin
25 4
27 8
Ġg all
Ġpay ment
H ouse
ĠRe hab
Ġ16 1
ical Works
B ar
ĠT l
mo xic
G allbladder
Ġel bow
ĠKim berly
b t
M om
Ġpr actice
ĠTRANS MITT
27 6
Spec imens
Ġhemat ochezia
ĠN V
77 8
ĠÂ §
ĠRO OM
Ġep istaxis
coren ational
M iscellaneous
Ġlum ps
Ġar rhythm
ĠTr ig
Ġess ing
v ular
ĠMc C
end ocrine
B locks
Ġtons ils
ĠSeiz ures
3 12
in y
ĠSTUD IES
r ad
ynth ia
Ġgr adient
Ġor e
pre ter
ĠRad iculopathy
od a
Ġped is
Ġ10 01
Ġf illing
26 7
ĠJ ACK
ther apy
ŀ ¢
N uclear
ĠH osp
Ġm eg
S l
Ġ19 39
Ġa ut
Perform ance
Ġv entral
00 04
Ġmal formation
38 6
Ġcand idate
ĠW EE
ĠMAR IA
ĠDETA ILS
air ed
ĠDav is
Ġatheros clerosis
and om
ĠM EM
ur c
un ter
Z ip
FE V
ĠA lan
ĠN IC
Ped iatric
urm urs
ĠC affeine
E dit
ĠSy mmet
Ġhop eless
OP L
Ġdivertic ulosis
ĠC am
ĠV ert
Ġrhin orrhea
ĠC ourt
f s
Ġ5 41
ĠC ore
ĠDesign ation
ic at
Ġ5 09
ard ian
re ll
Ġn ucle
ir n
ste ad
ĠB H
ĠN ight
B ronx
Ġreform atted
ĠP ayer
05 3
ĠM ich
ĠD ip
uc ky
Ġ18 5
27 2
if estyle
Ġend pl
ĠT one
IB LE
i Core
Ġd l
ĠR EL
Ġin sp
Ġam LODIPine
Ġmorph ology
ĠAx ial
INOP ELVIC
ĠPres cription
Ġup date
B ones
Ġnebul izer
F und
Ġse lected
Ġr en
29 8
Ref er
Ġdepend ent
Ob esity
28 4
p ain
CE A
Ġ19 5
Ġopt ion
Ġr m
3 14
66 4
Ġcyc lobenzaprine
Ġemp ty
Ġconjunctiv ae
ĠN ichol
Ġ8 15
Ġagg reg
HEM OGLOBIN
Ġg astrointestinal
S im
Ġm akes
Ġ7 70
ĠCol lege
ĠV OL
Ġpal n
Ġtrans mittal
io x
ĠK IM
Ġas leep
Ġsymmet rically
ĠS urg
ĠPerform ance
Ġw k
ĠRef er
Ġco ord
ĠT IA
Ġped iatric
AR K
54 4
G Y
ĠAccount ability
af let
ir atory
ĠG ro
Ġv o
L oc
Sin us
Ġconsider ation
Ġrel ative
Ġdisc rete
Ġ2 30
on ase
Ġs ob
Ġg el
I ron
PR ID
irr hosis
Ġsequ ences
ĠDi ag
Ġt urn
P ULMONARY
EX A
Ġback ground
E ff
S ur
De ep
ĠR yan
Ġb x
alg es
un a
Ġv as
ĠAll en
ĠT ER
ĠD ouglas
v ue
I K
en ry
Ġr ates
46 2
ĠS AL
ĠPR IN
oad juvant
ĠAdmin ister
T ongue
44 8
ĠS ection
ET TE
ander b
ĠINTER NAL
Ġver teb
ill er
34 6
i h
ĠINT ENDED
Ġdent ition
Ġp ig
Ġrecon structions
Ġdis k
ĠCHOLE STEROL
Sp ouse
ĠD NA
Ġ8 14
ĠDAY S
EL S
ĠKath leen
st ation
Ġ8 17
Ġ200 4
loc yte
58 6
h ou
ĠRecon ciliation
Ġlim it
w as
Ġdefin itive
Ġpl us
Ġs a
Sex ual
ĠResp onse
ĠPO ST
06 0
Ġop inion
Ġf irm
23 1
Im ages
Z N
ur i
00 03
od d
37 9
ab dominal
ĠInf usion
Ġox ycodone
ĠV ersion
ĠBr and
w est
OU L
ĠPerson al
up lex
In sured
ĠPM H
ACC ESSION
ĠR ochester
45 6
ĠL umbosacral
Ġn at
Ther apeutic
ĠHEM OGLOBIN
ĠAn esthesia
ved ilol
R espiration
Ġpred icted
an ter
Ġre e
36 4
Ġk i
M PT
ĠIr regular
omp son
Ġdu odenum
roglycer in
OUNT ER
viron ment
3 20
ĠR EN
L ES
COM MENTS
ĠT am
ri o
ĠGranu locytes
ĠP ag
Pat ent
Ġre ceptor
Ġiniti ated
urm ur
ĠSe en
Ġd erm
Ġrel ieved
Ġaccomm odation
Ġcons um
thnic ity
Ġw aise
C MP
Ġent ry
k es
ocl onal
Ġ1 11111111
Ġ15 00
Q RS
33 5
Ġl as
Ġ0 20
M agnesium
Ġver ify
18 7
Ġ7 88
Ġh ormone
ĠA min
Ġ11 00
ĠIg G
ĠL l
A ct
ĠLim ited
Ġ19 6
der mal
moxic illin
37 7
Ġsuper ficial
ir y
Ġmut ations
ĠMet oprolol
ing ham
if en
ad es
act ivity
Ġ8 10
Ġen g
Oct ober
tr aline
ĠSever ity
ĠPre Authorization
33 9
VAS C
Ġre actions
NOT ES
ĠPres criber
66 7
ĠJac ob
ĠR og
Ġse lect
atr acheal
rict ion
av es
ĠCOMMUN ITY
O th
itu x
Ġappl ied
ed ema
om ast
ĠS ter
Start ed
w ing
Ġf it
ĠRel ated
Ġexp ress
n am
ĠT ue
26 0
Ne ed
ET IC
ĠAIR WAYS
Ġcl ick
ĠPP D
Sm ith
Ġdisc losing
ET T
Ġ99 214
Ġh orn
l ent
27 9
or row
on i
r itten
ĠF LEX
igue z
Ġmet formin
RI AN
Ġsmok eless
ĠUp date
sp ace
ĠD at
N IA
ĠO ak
ĠE mp
Ġbel ieve
Ġinter p
Ġmarg inal
B eg
ĠAng ela
ISTR ATION
Ġb odies
CON S
Ġcooper ation
ĠCat heter
lo se
ĠH z
CL USION
Ġc ounter
Ġ18 2
ol umbar
ĠF EM
der s
Ġter min
AB SOLUTE
ĠSe lected
Ġconc urrent
ADD ITIONAL
il itation
ĠMAT ERIAL
Ġs ol
ĠOR TH
29 0
ĠSPEC IAL
Ġ19 7
Ġdos ing
Ġdesign ated
a ur
ĠE VAL
MER CY
ĠSign ificant
ĠOb structive
ocyt openia
H ES
Ġend ocrine
ľ ĵ
r est
Ġest ablish
In formation
ar l
ĠNot ification
enc ies
54 8
Ġcram ping
Ġg ray
Ġt um
Bre ath
Ġrender ed
o ce
03 4
iv an
Ġth c
Ġ7 01
Fac ial
ometric s
ud a
An t
ĠPA CS
ool s
78 6
Ed ema
Ġb ur
25 3
H AR
North well
Ġcon j
ĠAsh ley
ĠR AM
ĠR onald
rid or
ĠW IL
ent ery
ĠR ock
Q T
iop lasty
c omp
Ġpr im
Ech o
Ġser ous
Ġs umm
ĠTax ol
E PI
anderb ilt
PRO VID
ĠAt orvastatin
ĠIdent ified
Ġdi ag
ON COLOGY
ĠI J
A utomated
NE Y
Ġr at
Ġoxy CODONE
R hythm
34 9
C HE
Ac etaminophen
ĠC yt
X T
ACC O
E ast
ĠD D
OSE C
Ġ6 30
ĠB ab
ĠV IS
Ġfrag ment
str ument
ribut ory
CT URE
F iled
in cent
Ġ2 44
ĠSusp ension
C ER
34 7
o en
U I
Ġcaps ules
Ġrad ical
Ġt ail
ĠE ffective
ĠGuid elines
ĠS ant
ĠS cler
IL A
r iguez
ĠM ir
ĠG ynec
up us
ĠELI Z
ĠLymph oma
02 8
she et
ĠB a
ĠL VEF
Additional ly
ness ee
37 6
orph ine
ge ther
ĠHI story
P RI
ĠW ashington
AND A
enn is
Ġin hib
B D
Ġeffect ive
Ġw at
Ġspecial ist
Ġl ids
ject s
ĠJ ENNIFER
Direct or
INAL YSIS
Ġappro ach
Ġ4 09
ĠSh ore
28 6
ann on
UT ES
ĠRead ings
c odone
ĠCS N
ĠAlex ander
N or
ĠEst ablished
Pel vic
ĠVentric le
E CTION
17 3
ĠT UB
SCOP IC
Ġsep tal
H AN
od ing
ĠP ED
Ġpar atracheal
Ġvaric osities
S ODIUM
qu is
Ġsu ccinate
ĠB O
App ropriate
arel to
m ax
Ġex cl
ĠB io
ĠPres cribed
Cor onal
fort unately
Ġm ach
H O
S am
37 4
Ġtrans fusion
ol oration
ĠT P
ig uous
ER CIS
ĠF ellow
S on
umb ia
P OTASSIUM
ĠW id
Aug ust
AND RA
r l
Ġtrans mitted
D ale
ur ies
Att estation
p a
er k
Ġword s
ĠV EN
MES ENTERY
Mar ch
g iver
Apr il
ip ment
Lymph ocytes
Em ail
ĠRe becca
Ġtest icular
Ġk it
Ġ20 01
R OB
hy p
Hep atitis
ĠF T
ĠR F
Commun ications
Pos terior
ĠCh arges
Ġ7 10
ĠM US
Ġfaint ing
C ard
im mun
Ġcons ervative
06 7
adol inium
26 3
ca utions
ĠM agnesium
vast in
ag ic
err itin
AT IN
Ġfor e
Ġcongest ive
15 2
Bl adder
Ġt am
PRA Z
ĠH abits
Ġs alt
so vue
D uring
19 88
N C
ĠOpt ical
28 5
rop ometrics
Ġ9 17
ĠA orta
27 7
Ġey el
St eph
SPE CI
Ġsy n
Ġp H
ĠFranc is
ĠO h
ĠR ED
Ġam lodipine
Ġp ull
F low
ocyt ic
ra ig
un c
Ġn etwork
Ġcl ips
M ob
Ġyour self
id g
02 7
Ġsim ple
Ġre mission
Ġ6 11
ĠRE QUI
OS A
08 8
or o
F AC
ĠIV C
ĠV O
ĠB UR
Ġdec omp
ĠJon athan
M en
S ed
54 1
Ġr age
03 8
M AT
ĠY OUR
Ġon s
Ġemploy ed
exp ected
ĠRecommend ations
Ġr u
ĠS qu
crib ing
ĠLE G
al se
Ad vance
Ġed ited
ĠB ONE
36 5
ĠOther s
ĠP ac
ĠH OR
ĠH am
ĠV en
Ġsuff icient
LIP ID
ĠRe ceipt
ĠA H
Ġhem ang
ĠAdmin istered
02 6
al ing
ĠM V
ĠIn g
Ġsp ouse
Ġcontin uous
ĠD ar
Ġfor amina
ĠP et
etan us
e ated
Ġrecommend ation
ĠFR ANC
Ġ3 17
ent ional
0 30
Ġ19 38
Ġover lying
29 5
ĠF lexion
terol ateral
t ype
Ġrig idity
COMMEND ATIONS
Dis position
Ġscler ae
Ġ2 22
Ġ9 31
Ġm mo
ĠBro ad
Ġl c
off man
ush ing
An kle
19 87
Ġexperi ence
our s
ĠChe mo
05 6
889 8061
Ġrest art
ĠO PT
il in
ĠW WI
Ġs acral
Ġ2 47
ĠCV S
ĠO phthalm
ĠW V
Ġsur geon
os artan
ĠCommun ication
An emia
L iving
ĠChrist ine
ĠPL ATELET
28 9
Ġpunct ate
Ġg em
ĠTh orax
C al
Ġexperienc ed
Pe ak
ĠPat ent
ABDOM INOPELVIC
Rout ing
M itral
gen ital
he tic
ĠHand le
Ġd escription
ĠH ysterectomy
Ġmye lopathy
SPEC IMEN
u els
ĠMob ile
Ġc f
Ġsmok es
4 10
ĠTRANSMITT AL
55 9
ĠV ITAL
loy ed
ĠI li
ĠMe th
C at
BL ADDER
ĠC NP
ĠL P
izz y
ĠB U
Ġreason s
ĠR X
Ġdispl aced
49 6
ĠAD EN
Ġaw aiting
ĠC F
Ġ11 01
ĠSp r
ĠDi agnosed
ĠAssess ed
ĠDon na
SP INE
ĠLou is
M t
Ġtr ap
Ġst ep
Ġwheez e
f ib
Ġst ents
Ġd in
Ġt andem
Ġun expected
C IA
ĠAB NORMAL
Ġ5 04
i oc
Ġit ems
Ġmuc ositis
ĠH art
Ġv en
28 0
F ailure
ĠD IST
18 6
Ġhyper cholesterolemia
ĠL ength
Ġ2 46
CHLOR IDE
Fac simile
M ont
ĠAB DOM
ĠR espirations
36 8
Ġno thing
ĠW AR
B ON
Ġp enal
Ġ2 35
ĠHead aches
Ġst ridor
ĠA FR
le ason
ĠDisp osition
if ically
ĠLaw rence
Ġ16 6
ĠELIZ ABETH
ĠHigh way
ĠSUM MARY
29 4
ĠV ict
W J
Ġlob ectomy
ĠE A
v ate
ĠB el
Ġinject able
ĠAw ake
Ġbl urry
Ġ25 3
ĠIM MUN
Ġang iogram
Ġrad io
ĠA i
03 3
Ġparticular ly
Ġphys iologic
Ġmening ioma
Ġperiod s
D el
Ġ28 1
il lo
ĠCHARL ES
ormo active
Recommend ations
45 7
ĠM AC
ĠR ATE
Ġhead er
ĠP UFF
ĠSTE VEN
ar o
Ġsh ared
In al
Ad d
ĠRADI OLOGIST
M art
ATH Y
Ġcl ar
ĠL ang
Tr ace
ino is
at adine
ĠT enderness
ĠTr ace
ĠD il
Ġk yp
ĠMD D
Ġt urb
AS MA
Ġac uity
C odes
Follow ing
19 90
roph ic
es ylate
Sign atures
ym bicort
V ert
Ġr x
o ic
ĠI i
egment al
ĠJ am
ĠAn ton
DA ILY
Ġre hab
pos ed
ell i
44 6
29 7
Ġc ross
OB ACCO
ĠS and
27 0
Ġ7 20
AS ONE
Ġconf ig
2 17
z i
Ġcor p
S HE
Ġe w
Ġinter im
Ġan orexia
Ġpredominant ly
Ġbul ging
ĠR ace
Ġdo x
ĠA SA
Ġh ab
ĠM PV
ĠCS F
LEN OL
T wo
Ġp ill
Ġsusp ect
Se iz
ĠG ary
ĠBRO OK
3 30
Cont ains
ĠSup erv
ĠHospital ization
PR OBLEM
IZ ED
G ROSS
T M
ĠDocument ed
Bas ophils
Ġunc omplicated
Ġthin ks
p rick
er d
v v
CT A
ĠGeneral ized
J eff
im ent
ĠP acks
Ġsup ine
Diff erential
Ġv it
Ġsn eezing
ĠGE ORGE
P ending
y y
ĠB EL
ATH AN
ĠAd verse
Ġe th
od il
osh ua
ĠREF LEX
ĠLe uk
S k
ĠRef lexes
Ġanastom osis
M AGN
u ant
Ġte a
Ġpar alysis
PL ACEMENT
26 4
ĠS andra
bor o
ĠCH ANGE
le ft
Ġn as
Result ed
ret ion
ut t
oph or
ver ed
Jan uary
Ġ16 3
Ġapp ointments
u o
Ġthromb us
ĠAU THOR
ĠCon dition
ĠSY N
eb ral
Ġin tern
u x
19 89
Ġhyperp lasia
ac lofen
Ġext ends
PL OY
Ġ3 39
Rel ation
IM I
v ula
R enal
Ġst eat
09 9
26 1
ĠT EM
ĠPATR ICIA
ĠNe ut
gen ic
Ġt c
att enuation
C la
Ġed u
us cept
Ġacc ount
28 7
Ġhypod ense
0000 00
Ġirrit ation
L t
CO HOL
Ġshe ets
Ġsole ly
03 7
Ġn ail
ycl ine
B oth
ific ance
Ġd ark
RO CARD
Ġsw eating
alth care
Hemat ocrit
l ate
Ġp s
ĠF ALL
Ġ15 9
H istorical
In active
Ġexclud e
her ent
Ġ19 8
ĠN OS
Ġmic roscopic
ĠP RESS
86 9
ann er
Ar thritis
Hg b
19 3
ĠR espiration
olt um
ĠQUE ST
ĠGross ly
ĠCh i
Ġendpl ate
Ġhesit ate
ĠD onald
04 6
Ġunc ertain
ĠSens ation
Ġ2 96
A p
Ġfail ed
Ġh am
Ġsh ape
ĠB ay
it rate
gu ided
struct ing
44 7
Ġk r
Ġambul ating
Ġn aproxen
Ġhe ld
B ased
ĠD TR
19 2
li oma
10 01
Ġnon contrast
F ORE
C ommon
iv a
ĠN utrition
55 1
ON TIN
I tt
16 2
rop ium
Ġprof essional
ab les
ĠPA L
Ġa a
Ġphys ically
Ġrem ember
ĠAcc ording
Ġank les
BL OOD
Pre c
COMP ANY
ra vastatin
ĠA ncillary
Ġwal ks
Ġind uced
Ġpur pose
AL INE
J OHN
in ol
ĠR ot
Ġpre pped
ĠF ish
ant ed
Ġch ief
ĠON C
Ġo ment
ter us
COM PREHENSIVE
ĠG ra
ĠAddress ed
ript an
row th
Ġverteb ra
ĠSed ation
Ġval id
ĠT a
Ġ itt
X I
ĠP LE
ĠR UE
ĠB et
ĠS OCIAL
Ġg ht
Ġtric eps
35 3
ĠAn na
ĠA LEX
Ġgeneral ly
ĠImm ed
ĠLew is
L y
Ġcomp any
Ġfasc ic
K idneys
ĠP hy
15 00
ĠV E
c u
ar ia
unct ure
Ġw ire
Ġh um
in ct
ĠCAR OL
ĠC AN
ĠRe ading
712 60
DICT ATED
ĠO k
Ġb and
Ġhemat oma
ĠChe motherapy
G lobulin
ĠCh arge
ĠF inger
ĠW AY
ĠInt olerance
Ġfing ers
Ġpro ductive
ĠIN TRA
V ITY
ĠN UCLEAR
Ġsuggest ing
ĠJ AC
Ġ9 99
ĠDe vices
Ġch iropr
H H
Me asurements
18 3
66 9
ĠIn tern
59 8
ior ad
ie ce
Ġorb its
ĠB uck
Ġmonth ly
up il
p f
Ġpro s
i S
Ġ5 30
ĠS LE
Ġdise ases
ĠW a
ĠPR IOR
Ġp uls
Ġsac roiliac
Ech ocardiogram
Ġt ypical
w n
Ġrem ained
ĠRIS K
ĠQ T
ĠR oss
iph en
lol isthesis
7 11
ĠUNIT S
H and
Ġpp d
ĠAB S
ĠB A
ĠASS ESSMENT
I st
Ġpres criptions
e u
Ġinfiltr ates
ĠT ransportation
C op
ĠAn ne
18 4
TH ONY
Ġbas ilar
39 6
ront ation
H ere
ithel ial
Ġ ern
Ġexp ressed
D yspnea
ĠW o
ĠN L
ĠB ern
apt ist
Ġg ave
ĠK NEE
Ġmod ification
Ġb if
lox acin
ery l
ati e
Ġoccl usion
Ġsome one
IT Z
m er
Ġal ter
Ġn arc
ĠPath ologist
IN I
Ġmonitor ed
G reat
48 0
E lect
Ġc ulture
AND ER
In v
ĠCHRIST OPHER
EN E
Ġ17 6
up t
Pr actice
Ġ16 4
st em
ĠA ud
Ġy ness
ĠNor co
Ġne oplastic
ĠAlb any
Ġinc omplete
ent icated
Ġpers ist
EN A
ĠBrook lyn
p id
Ġdysp lasia
Ġp N
Ġpall iative
J une
N RBC
Ġ2 21
38 3
oc a
k l
49 4
Ġd examethasone
Ġt el
ĠH ormone
App end
so as
iox ide
ith romycin
Ġm ammo
ĠCo operative
ĠV II
88 6
ĠCl ar
Deg enerative
ĠOm eprazole
ĠED WARD
ĠCo verage
56 2
ĠK ing
Ġt ie
Ġv ent
ĠF O
F t
ĠEm ail
Sever e
Ġnod al
re am
S ection
ĠGastro esophageal
ĠT or
b ar
Ġph armac
Ġm echan
Ġp ump
S CH
am ax
ĠCh icago
ĠMon ocytes
34 3
I ce
ĠAl buterol
ĠAden ocarcinoma
ro vascular
EL A
ĠS AR
36 9
ĠSC OTT
Ġrequest ing
ĠG il
A orta
ĠCorn ell
ĠAn terior
Ġappl ication
F ever
Ġposterior ly
Ġtom orrow
ĠF i
Ġ3 33
Ġdevelop mental
Ġ7 00
Ġj udgement
ud ed
ĠA unt
Ġne oadjuvant
ROCARD IOGRAM
Ag ain
I J
ĠNe utrophils
Ġ7 29
id o
are an
15 3
ĠAnth ropometrics
h icle
ĠOrthop a
07 5
38 0
ĠH isp
ĠF il
Ġv irus
OR ATOR
D on
Ġ4 96
25 2
Asp irin
Ġw arr
ĠHe ather
18 00
ĠC LA
ĠImpro vement
Ġ7 03
ĠGo als
ĠULTR AS
Ġh it
Ġple ura
ob ronchial
ĠR ON
ĠAn y
s ki
Ġto gether
ĠSh aron
Ġ200 3
B iopsy
ĠAD MIN
Ġcat aract
ĠLymph ocytes
bon ate
ĠL ess
ĠJEFF REY
Eosin ophils
z ed
Ġn ut
ron tal
Ġ17 8
Ġd t
int on
GE D
Ġbehavi oral
Ġ6 12
lycer ides
ERCIS E
el ch
Ġorder ing
ĠA vastin
Special ty
RECT OMY
UL F
Ġ8 57
Ġgast ritis
Met astatic
UR AL
a ortic
G RE
Ġan alges
DE PARTMENT
ĠC yst
ĠBAS ED
ĠAS PIR
ĠP k
epend ently
ĠDet ected
Ġa e
ate m
ener ic
roch anter
arc ia
Ste ven
re f
ĠTY LENOL
iri zine
Ġforam en
ĠS et
an ax
Ġ2 54
Ġ5 10
Ġtend ency
K I
Ġ18 8
Ġc n
s igned
ap ine
Ġcorrespond ing
3 21
med iate
N i
Ġh ur
Ġform s
ĠN arrative
P APP
ĠW as
CH OCARD
Ġsome thing
ĠPERSON AL
Ġr im
c d
ĠPA Y
ĠANDRE W
air es
RES P
T AB
ĠSUS AN
W ORK
56 7
ĠP VC
S cheduled
Ġman ual
UR N
Pre gnancy
ab ri
ĠSt ates
M ount
ĠAd mits
07 6
ĠH ay
Ġwas h
I RE
en y
ĠLIP ID
Bas ic
ul ating
Ġ9 12
ĠJ ay
ID ELIS
Ġcan e
ĠT x
E levated
m ore
ĠA mp
ĠSu ccess
Ġj aw
CON D
al the
Ġ9 89
Ġbl ue
ĠSh ort
07 9
36 7
âĢ ĺ
ĠSp ring
ĠR OC
ĠGL U
A ctiv
ĠT y
Ġal tered
Ġpro x
Ġmet FORMIN
se e
Ġo st
ĠSt anding
ĠR achel
ĠJ ER
ĠCamp us
Ġwe b
ĠSE EN
Ġl ord
it riptyline
ĠNEUR ONTIN
Ġf ell
Ġo ck
IC I
ĠI sovue
Ġrout ed
Ġbal loon
gn ant
P AM
Ġ8 061
Ġ7 02
Ġ15 3
ĠPneum onia
Ġtrap ez
Ġsatisf action
ĠPA RT
ĠRe v
Ġ9 03
ar ently
Ġ3 44
ĠCons ent
Ġt rain
AM S
ĠA SH
Ġcar riers
Ġseg ments
ĠM EL
ĠD y
78 5
ĠG AR
05 5
F ACS
F LEX
ĠApp ears
ess or
M ammogram
CON CLUSION
ĠExp ires
ĠREQUI RED
ic c
ard o
Ġep igastric
Ġprem ature
id d
ĠNorth well
Di arrhea
2 20
ame ters
MAD ol
ĠR aj
lin es
Ġpenal ties
ĠN eb
Ġelect rocardiogram
Ġ800 5402406
__ _
Ġsupport ing
int egr
olum ab
es arean
Ġqu itting
Ġgen ital
ist r
ocus ate
IZ ON
Z O
c y
09 4
27 4
Ġc igarette
06 9
Ġr andom
Ġpro mp
ĠG len
Ġca used
Ġoff ered
ender ing
IN C
OC RIT
ĠEp ic
ir on
u u
Ġb ath
Ġbronchi ectasis
P i
55 7
uc ated
Ġ2 29
ĠL OB
ĠF IR
Ġrepro duction
F S
07 8
In ject
ĠMIN UTES
Af rican
R L
ĠP oint
Ġh cl
Ġweight ed
ĠC reated
Ġ8 12
Ġform ation
Ġop ioid
ĠD UR
ĠL YN
al ed
ĠE MRN
Ġreg ulation
Ġl ed
ĠW rist
ĠI v
ophor ectomy
Ġref used
ĠAm eric
Su pport
ĠTRAN SM
Ġdis p
ĠNe utrophil
Ġf riction
Ġst en
Ġprost atic
Ġaltern ating
ĠL AS
Ġcomplex ity
am ma
IC ORE
ĠSU P
Ġm os
Ġ2 37
Ġb ox
ĠRec ipient
ĠLO Z
Ġad ipose
ĠHisp anic
ear m
Ġsatisf actory
Ġpro gnosis
ĠIntr amuscular
oun try
78 7
Ġm ent
af e
Sc anned
ams ulos
ĠRE LEASE
45 1
34 8
Ġspec ify
FI ED
Ġch ain
el son
IT ION
ĠB ut
Ġim aged
ĠR uss
Ġap ed
Ġor opharyngeal
og raphic
id og
ec um
Hem e
coid osis
Jul y
ĠInt ensity
im p
Ġa uth
28 3
ĠR UL
Ġm usc
04 7
T i
bl ast
Ġplan es
Ġqual ifying
Ġvacc ination
Ġfull ness
Ġx ray
OB ULIN
89 0
ĠAuthor ed
o es
f ft
Ġcomb ination
AM INE
Ġs ip
Ġk in
mitt ently
AT I
ĠU RE
Ġ7 37
or p
Ġ500 0
Ġind ication
Ġloop s
Ġconf rontation
Ch ange
ĠAnn ual
Ġo uter
Th en
Ġb rief
ĠIn to
ĠM K
M arg
ĠCH RONIC
Inc reased
Ġ18 7
ĠWil son
ĠAx is
Ġ2 24
Ġsu ccessful
y ou
ric uspid
ĠA O
od ine
l ial
Ġconvers ation
Ġlim bs
ĠPA P
ON T
34 0
Ġx xx
MOK ING
Ġstruct ural
CL IA
Ne utrophil
ĠInclud e
Ad mits
Ġpred niSONE
ĠB RON
ĠFR ANK
ut ation
V ISIT
ĠR S
ik a
ir k
ind a
ough t
ĠM n
ĠSt aging
ĠSer ies
27 3
In fusion
iast inal
ke y
Ġn ails
Ġs ul
ĠDA W
ĠLAB S
iv olumab
Con stipation
ĠG O
l f
Ġs cribe
Ġcar bo
Ġbr ad
ĠP oor
ĠFr ed
Ġ4 17
B ERG
LAB S
L ip
ionn aires
d d
vi e
Ġdec isions
ĠL ink
ĠG ar
55 6
Am bul
Ġs ound
ort isone
Ġbec ome
Ġtrans ient
Ġ4 25
ĠAssoci ation
09 6
Ġstr anding
ĠTW O
D ys
CT ICE
ial ysis
57 7
ub ic
ĠPR IV
Tr ig
aa ai
5 16
B ARA
integr ating
66 3
iltr ation
FR AN
l ies
Ġchew able
ĠPC R
Ġimmunohistochem ical
S G
M al
Ġsh in
ĠAv ailable
Pr ed
Ġl t
79 0
ĠDI RECT
Ġ7 85
ĠIns ulin
Ġfluid s
S eptember
PL ATELET
Ġoste oporosis
Ul trasound
Ġsim vastatin
ĠC ulture
Ġbreath s
ĠG REEN
Bas ophil
Th roat
AST ING
OPH IL
ul um
ĠL AKE
Ġ19 37
Med s
Document ed
F unctional
rav ity
ĠI X
ĠK i
ĠE B
ord ance
ĠC ROSS
5 11
39 9
at y
ĠK eppra
Ġgro omed
ĠR IVER
Ġres ected
ĠA k
ri ps
Pa ul
ĠP rivacy
Ġcom ing
lin s
ĠBe th
h aps
ett es
ĠQu ant
Ġintravenous ly
Ġ9 28
W or
ĠAM ERICAN
ĠF air
ĠHarr ison
19 91
PA IR
Ġcare corenational
ĠBr itt
ou ston
3 13
Ġm u
ĠLIN DA
59 6
elt oid
iorad ialis
Ġach ieved
Ġ4 15
ach ed
n ow
Ġ7 31
Tr achea
ĠM IL
ĠTABLET S
Ġch ol
08 6
Ġtest osterone
ĠCon c
99 6
op ulmonary
ĠH all
inv olved
Ġhyd rocodone
Ġcor rection
Ġtum ors
EX T
Ġg auge
ok ing
co h
ĠB ry
af ety
Ġblood y
REFER RING
04 5
ĠV ACC
Ġrecipient s
it ative
Ġcert ified
Ġ19 1
Ġpresent ation
Un authorized
ĠCh ills
Ġophthalm ic
Ġ6 17
Ġsat uration
04 1
ob al
ĠB ODY
Ġins ecurity
ĠIncre ase
Ġs I
Ġun e
D EN
ence phal
Ġ17 9
Ġopt im
RE T
Pay or
amsulos in
Ġadnex al
ĠK ay
n an
Ġ705 51
MC G
ell ed
ĠAt rium
in ates
ĠG er
Ġov aries
D enied
Ġinvestig ational
U ATION
Ġaccur ate
EM A
Follow up
P en
ĠC ynthia
Ġmult ilevel
ĠRE PLACEMENT
Ġessential ly
on omic
ĠCH IEF
J oint
Ġbet a
Ġunc ontrolled
44 5
ĠAPPRO VED
Ġ10 016
78 0
om atous
rom a
Ġâ ŀ¢
Ġm ont
ĠS ections
ĠUn der
Ġaggreg ate
ĠConsult ants
S elf
LE PHONE
Ġlo se
Ġdi agnoses
Ġdec ided
d uc
Ġsent inel
ernand ez
ĠTRANSM ISSION
Feb ruary
adi ation
Ġw ar
b in
im ab
ĠRep eat
Ġon line
Ġman aged
Ġair space
s is
ĠR ANGE
u pp
Ġd izzy
AL S
66 0
eral d
amil ton
la h
I ss
ĠB il
Ġprur itus
8 10
Ġex cess
4 12
arc he
Ġcircum stances
Ġdet ection
Ġinter c
ist ance
Ġnonc alcified
Ġsupple ments
b n
Ġa o
ĠMAN AGE
ĠBuild ing
TE IN
57 9
tom etry
Ax ial
j ay
Ġherni as
v ens
reat itis
ĠL ate
ĠPRESS URE
Mar ried
No vember
Ġimp act
b ye
E os
Ġsp an
Ġf ist
Ġmon oclonal
GEN CY
MAR K
Ġ7 77
ĠMAL IGN
S an
ĠI le
ĠAl c
ĠSy ncope
igrain es
ĠD ioxide
ĠAS AP
is ph
anc ies
46 0
ĠBeg un
ĠB ASE
ĠLe on
che ll
il ities
Ġ4 22
ĠNe oplasm
D etailed
Ġad hes
ĠH L
s mall
i omy
Ġfem ur
Ġ2 19
yc lobenzaprine
ĠInv asion
26 2
Ġo intment
Ġd ense
Ġmuc us
Ġscan ned
Ġd oc
Ġout lined
Ġsp ells
45 9
ĠT S
ĠL AR
S ar
g ar
t reatment
Ġr c
45 8
qu in
08 7
Ob stetric
Ġspray s
gan ization
lant ic
ĠNIT RO
J udgment
Ġsign ificance
amm ad
old s
ĠC igarette
37 2
o lol
Ġsteat osis
H OSPITAL
Ġdep ressive
ip ort
IAT ED
og raphy
ord ial
Ġantib odies
Ġv ena
ĠIM MED
v t
ĠEx cessive
Ġa unt
Ġneuro endocrine
ĠT omography
Ġreason able
ĠF ield
Ġn umerous
FI LE
HE TER
Ġret ired
bal ta
PH OS
Ġwork ed
ĠA E
ĠAtt estation
r ating
Or thop
lo ss
CC A
in ely
Ġun int
idog rel
Ġclon us
AS M
Ġf am
ĠR AND
L T
ĠC av
ĠAT TENDING
ĠS B
ĠPol yp
56 9
ell ite
ach ing
ĠPHOS PH
on at
it idine
38 5
Ad ministered
ĠULTRAS OUND
ĠM ag
O ID
Ġsh own
Ġdisc oloration
44 9
G AN
ĠW in
in ator
Ġshoulder s
11 10
ĠDIS CLOS
eno lol
ĠF NA
ĠSt im
Ġsil hou
ĠProf essional
ORATOR IES
Mic roscopic
ĠC ereb
07 7
iop athic
Ġb ab
ĠPL ASMA
Ġg ynec
Ġhelp ing
Ġgl ute
Imp lant
Ġ7 82
App roved
Ġh ilum
St ill
ribut ed
isf ied
ĠInv asive
U EL
d iff
Ġe ft
ĠN N
ĠG leason
Ġanticoag ulation
A i
ĠP g
ell um
ĠCOM MENTS
3 10
Ġpack s
chlor per
Ġhyperint ense
Ġf iber
ĠSTEPH EN
Ġspec imens
Ġregard s
Ġsp ic
ĠCl ark
08 4
Ġ8 01
ob ic
ĠAnd rea
T ra
c z
Ġr ather
P ap
Ġz one
og a
Ġrep eated
ĠRE P
op al
St at
Car bon
Ġwom en
Ġnot able
ĠOv arian
ite al
Ġfib roid
Ġdam age
Ġpar ent
any l
Ġpsych iatric
ribut ing
Ġclear ly
Ġanterior ly
et i
GER S
ĠER R
Mediast inum
CT OR
er rous
M OR
ĠJOHN SON
ĠD or
lop idogrel
Ġdevelop ing
Ġpat ellar
ill i
Ġle tt
P ass
V L
Ġc ups
Ġleuk emia
t ain
ĠE asy
Ġlo oks
Fl ag
Ġch air
04 9
Ġspe aking
ĠOste oarthritis
ĠQu ad
Ġgl ass
ĠSP ENT
ĠHem e
s ter
ĠEmploy er
yc ycline
Ġrunn y
ir am
ĠVAL LEY
05 9
ĠBAS O
Ġsaf ety
ĠR M
Ġsub mission
Musc ulo
Visual ized
ĠANT IB
Ġ4 20
79 4
ows ki
ĠLab Pak
ĠEX TERNAL
59 9
ĠT V
39 0
Ġ4 40
velop mental
Ġt uber
Ġn utrition
Ġp d
ll ll
ĠSt an
07 0
V ision
Ġat m
Ġp ower
ĠAl ive
Ġpost ure
ĠS J
Ġt on
t own
ĠImplant ed
Ġnon smoker
Ġ6 14
Ġ4 03
PAPP FAX
MPT OMS
OB JECTIVE
rosc opy
Ġdispl ay
39 8
ĠC ommon
54 2
ĠEdit ed
Ġenlarg ing
AM A
END UM
ĠAd am
ĠOut pt
Ġhigh ly
SE E
in ia
AR ON
ĠPenic illins
F a
Ġen z
ic l
Ġs ar
ĠJ ON
S oltum
Ġt ramadol
ĠL ives
on azole
Ġe e
Ġw ine
W IN
88 0
MON O
5 01
ig ram
ĠD IAN
ĠB oth
ĠSK IN
ĠCre am
m n
R om
Ġne ur
Y A
ĠL LE
im us
IL LA
ĠVisit s
Con junctivae
M EN
A ble
h c
ĠA utomatic
Ġs uture
ĠS light
ĠInter pret
est or
i ro
W il
ab ama
ĠAntib ody
Z E
ĠN am
Ġlast ing
THE W
red ient
Ġtub es
ĠM AD
Ġ4 27
ĠL ot
17 2
Ġile um
I RA
ĠHol der
ĠQuest ionnaire
roc ortisone
Ġnebul ization
ess els
ĠProvid ed
ĠSh er
Ġval vular
Ġdisc retion
ry n
ĠPort al
37 3
ĠCR P
emb rol
Re lease
SUB JECTIVE
ye locytes
47 7
Ġ19 4
ĠH ad
ĠR OD
ĠS ec
St reet
Ġadjust ed
ĠBen jamin
ish a
il iter
Ġrest less
Ex tremity
ĠZ ofran
ĠKent ucky
D iv
Ġ5 11
Ġ8 75
2 104
Ġv es
Ġem ail
Ġht ml
Ġmedic ines
lod a
an ks
ĠT OD
ĠRecon ciled
ph a
Ġfrequ ently
57 6
M ID
rival ent
ĠB h
Ġpro v
us ely
Ġcolor ectal
ĠJ ob
mon th
ĠMuc osa
ĠSP RING
Ġl n
ill ar
88 5
Ġradiog raphic
alp ing
ĠU TI
Ġgranu loma
ĠI HC
Ġvi b
enop ause
ĠFEM ALE
urp hy
Ġt artrate
ĠEm ily
C ustom
Ġpromin ence
act rim
3 22
ĠJ a
CHLOR Oth
Ġr l
g ic
Ġm n
Ġring ing
Ġph en
Un der
ĠPl at
Fe els
Ġrout inely
am cin
Ġf urosemide
Reg ional
lin k
Ġcon v
um en
ec es
Cor rel
Ġve locity
e h
ĠS ame
olec ular
ĠTen nessee
ĠPL ACE
st able
ĠH odgkin
un ch
OM ET
Ġv ital
ĠM isc
ĠRE AD
ĠWell ness
ĠD em
ra h
Rep resentative
hys ematous
Ġs aline
ĠRel ative
Ġn il
ĠAnt igen
al b
1111 111
chlorper azine
09 0
Ġple ur
rop enia
ĠD ors
COR P
Ġu ro
Sh oulder
st anding
Ġg ang
IN R
od enal
Ġch olecalciferol
05 7
Ġany one
Ġimp ression
Employ ment
ort ical
as a
ĠD ysp
Dec ember
Ġtelec opy
Ġ8 64
Ġle ak
ent anyl
op os
e loda
Ġsubm andibular
FACS IMILE
ĠDi vertic
Ġ18 6
Ġinter mittently
ĠWh ole
ĠWh at
k r
Ġintra hepatic
Ġep ic
ĠR ose
ĠDian e
o a
K idney
66 5
Ġclos ely
ĠCo ordination
ĠMES SAGE
lor i
ĠEd i
w ill
ĠPro duct
Ġtrans f
PI ENT
atin o
Ġs ense
ĠX RT
Ġs ulf
ĠC arcinoma
ĠHE ENT
amcin olone
Ġliqu id
56 1
ĠPM SH
000 01
n ight
ĠMarg aret
It s
ĠDe ep
Ġar ri
S agittal
z he
Ġsub tle
Platelet s
Ġind ications
Pl ace
Ġsac rum
und le
39 3
l ication
ott le
Ġch rom
Ġ26 2
l at
Ġme loxicam
f arin
g es
Ġac qu
ĠRec urrent
Ġr anging
Ġmin imally
i otic
Ġd d
w eb
ĠE vicore
ĠCon gest
55 8
Ġpro m
Ġbis ected
Ġling ula
N N
06 4
Ġ2 34
Ġ3 53
6 76
47 8
amp a
t it
Ġp ills
99 8
ĠEl m
04 3
Ġc s
Ġem otional
Ġ26 8
Ġ8 60
ĠD id
ĠJ ose
fft on
EE G
LV OT
ĠBreath ing
IAT ELY
ET NA
TE C
Bl ue
ĠHow ard
Ġsilhou ette
AN NE
law ful
11 00
N IT
ĠC URRENT
ĠN ET
UR GENT
ĠUR GENT
Ġrece ipt
ĠNSAID s
ĠG y
7 34
ĠD an
ale z
ig ious
B AR
Ġs ession
ĠK r
06 8
Ġper man
Ġt al
Ġact ually
ĠJul ie
Ġ7 22
29 1
ĠMod ifiers
ed ited
Ġ26 0
om s
ĠUP ON
Gr ade
Ġcollect ions
AP RO
Chem istry
Hist ologic
m es
Ġdestru ctive
ĠNOR VASC
ĠZ I
im b
Ġpre vention
UR ANCE
N ORTH
ĠT ech
med ical
ĠInter ventional
vid ence
ĠB eck
Ġpar otid
iri va
Ġtoxic ity
f il
loc ation
COM MENT
ob ular
v ac
ĠDeg enerative
OS ES
OUR INARY
Ġlead s
Ġrunn ing
RAD S
55 3
ĠB esylate
ynth roid
ĠP rem
ole l
ĠR un
BRE AST
An th
6 11
Ġch ron
Ġ16 9
lu ffton
03 1
Ġve hicle
itt s
amine ctomy
ĠAN THONY
opl iteal
Ġorg ans
el er
Lymph ocyte
Al b
D ef
em inal
ĠHP F
ĠCert ified
Ch ar
Ġ3 46
anc ets
P AL
Ġperfor ation
lo vir
ĠB SO
Ph armacy
ĠINTER PRETATION
iphen hyd
Ġs cheduling
END OC
Ġb urs
ĠZ EST
Ġsh oot
66 2
M ICRO
Ġl ive
Eosin ophil
N R
47 5
28 1
erv ic
embrol izumab
704 54
S chedule
P ri
Ġprohib its
P ag
Ġm ari
T ri
Ġmil k
Ġ18 9
Ġbru ise
Ġo i
Ġcardi ologist
Am b
AT ASE
M ICH
48 7
ĠWed nesday
PATH OLOGY
umb ago
g t
ren als
Ġ2 23
ĠApp eal
EM IA
ĠR i
EN G
ost al
Ġs ad
ĠTh ompson
Rep rint
Ġhospital ized
Ġcav a
Con cern
ĠF ina
44 3
Ġresult ing
by ter
ĠIN VAS
CHOCARD IOGRAM
Ġresp ect
59 5
Fe eling
er il
44 2
Medic ine
Ġsp ect
Ġret ro
ĠSpr ings
Ġwor st
ic ia
Ġbel ong
cl aim
ĠNic otine
c itabine
ULT URE
IT OURINARY
ĠT reat
ĠRE FERENCE
ĠC ast
BAS O
Y LE
ĠL am
ĠG astric
ot ype
ĠCol d
ĠH LD
Rel ated
heumat ology
Ġun lawful
n it
L es
ĠDiff use
ĠZO FRAN
Ġind ependently
ĠP V
b ury
ĠMin imal
ĠD t
55 2
Ġ3 86
ĠRE MO
Ġ3 16
Ġdiet ary
Ġ200 2
Ġprep ar
Ġw nl
A w
iv o
89 7
Ġ5 13
Ġepile pt
ust ained
Ġre vers
ĠForm s
Ġ18 1
Ġclaim s
iiii iiii
Ġ19 88
Ġmax imal
IG UE
ĠS it
ort ed
Ġcardi omyopathy
Acc ess
09 5
ĠImm ature
obal amin
57 8
ĠH AM
ĠI ts
cript s
02 1
A ffect
if ier
ĠRes ources
47 0
Ġnon focal
onz alez
Ġnon ob
Hyp othyroidism
ĠI B
b ell
ĠAN GE
ĠInc ontinence
Ġt aste
ĠS en
Ġvib ration
I EN
Val ley
02 2
Ġpop ulation
ĠHealth y
ĠMult i
54 3
Ġve get
ĠO CC
O k
Ġmet al
Ġ5 25
Ġab ut
39 5
J ennifer
pr ise
URE D
TH ROID
Ġ7 93
ĠBR CA
ĠMic ro
19 92
IND ICATIONS
as i
ĠPer fusion
Ġt ic
ĠNo w
ĠL ISA
19 99
ĠV C
IV IL
48 4
ap hylaxis
erg lycemia
UN IVERSITY
THOR ACIC
Ġen ough
Ġt em
d ale
M il
Ġ9 41
ĠK AREN
ĠPRO C
ow ed
Ġpro b
G O
Med ia
ĠV el
n is
Ġl ime
ĠHigh est
ĠAD ULT
ĠT ot
ĠIn form
Qu it
Ġ3 18
est ed
IF F
ĠCOR ONARY
H ol
ĠH ernia
ab s
Ġra ising
D ept
Ġv iral
v asc
Ġpulm onic
96 0
Ġmen strual
Ġanat omic
ĠF CC
ĠAN GI
ĠV accines
ĠH wy
56 3
IIII IIII
Ġfav or
ĠM urmur
Ġc ases
Ġlo ose
ĠF ound
ĠF IL
Ġcall ing
Ġb locks
l ar
st ones
omp anied
if lexion
ĠTh ursday
04 8
INS URANCE
Ġpre cautions
Ġdys met
B ACK
Scler ae
96 4
A ction
ĠB ones
ere bral
ap ed
ĠK atherine
ĠIt ems
99 7
ĠH ills
Im e
9 11
Ġacc ordance
S al
38 7
ĠF ort
29 3
ĠT artrate
Ġureter al
ent ary
ex plained
i ol
ell er
ile psy
Ġbronch ial
ĠComp uted
33 2
ĠPneum ococcal
Ġthigh s
ĠRE PAIR
Ġheight s
ĠN AS
Rec ipient
ĠDEL AY
Ġ6 23
ĠDe ath
Ġ000 001
ot rans
06 70454
Ġv ocal
Ġnumber s
Ġele ments
ĠApp rox
ĠM VA
Ad v
Ġ4 13
ĠF UNCTION
38 4
Ġde let
Ġtrans ition
Ch olesterol
ĠPos terior
aph ragm
ĠARTER Y
ĠM ove
Ġquadrant s
Ġ0 21
P FT
ers ed
Ġaccur ately
ĠEn domet
Ġsegment al
Ġpat ernal
ĠB efore
Ġt v
Ġl ay
A O
Ġmiss ed
ORDER S
Ġab used
Ġlump ectomy
l m
C ardi
Ġf ill
MON D
ĠP ot
CH OL
ĠPET ER
Ġmeth yl
is ional
ad ryl
oph ren
man n
ĠPam ela
Ġ6 05
ro e
ĠU E
atem esis
IC ILL
28 2
wh ite
Ġclass ified
IA Z
INTER PRETATION
S light
ĠAl t
lomer ular
66 8
ĠCELL S
Ġto t
Ġcre p
lo id
NE TH
Ġmari juana
b il
Pres criptions
RIC K
let t
ĠTr acking
Ġp seud
Ġ3 77
SUR GERY
IC C
ĠSy ndrome
Ġwith d
ĠORTH OP
32 11
ĠHyper cholesterolemia
H AL
heum atic
Ġl ips
Ġ2 76
ĠBAR BARA
Ġm ess
MED IC
S n
s in
j ust
ĠSm ear
ĠA traumatic
ĠT uesday
Ġpro ject
PO ST
ĠY oung
99 214
Ġtherap ies
blast oma
Ġ19 36
ĠSCH ED
ED IC
CI PIENT
byter ian
Ġmigrain osus
Ġm amm
I ER
ĠEV ICORE
tract able
R ob
ou st
Breast s
Ġbran ches
Z Z
ri et
OL O
Ġy oung
Ġq hs
66 1
B el
D en
ĠS om
Ġf ol
ĠST ART
is i
Ġbeg in
ĠT C
os it
Ġday time
ĠS um
mad in
Ġb orn
T P
ĠResult ing
ĠB MP
ĠS ac
45 3
Ġb order
REFER RAL
ĠES R
et am
ĠOste oporosis
E ll
L ou
arth ria
or etic
p sych
ĠM PH
9 03
ĠDeb ra
ĠMAR IE
ox ifen
ĠK et
P W
act or
Ġn arrative
ĠT urn
Ġro b
et irizine
out s
Ġmes entery
88 7
en u
Ġj ob
j o
ĠP m
56 8
Ġ7 15
le a
ĠPR ID
ĠBas ket
Ġr espiration
ĠIMMED IATELY
ag s
Ġt il
Ġregard ed
GRE ENS
um ps
ĠPRO FILE
Ġ18 3
ĠImp roved
ĠCirc le
th ral
c ol
ĠR L
ĠF S
Ġ2 28
Ġpin prick
ĠM ellitus
ĠL etter
Ne ut
ĠRad ial
if ting
ĠM ost
Ġ3 19
OUT PATIENT
Ġfil ms
Ġhouse hold
lev ue
Ġhyp og
Ġplatelet s
ĠVe locity
F U
S outh
ĠDis charged
ĠMich igan
k en
ival ent
Ġdist ant
C ENTER
PORT ANT
Ġe Ct
Ġm ode
Ġlim itation
ĠK h
Ġw ks
ĠC anc
vi C
Ġab n
M urmurs
Ġqual ified
EL LY
ĠArter ies
ĠG RAN
Ġcomp onents
Ġis t
Ġ9 72
ĠF RA
74 177
ĠT rem
ĠCO RE
ip ta
ĠM ALE
z er
Ġ2 86
cont ributory
Ġthro b
35 2
k h
46 8
ĠAm end
im ed
ĠAss oc
J D
P F
P D
Ġrecon structed
P lant
ĠCr ystal
Ġsubc arinal
Ob s
M it
otid ine
ons ible
ĠWH O
Ġ4 34
ĠJACK SON
immun e
burg h
Ġ18 4
ĠM l
land o
Ġf olic
Ġr espirations
ĠWO OD
UTROPH ILS
o val
ĠAppro val
Ġre al
Con junctiva
T IC
ĠTH RO
y ears
Ġg reen
m ont
ER GENCY
Ġth o
ĠWH ITE
L AD
Ġreflect s
H o
ĠD im
09 7
Ġ18 66
Ġ3 24
j i
57 0
Ġang ioplasty
Ġle arn
ĠV W
ĠDel ivery
Ġpa In
ĠIn active
ĠM ercy
Ġ8 03
ĠE ach
Ġsh rug
Ġhem isph
ĠComp liance
Ġp aim
VEN OUS
Ġhesit ancy
C ap
Ġl id
ĠP ertinent
Ġaggrav ated
ut ing
ĠT ext
CHEST ER
ĠB arn
K INS
ĠInf ection
Ġdemonstr ating
Ġli e
tt e
S ERV
App t
Ġcompl ain
Ġs ut
le ment
ĠM ah
ĠWh en
ĠN UR
Ġg lyc
PA CT
89 4
Ġun explained
AR I
C omm
cl usion
Ġbrad ycardia
19 93
Ġg adolinium
ĠARE A
Ġs keletal
ind uced
36 3
uscept ibility
z o
ĠRod riguez
ĠC ERT
Ġcontain er
oen ix
ĠF in
Exp ected
Ġc irrhosis
59 7
reh ension
ĠA SC
ĠLymph ocyte
Ġhyd rated
Ġ2 38
Ġdysmet ria
ĠOrthop edic
Ġchem or
ist ries
re ens
AG O
Ne u
CH OLE
ĠT AM
BUR G
Ġcomp rehensive
Ġgrad ually
Ġimmun ization
ĠV a
Ġt ell
ĠAl i
ĠPOS ITIVE
Ġr ay
ine z
ĠRef errals
OL A
Ġlord osis
ĠD OP
Ġphysician s
ĠL EX
Ġcomp uter
Calc ulated
PAGE S
ĠAn ti
ĠChrist ina
ie v
oc obalamin
Ġvari ant
ĠCAT HETER
ĠP rom
Ġst ren
IST S
INTER VAL
ĠF asting
ĠPA ST
P alpitations
ĠSeiz ure
PL ER
Ġv v
ĠF requent
ĠH an
Ġatt acks
ucle ated
07 4
96 9
ĠSu ccinate
av y
he y
ĠFL O
LOC ATION
ĠCon junctiva
ann ing
enhanc ing
Ġn un
Ad renal
coh olic
Ġo h
Ġcis platin
ĠST ORE
05 8
39 4
on c
iv ary
AR IT
Ġb s
E vent
ĠAC ID
Ġ7 33
Ġthick ened
Ġen vironmental
Ġ4 95
ĠU RI
Ġtyp ically
ĠJ oshua
F ib
ul air
Ġob lig
PRO TEIN
mp h
Ġhemorrh agic
Pel vis
B al
ul ed
Ġtrapez ius
Smok er
2 18
L etter
J ac
ro st
Ġdiag onal
ĠABDOM INAL
ie ving
th azine
ĠCOR P
Ġt ypes
ĠPh ill
Ġcontin uing
CU SS
Ġloc ally
Ġar ise
Pres cribed
or ient
ĠIll inois
ĠAD HD
ĠPla za
ON ASE
ĠSE CTION
ĠC IR
N utrition
Ġv ac
Ġsection ed
Ġcol lected
Ġ3 43
ĠF I
lan ation
ĠBen ef
Ġmed ia
ĠERR OR
Ġst at
ĠRes earch
ĠP uff
Ġfocal ly
ER Y
9 00
Ġdisc losed
S N
ĠW th
ost asis
CHLOROth iazide
ĠK ATH
Ġtr unk
Ġfascic ulations
ĠR AY
ĠF ailure
Ġrec ess
ĠRef lux
Ġd ear
Ġ3 78
ĠP all
G RO
EL LA
Ġca vern
L U
Ġh s
Ġpost nasal
ĠL OP
M AL
is ol
Ad mitting
act one
St andard
Ġs ides
Trans cription
P ED
An terior
ĠSPEC IMEN
ĠCenter s
Ġcalcul us
omy cin
ĠPerc ocet
O v
olel ithiasis
Ġpack et
ĠH ard
ire ment
ond a
Ġc ult
Ġthrob bing
Z OD
Ġsub lingual
Ġb road
ab an
al ities
3 23
Ġ08 7
UD Y
ĠVENT OLIN
Ġsupp ly
L IM
Ġl am
Ġflow sheet
Wed nesday
d el
ct ors
F lor
ĠTEST S
ON C
ang er
ĠTab s
ac i
ym es
ĠC NS
3 24
G ynec
Ġobt aining
ĠSch w
Ġa ph
Ġ2 45
ĠS ore
Ġyear ly
ĠEosin ophils
ell ular
77 6
ĠL IVER
ĠAc etaminophen
ĠAJ CC
tom a
ĠPre liminary
Ġun ited
Ġpt osis
C ANCER
Ġpar as
46 5
FT ON
h erence
Ġdis integrating
F M
Ġ3 08
Not ice
Ġcass ettes
Ġmusc ulature
OC AL
ĠR LE
49 5
Ġdisc s
Ġch o
AN NA
Ġsw it
ĠO Z
miss ions
47 4
Ġconfig uration
hyd rochlorothiazide
Ġv oid
ĠL earning
ĠH u
V S
V it
ast a
UC ATION
R s
ĠB RIAN
ĠLAB ORATORIES
G S
Ġc ouns
ĠDisorder s
Ġf ru
ĠAl abama
ĠC atherine
Ġst em
N t
ĠU V
ERG Y
Ġneurolog ist
P anel
Ġw on
An esthesia
Ġlapar oscopic
Ġ umbilical
ĠTim eline
aps ed
ĠE U
d am
Ġ3 28
ĠCOL LE
ĠL AP
Ġc eliac
ic us
Ġpurs uant
Res olved
Ġok ay
IV I
est ine
Ġfat ig
36 1
ĠT hy
fer ase
ĠLaur en
Ġdiaph oretic
Ġt ar
Ġpron ator
Ġ3 000
Ġop erative
ef i
Link ed
29 2
gi ene
Ġc ecum
L aw
Ġdep th
CL ore
UN D
M igraine
Ġin ability
PO INT
Ġd igital
Inf o
Ġd ates
ĠRet ired
oc alciferol
Ġ3 76
Ġpress ures
N orm
ĠL H
ict ating
Ġse es
O phthalm
Ġo y
ĠR ub
Ġest rogen
Ill icit
ĠSYN THROID
RESULT S
PRE D
Ġp n
ĠSpecial ist
39 7
iz ine
Ġw an
I PH
ĠQ ue
ĠUr inalysis
ĠA therosclerotic
T enderness
ĠPatient s
D eb
ĠF ully
Ġv om
FIR ST
odil ator
ĠOver all
ĠA ut
Ġ100 22
ĠSH ER
ĠMad ison
ess el
ĠAFR ICAN
Ġcare ful
X Y
ran gement
Ġb undle
Ġt omography
Ġs un
ne uro
58 0
u it
ĠC ardio
ĠBER KELEY
AT ES
ĠPH I
O A
unt ary
ste ady
S tra
Ġp c
ĠProf essor
Ġtr acheal
Ġimmunohistochem istry
ĠORDER S
Ġw ear
Ġlo bul
Ġgrand father
Ġ0 22
Ġcorrel ate
69 7
ĠU U
ĠVer ify
d etails
ĠSt ruct
ĠR IDGE
49 8
R a
ylen e
C os
ĠF SC
Ġd ementia
Ġextrem e
L IVER
Ġaffect ing
ĠP OTASSIUM
ĠSulf a
ĠNum eric
Ġevalu ations
ĠC er
ress ions
Ġgo iter
Ġpert ains
ĠL atino
Ġ4 08
57 4
ĠI ON
Comp lains
dis ease
ĠD ur
Ġtrans ferred
ĠPediatric s
Ġ5 17
56 4
ĠTher ap
ĠSpec ified
Commun ication
Ġob li
ĠT eeth
ĠV IN
ym balta
CONT INUED
in itis
ĠH enry
iv ocal
Ġsy ringe
ac a
ol ated
BIL IRUBIN
ĠV S
r g
ĠMANAGE MENT
O CC
app a
ĠD EXA
R X
48 6
ĠM orbid
one al
ĠAr t
Lymphatic s
Ġ7 89
T REATMENT
Ġ0 23
ĠNEED LE
ert y
ĠGEN DER
u log
ĠP alp
Ġd ensities
Ġc Gy
Eff ort
ET Y
e ed
ĠCl ient
STE RECTOMY
Rec ommended
ĠO C
DO E
ĠPost al
ĠMc K
Ġn m
or ary
Ġres ource
I ons
Ġleuk ocyte
ĠV IR
ĠAd ams
79 7
Ġex ist
59 0
On t
ĠIn sured
Occ asional
t ake
ING S
ĠF unctional
ĠE FF
Ġ11111 1
47 9
Ne ighborhood
ĠHe at
88 4
osc ope
ĠTEST ING
J ackson
RE COMMENDATIONS
ĠEst imated
G RA
35 1
ĠRES ON
AN IE
ĠNit rogen
F inger
id ing
I an
Ġ4 82
ĠVent olin
56 5
ug ate
Ġw ait
ye th
Ġsequ ence
ro om
ĠT UR
Ġrel ationship
ĠDec ision
Ġ0 29
ĠA ustin
ĠD uring
Ġradiograph s
ĠIC A
der ly
ĠM EN
ĠMel anoma
Ġinhal ed
Ġ2 55
Ġbe h
Ġcalcul i
ĠAnton io
I le
ĠAF TER
Ġsex ually
ĠBas ophils
C LI
6 12
Y P
19 94
Mon day
ĠPRA CTICE
J A
X L
ĠF ACT
no v
S ENT
ig g
ĠRESON ANCE
Ġl ib
Ch arge
Ġ8 16
Mon ocyte
K IN
Ġhep arin
Ġcons ist
John son
ĠMAT THEW
as ma
Ġpap illary
CH N
D ip
Ġe C
ĠBE EN
101 1
ĠN as
ot ics
ĠM AX
TRE M
ATHER INE
ĠM IP
on itis
Ġcommun ic
e v
Ġ6 08
Ġlast ed
ĠT odd
Ġmethod s
ĠR oc
ĠS aint
Ġtext ure
B ut
ĠH PV
Ur inalysis
ĠLip itor
f low
atI ons
ĠKe y
Att ends
E MRN
Ġenter ic
amm y
Ġbr ight
ĠSh ar
Ġ8 63
Ġfil m
Ġob jects
Ġdull ness
C ELL
ES IUM
ĠPA M
09 8
Ġse at
ĠU O
Ġ28 7
d t
ĠNe ur
Ġl ink
qu eline
ĠHeart burn
Ġto ol
b its
ĠH b
79 5
L MP
Ġdiff usely
Ġ3 70
ec i
ĠL vl
L ANT
Ġ erg
ie ves
Ġ3 29
OC AR
ĠHep atic
Ġper iv
ĠA AA
Ġsub lux
ĠMICH ELLE
Ġbother ed
ĠL ife
Ġsampl es
Ġmult ifocal
ĠM all
ĠP n
ĠD ig
Ġsp ot
S IDE
Ġadmin ister
Ġspondy lolisthesis
IL OSEC
C ereb
UT ER
ict ion
Ġv asculature
Ġ19 35
ĠCD C
ĠG lobulin
eg o
R fl
ĠC arm
Ġg n
is or
Ġec linical
oc le
ĠMo h
gn ed
ĠST R
Ġl ic
ig moid
Ġkyp hosis
18 2
Ġa il
Ġcis tern
ĠH ot
02 3
Ġmin imum
in er
Ġintr amuscular
em et
or ate
ĠEosin ophil
ĠM IC
lit axel
Sc attered
ad d
Ġo pp
59 05
ĠE MI
With in
Ġmill igram
ĠPla vix
ĠNichol as
OR IA
Ġvisual ization
Ġmo lec
pid em
ĠPerc ussion
Ġal e
ĠAUTHOR IZATION
ĠP DT
ĠInd ications
Ġch amber
Lateral ity
ĠE ver
Ġs alping
Ġpal sy
Ġst eps
Ġ7 23
ĠPat ch
P oint
O c
R IM
AY LOR
79 6
Ġb p
it n
Lim ited
ĠInd ependent
46 1
Ġhyd rochlorothiazide
E mp
ĠApp ointments
ĠDys lipidemia
N UCLEAR
79 8
OBLE MS
Sp inal
Ġspec ifically
F P
ĠH offman
ĠInf l
Requ isition
ment in
ĠL osartan
id ian
76 9
ĠX arelto
osp hor
ĠArter ial
Qu ick
oc ardio
Che motherapy
ĠPar ent
ren e
ĠH OW
Ġt ed
ach n
erent iated
Ġm orbid
ĠG ain
T uesday
ĠFL ONASE
ĠD ermat
ĠPRO GRESS
Ġreason ably
ĠNS R
ecl izine
Ġk et
ĠG ums
Ġc ig
Ġshoot ing
Ġr ise
P o
M or
ĠComp lains
ĠSy racuse
R t
pl ay
Ġreview ing
Ġoc ular
enn y
Ġstim ulation
Ġch anging
ĠD IO
dend a
ĠObs ervation
ass essment
ĠNat ural
ĠMet formin
End o
Ġpanc reatitis
ĠF ocal
Partners hip
Ġexp osed
MITT ED
ĠPHOSPH ATASE
ĠG al
46 9
Ġ0 25
76 5
ĠRE CIPIENT
Ġor th
04 2
M ass
av en
ĠÂ «
Ġaw u
Ġdid n
is ch
ĠSing h
at ically
Ġ3 32
Ġident ify
Ġman age
Qu antity
ĠINH AL
h u
ĠN ANCY
ĠH CP
47 6
Ġwalk er
ĠRep l
ĠCHE MO
E V
f ree
EOS IN
ĠPRIN IVIL
ril obular
od ular
L AN
S ingle
ĠC REAT
77 4
Ġ1046 1
ort ion
N ic
76 7
19 95
Head aches
ĠJo y
pro cedure
Ġbeg inning
ĠGu arantor
ĠD own
ĠT ongue
RE C
Ġstret ching
Ambul ation
g one
ĠN ar
B rook
Ġc am
Ġeducation al
B ronch
AK ER
M ixed
ĠCh olecystectomy
Ġambul ation
P ark
Ġke y
Ġtest is
49 7
36 2
ĠTH REE
se a
S cheduling
ĠR LL
ĠB LE
Ġcon stitutional
ing ement
ĠCONT ACT
est ic
BOR AH
Ġlymph oid
Ġthr ills
Techn ologist
Ġ0 24
one y
ĠG em
s ection
AV S
C AT
Ġme ters
ĠN ash
e ot
Op erative
UG H
Un specified
Ġle arning
ing les
ĠEl bow
st ick
0 20
V AST
ĠA CE
am i
ĠP ow
ĠEn vironment
ĠPhil ip
19 98
V a
ol n
I ly
ĠID ENT
Ġre ar
ĠK han
Ġag itation
Ġlig ation
Ġamp l
Ġn ares
COMP LETE
ĠW C
Ġoblig ated
E valuate
Ġc anc
ĠL UL
Pro f
ĠM IR
el lo
19 96
D ermat
ĠC ATH
ĠS AN
Ġcl ip
ĠX ray
ĠCro hn
ĠMD RD
ĠX RAY
OM ATED
6 31
19 97
UR INE
Ġn ormoactive
ĠRestrict ions
21 00
ĠWILLIAM S
F ar
ĠTh romb
Th ursday
ĠM u
Ġr in
ad el
Ġqu ant
ĠB ili
6 26
ĠM IT
Ġdem yel
Ġdirect ions
H ar
Ġantib iotic
ĠCOMMUN ICATION
iaz ep
Ġ4 24
Ġl ac
ab b
Ġapp arently
El izabeth
ĠRE ASON
ĠC raig
osp h
BRO OK
Form s
05 1
Ġlobul ated
ĠprintChartOptions jsp
ĠRep air
Ġ7 84
Ġcompl ained
p y
ESS ELS
yn amic
Ġhyp ot
EG D
cl oud
IT IAL
Ġn ed
av a
Al though
Ġmult i
AZ INE
ĠEll ipta
Out side
Ġpl a
ter ine
ĠD ennis
ĠP owder
ILE GED
Ġf s
ES E
ĠVer bal
AT S
ĠY e
ĠOr chard
GEN ITOURINARY
yst ic
ĠP ower
At rial
Ġprim arily
Ġre v
n el
ul k
Ġp iece
Ġstrong ly
A lex
Ġreported ly
Ġ8 08
Ġan est
ĠLFT s
Ġf iled
ĠPart y
St roke
Ġasymmet ric
ĠBas ophil
ĠTranscription ist
ĠR Y
ĠCorp uscular
Wh ile
ĠS ymbicort
3 26
ĠConn ect
01 01
F ederal
ĠHOR IZON
igest ion
ver ted
iram ate
ĠH WY
Ġ6 22
U nc
ce ph
ĠWEE K
ĠCla ud
ĠCONFIDENTIAL ITY
ĠChe w
Ġf ollicular
88 1
N it
Ġd ictation
Ġ4 41
ĠC c
zhe imer
48 1
rit ional
Admin istration
ull ary
Ġ25 2
C c
Ġ36 5
Ġbe er
Ġpro lapse
io ec
Ġperman ent
st one
Ġ01 11
ĠDen ise
L ips
ach ment
or gia
ĠS ULF
ĠP K
Ġhyd ration
ĠM UR
ĠDi rective
VI OUS
Ġarrhythm ia
Ġ2 33
T ENSION
M ART
IDNE Y
m ar
ĠOx imetry
LD H
F rid
Ġemp hysematous
Ġ5 86
PROVID ER
B io
ĠH U
Ass oci
ĠVACC INE
Ġprocess ing
D Y
Ġqu iet
OS H
Ġ14 00
Ġpl asma
Ġappreci ate
Ġunder gone
ĠR C
Ġpotential ly
ĠSt r
ĠI c
Ġcharacter ized
ĠG REG
am inal
Ġn om
Ġpass ive
pr ed
M ac
raz odone
ĠCar l
Ġdors al
Ġt ension
Ġide ation
BRA IN
as ilar
ĠM OM
Ġg one
Ġf re
ol ac
SC RI
H istories
L arge
Ġt rochanter
ĠD iana
ĠC OUR
h ar
L is
ĠU t
Ġbr isk
ĠInv ol
CC N
Ġcont ext
ech oic
Ġbronch oscopy
em e
ĠK a
Ġconcent rating
PRI OR
irg inia
ico lectomy
ĠT OR
ĠJ ack
Ġ5 70
Ġappend ectomy
Ġpur p
ĠJ ud
Ġâ ľĵ
Ġded icated
ec ause
ĠHarr is
ĠM ess
ĠMo ore
ĠRom berg
39 1
ep uels
ĠImmed iately
ĠSp ondy
ĠRel ief
58 4
Ġhemang ioma
H OR
ton ix
Ġr upt
LY CER
ĠG AP
ĠA u
Ġswal low
EM G
om eprazole
76 8
ĠO a
79 2
Ġcon duction
77 9
RO P
Ġcor es
Ġdys arthria
ANC ED
ĠNeed le
V ery
77 0
39 2
ĠExp and
M i
ĠNOR CO
Ġmolec ular
ĠMART IN
Ġpar ac
ĠM agnetic
ĠAch illes
Immun ization
ve t
va quin
ĠMeg an
ĠM VP
ĠK id
lo stomy
ter y
A o
ĠA ETNA
Ġt ells
Ġvar ious
Ġbe at
f ri
88 3
ĠCOMP ANY
Ġm d
NE ED
re ceived
P G
l le
ĠMed rol
Ġoper ating
ĠPFT s
VENT IL
ĠAng ina
ĠF IDELIS
ul ant
ĠLOU IS
Ġinsert ed
Ġ7 94
Ġc k
ĠEx traocular
Ġincident al
n et
CY ST
ĠCh en
ori asis
ĠNE C
Ġ2 75
ne urysm
ĠIns ight
ĠHyd rocodone
G N
Ġmill iliter
CH ER
ro ly
Ġprep ared
ĠPR ILOSEC
Ġmorph ine
ol pidem
Ġc ardio
06 2
yeth ylene
Multiple ChartOptions
X ray
Anth ony
u ction
CL C
un ting
UN IT
VAST ATIN
ec ia
ĠU C
ĠSK ULL
z y
Ġph aryngeal
Ġlateral ly
ĠPRO T
Up on
Ġmarked ly
or ney
Ġmob ile
Ġm agn
Ġpi eces
ĠEX CISION
y x
Jeff rey
Ġaccur acy
P UL
Ġl en
IPH ERAL
ĠC tr
Ġmont elukast
Ġ rom
Ġle aflet
ĠOx ycodone
P ELV
Ġre leased
ĠGranu locyte
Ġl ax
ĠCo hen
S eat
Ġu i
ole y
76 0
in eph
ĠY ellow
ĠM itral
ĠEnd ocrinology
ĠL op
T ax
Ġs or
Ġ10 53
em y
ĠTrans mittal
eps ia
C XR
ĠT onsillectomy
m ark
ĠDef erred
TAB LET
12 11
Ġto wards
Ġstren uous
Ġst rip
ĠD ox
ĠB AY
Ġnew ly
Stra ight
y en
ig ibility
ord an
ĠMe as
Ġo u
ĠB er
ĠS ome
ĠP N
56 0
Ġqu antity
Ġk t
ac ute
Ġhyperint ensity
Sign ificant
ĠmU min
Ġpre liminary
ĠBRO WN
Ġap ices
E AR
ĠDISCLOS URE
ĠC ou
Ġer ect
Ġup st
79 3
L H
Ġde vices
Ġretr actions
ĠCo oper
ĠT AH
em ed
Ġv oids
Ġr heumatoid
ĠDIS CHARGE
ĠLV H
Ġreport ing
ĠSe asonal
Ġbreast s
Ġrel igious
Ġm q
riz ona
09 3
ab ol
Ġstab bing
ĠIn tra
ĠB erg
W M
Ġli k
ĠF OG
S ER
ĠV III
Ġs usceptibility
ĠZEST RIL
ĠM urphy
Ġw hy
ĠComm ack
Ġclo t
Frid ay
ĠV P
unct ions
Ġ encephal
Ġcy tometry
37 1
Ġant igen
Ġ26 7
S rc
W ITH
O I
b all
ĠT dap
Or iginal
OX Y
ĠEVAL UATION
ĠDL CO
ĠHE PAT
ĠSk ull
Ġac he
99 1
Ġc losure
ĠS ON
olog ies
Ġf ir
Ġf ixed
ĠF ER
ĠNeuro pathy
Ġcol lapse
ach er
Diff use
ĠAr n
ĠE rin
log y
ĠL AN
ĠLe ad
ĠEli quis
F i
ĠCos ign
ĠSIN US
Be havioral
w i
ribut or
int ended
57 2
Sc ore
Ġindic ating
PRED NIS
ĠS econd
Ġplan e
Ġunder going
ĠB ILL
ĠKEN NETH
Ġlum en
Ġlocal ization
RE SA
el is
Smok eless
Ġasp ir
SK Y
ur st
Ġmark er
AT TN
R espirations
Ther efore
ĠN ode
ĠHY STERECTOMY
el ve
ĠAn alysis
olum es
ENDOC RINE
Ġp ad
Ġt u
Ġ26 9
ĠV as
U t
Ġn ursing
ĠTop ical
ĠCode ine
ur inol
id omast
ver t
ACC OUNT
f in
ĠGo al
AD O
Ġover weight
EL F
Ġcap illary
w r
ĠJu an
Ġlymph ocytes
Ġcalcul ate
ĠB ell
ĠEX ERCISE
RA C
Ġh omog
ĠMON TH
Ġpneum ococcal
Ġsecure ly
Ġthromb ocytopenia
A IM
Ġpath ologist
ĠPro c
ĠC ourse
lah oma
Ġ4 86
p ink
78 3
Ġunint entional
er ie
ĠM OB
O ur
H ernia
omet ry
49 0
Ġ27 1
ĠEM PLOY
Ġar d
ĠUn ion
44 44
ĠMOT RIN
ĠLit ers
Ġmach ine
ĠK it
hyl actic
Ġagree able
Ġ viewed
IM PORTANT
Ġsl ice
ĠV ill
ĠH D
P OC
S ide
AB D
AR R
Ġt ion
O ST
ĠS ara
A z
ĠA pt
ĠIss ues
ĠD if
EL ING
qu ence
Ġg ives
ĠG ard
p o
78 4
ĠU rea
Ġp anic
Ġdiscuss ing
ĠM iss
ĠJeff erson
brid ization
ĠG ravity
ĠOccup ational
C uff
A E
Neuro surgery
Ġl u
Ġcom orbid
Interpret ive
Ġcy an
i ence
ĠW es
all as
ĠN R
ĠL ic
g rav
Ġprop hylaxis
i abetes
ĠPred nisone
S OB
Ġwors ens
ĠO c
ĠX I
S a
ĠSu ff
SPECI FIED
00 08
Ġprepar ation
AT ER
ling ton
Ġsh oes
at onin
ĠB ased
J ob
ost atic
Ġrare ly
Ġpaim aaai
ri r
Ġnit roglycerin
il ly
opos ide
LECT OMY
Ġc art
ĠLes ion
Ġ3 66
ĠBr enda
Ġag on
8 29
achn oid
Ġwarm th
ree k
ĠQ HS
06 3
Con dition
Ġcan n
ĠCol lect
LA H
Ġwind ow
Ġ4 79
Ġab duction
ĠMAR C
K ER
ĠM om
ĠEs ophag
m ic
up ron
Ġnec rotic
Ġan tr
al ipl
ĠD er
Ġa ft
N IE
H a
Ġpart ies
77 5
ĠS av
Ġu e
ĠP ass
Ġprogress ed
th rough
Ġc ry
Ġtr ue
ig e
Ġterm inal
Sever al
C ycle
ĠD EM
at ors
Ġm enses
Ġbil at
11 14
Ġte le
ert ion
os ocial
Ġreform ats
ĠS F
ĠP OD
UM E
ĠS UN
ic er
os ing
ĠMild ly
ab olism
RO Y
Ġn umb
Ġcircumf erential
Ġsm ell
MENT AL
ĠUN DER
or ie
d enies
W alk
Ġ2 36
ĠAN TON
ĠPanc reatic
Ġosteophy te
ĠR aritan
he le
Le uk
ĠG allbladder
Ġexpl ain
ĠP ersistent
Ġequ ally
la fax
ĠPh ase
ard s
w er
H ema
ol ence
ĠCA VITY
K et
ĠD OD
ĠATT ACH
d let
Spec ific
ott en
F ace
Ġmin s
Ġher self
ĠL LL
Ġg ran
3 19
ĠG all
ĠGl uc
G reen
l b
ann ah
Ġorient ation
ĠCONT INUED
Common ly
Ġhem icolectomy
8 18
ĠN ml
ĠL n
Ġ04 00
Ġexp ect
ĠS ITE
ĠEn g
T C
SU ITE
59 1
ĠMon ocyte
ub bing
ĠApp etite
ac ia
ĠAmin otrans
ĠMU ST
ĠM AP
13 01
59 4
Ġcar vedilol
J I
ĠV ar
STAT US
ĠFrank lin
ĠTher apeutic
osphor us
RIB ED
is er
ĠSUP PORT
T IM
Us ing
kin esis
SIGN ED
Ġbelong ing
y toma
Ġc up
Ġd ocusate
ĠRob in
ĠN u
ĠL ifestyle
ur er
ĠG ad
ely n
Ġdist ally
Ġreveal ing
the lial
ĠCH OL
ĠR PA
ent on
59 3
Ġcardi opulmonary
Ġf lo
Ġd iclofenac
Ġag ents
Ġcare giver
ĠE YE
Ġacqu isition
ĠA id
STE IN
ime ters
Ġser traline
Sh ort
ĠEn vironmental
ĠEn larged
ect um
ioec onomic
ĠN ear
Ġ2 79
ĠSens ory
ĠMount ain
ag i
Ġg erm
ĠTer esa
Ġo o
CL IN
Ġdi rection
wal ter
Car rier
Not ed
v n
ĠMen u
O E
Me asured
CONS ULT
Ġendomet rium
ĠG i
' m
ĠPRO VENTIL
ĠW it
Ġqu ick
ĠM ILD
ĠV entricular
ter e
ĠS VC
AM I
ĠBas ic
Ġpurp ura
Ġr anges
Ġperc utaneous
CT IVE
ĠC ategory
Ġknow s
Ġcavern ous
ĠL ONG
Inter preted
ĠRuss ell
alipl atin
T B
Ġ4 16
ĠV aginal
er on
07 1
Ġ28 0
hand ed
oci ety
En t
ĠDE P
elch air
6 51
Lou is
th s
ĠRout ed
havi or
ar is
ĠE ffect
iff any
ĠPUFF S
U F
Ġan ter
ĠE ry
ĠFL OR
ĠC RA
ĠSol itary
ĠAng el
Ġmo le
IV ING
ĠEs ophageal
ew art
Ġbur den
f ollow
ABDOM INAL
09 1
ĠP ituitary
ĠG arcia
ĠWay ne
PRO P
ocle idomast
ĠORDER ING
T ricuspid
Ġ2 49
ĠD OU
ĠCh air
08 1
ov ax
Ġ4 47
Ġ6 27
Ġfist ula
Ġwr iting
8 01
ĠM H
ac ept
X A
Ġcar pal
Ġathena health
77 3
Ġbl astic
ĠM iscellaneous
al in
ĠMit chell
ace y
Per ic
Ġtest icle
Ġ6 25
Ġann ular
14 00
ĠSLE EP
ĠCol umbia
12 00
ĠFOL FIR
ĠRen ew
Ġprovid ing
Ġulcer ations
Over view
ĠD UB
ĠIS LAND
B ID
ĠV ic
ANT S
Ġmo ved
Hep atic
On going
Ġspic ulated
Ġw ake
App etite
S V
Ġar tic
Ġ3 06
ody nam
Ġ4 28
F USION
ro ductive
8 03
Ad en
Ġsupple ment
Ġj e
ag a
Ġcl us
6 06
UN T
ro se
M OT
Ġph on
96 2
AB ET
v ol
C reat
Ġin ch
Ġin patient
ĠELECT RONICALLY
ĠCH LOR
ĠInd icated
ĠRo ber
ĠS em
Â ©
Ġnon nal
Ġ19 3
ME AN
ĠC ULTURE
el and
Ġcomplet ing
ĠKe ith
ĠAd denda
Ġturb inates
Ġpalp itation
Ġavid ity
c ulosis
rex ate
ĠD IP
ĠCat aract
ĠPHYSICIAN S
roz ole
ĠRequest ing
Ġro ll
F EN
Ġres onance
ĠPO CT
ĠB OU
Ġt ylenol
Ġmin im
m atous
Ġchemor adiation
cept in
Im age
ĠP s
ĠSt ent
ĠD am
C ounseled
ĠDaniel le
ĠBr ach
ĠI an
emonstr ated
ĠO E
ĠM uscles
Ġwe an
PRAZ olam
Ġw aking
ĠT K
vent ric
I OT
Ġed ucated
PELV IS
ĠV incent
o ver
w estern
Ġsub cl
ohistochem ical
I te
ĠCAR L
Ġp il
OUL DER
ĠK el
ĠLOB E
6 46
AM P
ĠP ure
Ġb ig
h ed
48 3
ĠDiv orced
Ġhy giene
Ġ6 62
Ġrestrict ions
ĠFl onase
an th
althe are
Ġ ati
ern er
er ing
N EL
Ġs ized
Ġtub ular
ĠACT IVE
CARD IOLOGY
ere z
Ġcl im
Ġ99 213
Ġ19 34
ĠMET AST
Ġendomet ri
I v
ĠB aptist
G AR
Ġl act
T X
Ġcomm ands
Ġhe ar
08 5
ĠTR IG
Ġinj uries
ĠL BP
ĠSin uses
Ġ24 3
Ġencounter ID
ĠMER CY
al bumin
Ġ28 5
Mon itor
ĠHemat ologic
lafax ine
4 15
Ġmeasure ment
ol actone
ĠDON NA
C RAN
00 06
Ġe ase
ĠCatheter ization
ĠFr action
ĠKE VIN
58 7
K NOWN
Ġar ising
ĠB ran
ĠU RO
ĠStop ped
ĠM os
W heezing
Ġfatig ued
ĠCons ider
4 25
chi ectomy
end y
Ġsed entary
Ġan c
ĠA ff
Ser um
ĠH ouse
Ġd ome
ĠDisc ussion
ri x
Ġg lobal
M ajor
49 3
light s
Ġbr ace
R h
m or
Ġ8 06
oriz on
Ġ3 35
Ġsc ope
ĠINH ALE
Ġsee k
H EN
4 05
Ġa io
ZA AR
ĠLate x
Ġ111 0
ot rexate
an tha
J J
MICH AEL
om atosis
Ġr aw
ĠIn n
Ġal op
Ġme ans
ĠME Q
mm mm
ĠHE RE
IZ E
ĠE ACH
iat rist
2 24
ip ro
Ġt f
ĠLev othyroxine
ĠOrthopa edic
SC RIPTION
ĠVert igo
ĠL uc
il ated
Ġchronic ity
It ed
ine al
ĠJO INT
ĠB UT
ĠP OW
Ġi u
Ġdispl ays
il ization
ĠRes onance
Ġhem atemesis
ĠSte vens
ILD REN
Ġexerc ising
ĠW i
MAGN ETIC
at riptan
al d
Sub sequ
ĠRos en
of ib
ĠAtt ention
Ġm p
H ZN
Ġtra MADol
ĠELECT ROCARDIOGRAM
ĠMS N
ANE OUS
TH YROID
ĠAm lodipine
ur ated
ĠAF P
ĠPA X
Ġsatisf ied
ĠL ig
ĠB ronx
We akness
uf act
ĠT ramadol
but rin
Ġuns ure
Ple ura
a S
Ġpart s
D oppler
il ation
ĠF iltration
Ġequ ivalent
Ne eds
ic ion
ox ville
ĠMonitor ing
Le v
Ġs erv
os Is
F rench
ĠCY ST
bal ance
ĠRe levant
Ġd Is
Ġ9 19
57 1
ld g
io ids
Pro v
Ġd ural
MED ICATION
ID UAL
57 3
er ol
Ġel derly
R isks
Ġint ense
L N
ing ing
Ġfix ation
Ġimmun otherapy
efi ore
atI ve
Ġ7 90
M AY
ĠM es
et on
Ġv est
ĠSc iatic
Ġperic ardium
Ġscan ner
Ġocc urring
L ex
sp ect
Ġl and
Ġulcer ation
T op
rob ilin
ort on
Ġneut ropenia
ab led
ĠFlu id
Ġw ide
ian o
Ġhemat ologic
ĠUnc le
I de
ĠLake ville
P ot
Ġh ol
ĠH F
ĠVENT RIC
R F
Ġi ver
Rom berg
89 5
Ġbec ame
Ġorgan ism
Ġal levi
ĠG onzalez
F VC
tal gic
Ġposit ives
ĠK RIST
ĠD P
Ġmamm ary
Ġdis co
Ġ8 02
b b
ĠP ad
AC HE
ĠEnter prise
Ġ26 1
ed y
Ġp ale
8 16
ide o
Mon o
Ġorthop edic
Ġdi rective
ĠTub e
OM RN
ĠPulm onology
Ġabut ting
Ġth a
s ci
Ġsuggest s
ĠAb bre
ĠDE BORAH
iiii i
Ġfor earm
HEST ER
ĠF our
ist a
ĠH cl
CO PH
Ġes c
L ocal
ast asis
ĠImp aired
ĠO tt
Ġb rown
48 2
ant e
8 55
f rom
Ġanat omy
Ġj u
Ġt O
ind y
Ġsumm er
ĠG a
Ġsc ap
T ouch
r m
Ġd m
Ġg ener
ĠPlatelet s
ĠVisit ation
art z
ess a
N umbness
IT IES
M er
ĠT ask
el vic
os igmoid
ĠI AC
Ġsever ely
A k
Ġleg al
IS M
IT U
Ġg a
ĠOx ford
ĠGRA DE
Ġel se
ph ia
COL ON
om estic
L ine
Ġf u
Ġgall stones
ĠM MC
ang i
ĠB ow
ib i
Ġu o
ĠB usiness
Ġex ceed
ol ine
Ġthe cal
ĠV T
Ġser ial
ĠAp nea
Ġsurg ically
ĠNEURO LOG
Ġa usc
R i
C losed
P s
R os
Ġdis location
ALL BLADDER
7 01
ĠUR INALYSIS
ĠDys uria
P oor
IV AN
ĠNOD ULE
i ance
A lan
Ġf ung
Ġpost contrast
ĠEp is
48 5
ĠPh rees
err a
Ġ7 98
ĠJ ESS
Ġdown going
ĠR AP
nd ansetron
emp loyed
ĠN CS
00 07
Ġlim iting
ĠSever al
CS N
ĠD awn
ĠMe ad
l r
ĠAR TH
ĠM ammo
M N
ĠQ RS
Sat isfied
Cl ient
J C
ĠF rench
v s
ĠM ak
ĠP alm
ĠCon ditions
ĠR heumatoid
ĠSt ool
ĠPle asant
ĠC RE
Ġaltern ative
ati en
ĠN eph
ĠFIR ST
86 8
Ġbeh ind
B IN
AD E
ĠDIS C
Ġoment um
ĠJON ATHAN
Ġcal ories
D onald
Ġco ated
ĠAN TI
A ncillary
Ġ3 74
Ġf ecal
ĠEl s
Ġint l
ĠRECORD S
ĠINST IT
Ġcomfort ably
Ġ3 23
Ġhard ware
ĠDist al
Ġo op
Ġ111 4
NEUROLOG Y
16 00
ĠSt ar
ĠMon mouth
B luffton
Radi ologist
di agnostic
iy ed
Ġ7 44
Ġp ick
ĠX eloda
EN ZA
m id
Plant ar
ven ox
Ġun d
ĠCav ity
l am
X IDE
ENT IN
alg reens
cent ration
im i
Ġpap er
ĠPRO TON
ĠF em
Ġ3 56
ĠRepl acement
Ġ13 210
Ġu vula
tic oag
Ġsepar ately
CT AL
Ġh urt
ep ue
ĠNET WORK
Ġ_ __
ĠSt one
IST RY
OCAR CINOMA
Ġb le
ĠL AST
P AP
ĠF IB
L UMBAR
I i
ĠAC UTE
ĠS ANDRA
ĠD ensity
Ġread y
G reg
ĠBRON CH
Ġk er
Ġdiffer ently
ĠHER NIA
iment ation
Ġcl icks
ĠG ARY
ĠH UM
D C
9 20
n m
VITAL S
iron olactone
ĠA K
Ġremo ve
7 50
ĠT rauma
Ġderm atitis
Scler a
robilin ogen
ester one
avi an
ĠN U
Pre liminary
ans as
Ġind uration
ĠPRIV ILEGED
ĠPat tern
ĠS OM
S end
al low
Ġ4 93
O d
ĠT Ms
ĠCOMP ARISON
ĠR ule
IN TE
2 30
ĠT ender
Un fortunately
P ayer
ĠOr ganization
3 16
ĠN t
ud son
C yt
Contin ues
2 16
et al
ĠDe an
Ġs id
Ġcl one
Ġobli que
Edit or
p at
Ins omnia
T itle
ĠPro cess
D OC
47 1
et ta
Ġw aves
ĠV ol
Ġh om
Pneum onia
Ġb us
K O
ot ion
Col d
ĠIs chem
IN N
Ġ8 43
Mat thew
ĠSPE CI
ĠBroad way
96 8
EST YLE
ĠS CORE
Ġre act
38 1
Dist al
ok ed
E RED
in der
F inancial
Sc ott
ot rop
Ġper itoneum
ELECT RONICALLY
M IC
46 7
ĠRe q
infl ammatory
76 4
Ġact ing
ĠBRA F
E CHO
Ġt ent
ĠSub jective
ORT A
Ġpar ameters
ĠE LL
ĠST OP
Av oid
E ffective
a fter
Ġham str
Ġtons illar
ĠG ASTRO
ĠRU Q
Pos ition
Ġper ia
86 4
V omiting
ĠD IC
et na
Ġperiv entricular
Ġl upus
f aces
Ġdel t
ĠJ ONES
p es
ĠH SM
ĠMS I
Ġ3 26
Document s
C reated
Ġwe igh
Ġt un
Ġgen es
Pe ter
Ġlymph atic
ĠPR OBLEMS
ain d
Ġf ellow
ĠT TE
ĠJE AN
it ious
ĠTHRO AT
ĠC and
Ġ7 57
Ġ2 88
Ġbar riers
ĠDE V
Ġdes cribe
as o
ĠADMIN ISTRATION
Met abolic
ĠT EN
ĠDef ault
9 22
c ision
Sp O
Ġ4 31
Ġ500 00
ĠF am
F RA
IV A
Ġdi e
Brook lyn
rit ic
ĠA ID
ĠN elson
lop urinol
ĠMED S
Ġpath ologically
Ġdispl ayed
erc ises
ĠPro l
IG O
h il
ĠVer ification
ĠTh ank
86 5
S MOKING
Ġcon genital
Birth date
ĠL et
ĠLL P
Soc ioeconomic
ĠDi abetic
Ġ2 32
Ġlook ing
Ġthorac olumbar
Ġbab y
U CK
ver ages
Ġviol ence
Ġm V
Ġclo ts
ati f
ub e
ĠMon o
ICH OL
GL AS
Ġintern et
Ar m
ĠLas ix
Ġf alse
Os seous
eps is
Ġperf used
77 2
olo ft
COL LE
iz an
ĠMin utes
Ġess ed
ĠP ST
EL INE
S aint
Ġo g
rom al
rol ithiasis
ĠINCL UD
or in
ĠC ole
ros at
William s
ĠET OH
ĠAN AL
YN TH
ĠPort land
V II
ĠM orris
N W
ĠN ec
ĠMed ium
OLOG ICAL
Ġdim ens
ent a
99 4
ĠH ere
ic ide
ĠEvent s
Ġdefin it
Ġcon st
Ġmo ves
or ne
COPH AGE
Bo ard
Ġpercent ile
on ad
ĠM ultiplanar
eral s
ĠMe asure
ĠLy rica
R H
ABET ES
ĠCARD IOVASCULAR
ĠMor gan
ĠL OSS
5 12
l ands
F oot
ĠHemat ocrit
ĠG re
y ond
OP ATHY
Ġemb olus
Ġpromp t
Ġw earing
ati On
BER LY
ĠM igraines
ĠAU TH
Sc ans
ĠG H
R endering
Pneum ococcal
ĠGl ands
orph ic
Ġ0 28
Mild ly
ĠA y
UL ES
ĠW right
Ġin strument
ocleidomast oid
Ġe h
ĠSh annon
ĠHEMAT OLOGY
ĠSil ver
ĠVAS CULAR
Ġun likely
ĠH EL
Ġcyt ology
adel phia
03 2
ĠM ail
Ing redient
58 1
ĠT ONS
Ġd ex
Perc ussion
Ġin e
th is
ĠST D
Ġcran ioc
ĠCOMP LET
Ġ4 19
on o
Ġorgan ization
Ġinhib itor
l al
ĠCATHETER IZATION
ĠPart ner
ĠCh eryl
ĠW W
ĠH amilton
B u
4 20
ĠVAL VE
ĠM CI
ĠH OME
Rest ing
ĠP ak
Ġa utomatic
ĠStat en
ĠTEM P
R ATE
ET ER
ure ter
ĠP oints
Ġenc our
oid al
ĠO IL
l ip
Ġb ic
ĠO VER
ĠCla im
is y
Ġr ules
Ġq Day
ĠK AR
ĠAppend ectomy
ĠACC OUNT
On ly
i u
Ġh g
ĠT om
9 19
Ġhand ed
D ON
O w
ĠD CIS
id one
ĠIg M
Ġb olus
P rom
olic ies
ĠUN SPECIFIED
ĠDa ugh
el oud
Ġin ner
ĠP in
Ġof t
Ġrespons es
ĠRe assessment
ĠS ENDER
ĠL W
S ervices
R am
Ġr f
ism atch
Ch ild
ĠFRANC IS
Pre p
47 2
ĠLo ok
ĠMILL ER
C ount
ay a
ZOD one
ĠAmend ments
Ġ3 80
8 44
ĠS IL
Ġst ory
ĠF lo
Ġinterc ostal
th al
CYST ECTOMY
et ime
T a
iog raphic
ĠW orks
Ġs ustained
ĠIM AGE
ĠS ab
ĠCL L
ul us
Ġrequire ments
B OWEL
49 1
8 12
46 3
Ġ19 00
ĠR ic
Al t
ĠALB UMIN
F ocal
ĠPol y
ĠDEL T
ST RU
Ġle ave
Ġ3 45
Ġtrans dermal
d ensity
And rew
Ġstop ping
IC O
Ġ19 99
ĠK A
T ympanic
Ġem erg
ĠS ED
ĠFCC P
ĠI RON
il ing
ventric ular
Ġprot ection
n in
Ġsalping o
ĠWalk er
ran olol
Ġsug ars
H IST
Ġsublux ation
ĠB D
Ġgranulom atous
Ġw th
opro tein
ĠA aron
Un intended
ĠA W
ĠPAT EL
Ġp opliteal
ĠVitamin s
OT ID
P acks
Bas eline
ĠInject ions
ĠDOP PLER
w ar
an ish
IC AGO
Re active
Ġi iii
ident al
Ġde hyd
S un
Ġk il
ĠBL ADDER
ĠM olecular
ĠPl us
ĠTE LEPHONE
Ġmeasure ments
ĠPM D
Ġun steady
et r
ĠFAC ILITY
ĠG yn
Ġdors iflexion
Ġst rate
IAGN OSES
J AN
07 3
ĠEst imate
ĠP ax
ĠCar boplatin
ELIS SA
y i
ĠReg ion
Temp Src
TREM ITY
Ġg laucoma
ĠL idocaine
N OR
ĠAh med
ĠSmok e
Ġ3 75
Ġinter pret
ogram s
ĠT ingling
Ġaph asia
ul ator
Ġcontact ed
ĠCHLOR IDE
ĠP av
ĠME TH
Ġl ady
ĠOr tho
Ġon to
ĠNOT IFY
h ad
ĠREP LY
ĠY u
d in
res hold
Div ision
S urg
5 18
ĠCo ord
ob b
r ens
ĠS ou
ĠG laucoma
od ic
ĠK g
ĠGLU COPHAGE
N UMBER
Ġ4 43
enc ing
Dist ribution
ĠD ementia
ir it
Ġsleep iness
ĠDiet ary
e o
b orn
OUR CE
B H
Or t
ĠNod ule
ĠS ecurity
UP PER
reg ard
Ġth us
ĠPark inson
89 3
Ġsut ures
Ġ4 54
Ġexc urs
ĠP ep
Ġenz ymes
Ġ5 62
ĠV ick
6 09
Ġmy algia
Ġup set
ĠW ASH
Ġprocess ed
udes onide
ĠSymmet ric
R ochester
ve x
ck now
Ġpath ological
D ays
ĠBrad ley
ens on
Ġocc asion
76 3
Ġlif t
Ġglyc ol
Ġtreat ing
FLU ENZA
Ġw in
el in
Ġim m
My Fax
ĠW ORK
W ould
err er
Ġex change
ĠD uplex
H i
Ġm ultiplanar
PT A
ĠPart ial
act ure
v c
ĠD RA
Ġimp ingement
Recommend ation
tern oon
ĠT s
Ġa k
ĠK S
un ts
ĠF UR
ul asta
v est
M RA
ĠH l
all ic
ont al
Ġwish es
Ġcont iguous
ĠB ET
ĠT c
ĠLes lie
Ġs ternal
Mob ile
Ġ6 78
d ing
f it
p lease
Ġco lectomy
ĠTh ese
ĠPro ximal
S s
Ġfract ions
G lobal
Ġro su
Ġa ug
Ġse ated
OPH AG
f ile
f ac
ĠCan al
le l
ĠInter mittent
ise quence
c ar
Ġc odes
Ġr it
Ġcon duct
W rist
ĠH G
Ġ111 7
ĠWalk ing
Ġpri vate
ĠT OBACCO
ĠE i
ĠOb stetric
equ ate
ĠN H
Ġsupport ive
emonstr ation
Inc rease
ARE T
IR ON
ĠE PI
ĠCONT AIN
qu ez
S OUTH
ĠDELT ASONE
TER S
Ġflex or
SH IP
L it
Ġg otten
ĠFAC E
Ġcomp rehension
ĠH op
Ġ7 75
ĠG AD
ĠJ ane
Ġ29 0
ol aryng
ĠD al
ĠShe l
ĠBal ance
ĠL ANE
Ġm ys
Ġconsum ption
IT ER
Ġswit ched
14 60
A ea
TEN ANCE
ĠT rouble
p n
ĠE SS
B ecause
ĠDE PT
cent imeter
aint ing
Pass ive
79 1
99 0
Re action
ru z
it ect
ĠHol ter
Lab Corp
ĠM AGN
ORM ONE
Ġ4 18
Ġv a
Ġd ad
ĠDis k
und efined
ĠS ociety
es y
Z IDE
ĠA ld
Ġad vance
ĠA o
Ġint estine
ĠD ana
Ġpron oun
Ġgram s
gu yen
qu iry
ĠM AMM
ĠJ e
Ġc ul
ĠG abri
ĠC as
Ġinter mediate
ec itabine
u er
ĠPre p
Ġph osphatase
Ġn ee
ĠWOJ j
K im
ag an
Ġs ess
Mod ified
Ġ19 90
Ġt ill
ok er
Ġw et
ef ul
Ġsp read
ĠRES P
Ġ29 8
Ġan a
ĠJam ie
Cons ultation
ur ch
Ġ2 66
Ġm ind
ĠLymphatic s
om b
am ing
z t
ĠFACS IMILE
ĠIr rit
ĠTOD AY
ĠRehab ilitation
Cons ent
99 5
Ġpolyp hagia
ĠProp ionate
ar esis
eb rile
ib asilar
ĠW S
ĠFound ation
ĠR itux
76 1
Christ opher
ĠR ow
Ġretr action
Ġd oppler
ĠR ib
ig a
ĠAN G
L ight
vi al
Ġveget ables
86 0
B rian
Ġf errous
Ġ1866 8898061
Ġ4 65
ations h
Ġ8 30
M ad
AN ION
Ġgrad ual
ĠV D
Ġab ed
ĠLYN N
as ic
Ġl ap
FE F
Ġopac ification
ĠW ang
ĠRON ALD
Ġrec ip
ĠAl zheimer
59 2
ĠColor ectal
i j
ĠE CHOCARDIOGRAM
Ġw l
ĠM OUNT
9 14
Ġl acer
FFE CTED
ug ene
ĠME AS
acter ial
kn ow
Th ree
ĠE HR
Ġwh ose
it ors
ĠN ATIONAL
ĠQuest ionnaires
ON A
ĠAd vis
" ;
ĠSumm aries
Ġ24 2
ĠRES ECTION
Ġperform ing
Ġchild hood
l ion
Ġmed ium
Bas o
ĠD ates
ĠP PI
ĠT imes
ĠL umbago
ĠNe u
ĠAc cept
Char les
ĠN av
TH ANK
NS ELING
M ING
ash a
ĠSt omach
Ġfor ce
com ing
Ġan terol
Ġd ialysis
respond ence
Ġ6 24
W IS
il ia
ĠL Z
Document ation
96 7
C y
Ġi re
ext ended
Ġcirc ulation
Ġst atic
ous in
OU CH
MICRO SCOPIC
Ġd B
ĠDoc Type
W T
ĠL ori
Ġtax ol
ĠPR OBLEM
SC RIBED
T ylenol
ĠG et
ELL OW
orris ome
ĠSystolic BP
Ġhapp y
E i
ĠM ode
Ġc ritical
Ġarter ios
3 50
ĠM orphine
FF IC
ĠG ray
Ġsup ra
Ġnear ly
ec an
Ġg out
Ġcal var
Ġemb oli
88 2
Ġbif urc
Ġduct s
riet ary
Ġ2 73
t in
E AST
Ġdu odenal
ĠE AR
ĠMo ist
ĠM MR
Ch anging
Ġc ab
Ġb aclofen
Ġ111 6
ĠROB IN
rist own
Ġver ification
ĠSub lingual
Ġ8 11
ĠH EN
Re actions
Ġbuttoc ks
Ar th
Ġadv ise
ĠTechn ologist
ĠW he
ĠF ULL
ĠBuck walter
t ail
ĠL ak
47 3
Ġdors alis
Ġdis regard
EST HES
Ġhem ip
M aker
ĠS Q
Ġdep ending
ri k
Ġres ume
a P
ĠC reek
H OME
Cont ext
ep tal
GE ST
ĠIM M
Ġp ravastatin
ĠATTACH ED
Ġsubs egmental
ĠR ich
IF IC
Ġpleur itic
ĠC B
cont aining
Ġappro ve
Ġadhes ions
ĠSupp ly
Ġi h
ĠR ap
TR IG
ĠDIO XIDE
ĠSt rip
ĠRES PON
ĠENC OUNTER
Ġeyel ids
Ġcancer s
N ES
ĠDe v
Ġsur vi
Ke ep
ĠBIL IRUBIN
Ġprogress ively
ĠSp ect
ĠEX TRA
ann ot
ĠKath ryn
Ġs ella
Ġi k
ĠPenic illin
Ġcorp us
Ġg aze
DA VID
Ġco lostomy
ĠH IST
Steph en
ĠF el
A FR
Ġc d
ĠFollow up
Ġp olicy
ĠCh ant
Ġquestion able
Ġ3 90
AL COHOL
Ġu rology
ĠEp ilepsy
84 36
U U
86 7
rosat ellite
Ġb lind
ĠN F
ĠPROTON IX
ĠQue ens
ol k
ĠEND OSCOPY
ĠM UC
ĠW omen
ĠNot MyFax
Ġsp oke
in ity
ĠFact or
i w
ĠE a
ALK ALINE
ĠINSTIT UTE
D ors
Ġ4 000
theros clerosis
inject ed
V olume
Ġden ial
Ġr id
or olac
ĠC ant
Ġo un
Ġe tt
Ġdisc ontinue
Ġcheck ing
ĠPl ains
Assess ed
for aminal
Ġfour th
Ġow s
Ġst aying
ĠC ass
IN ES
Ġimmun e
ĠSM ALL
Ġpers ists
38 2
ĠJ ill
Ġextrem ely
ĠX anax
Y R
. .
Ġpar esthesia
ĠCT R
rom atosis
ip ated
Ġgranulom as
ĠPELV IC
ĠPROCEDURE S
Ġpro chlorperazine
C irc
r ar
OL L
Ver ification
ĠL ids
ĠC LEAR
ĠDE C
Ġ9 15
claim er
road en
ĠIn st
ĠCh ol
Ġcrep itus
Ġan aly
Ġ3 58
S ENS
Ġdecomp ression
R UN
ĠB aker
B ill
ĠL IS
ĠRay mond
ĠF ASTING
W AR
l ished
De ceased
ĠN AT
ENT ION
ww w
ĠSciatic a
J OSE
ER IL
Ġwarr anted
P IN
um es
ĠADD ITIONAL
ĠJ ASON
Ġop ening
Ġlor atadine
Ġ4 78
Ġfasc ia
M ultiplanar
oce le
ĠIn struction
Ġprocess es
Ġprop rietary
Ġt b
y ing
enic illin
ĠImmun izations
Ġecw cloud
al emia
g esterone
C er
Ġr al
f lu
Ġh orm
ĠF und
Ġech ogenic
J on
Ġa ce
Ġw orrisome
Ġ19 98
Ġf x
Ġ5 50
Ġmys elf
Ġstern um
ĠO PER
P ersistent
Wh o
ĠBar rett
COND ARY
Ġadnex a
ĠM SH
ĠLEV L
C ent
ĠGU ID
3 29
H odgkin
Ġ8 09
Ġfall en
m d
Ġman eu
L oss
ĠH al
Ġsuperv ision
Ġop iate
N OM
Ġf ish
Ġtrig gers
Ġh ung
ĠGREG ORY
ĠM ig
Su pple
ST A
Ġprop ria
Implant ed
ocardio graphy
ĠHE P
Ġview able
OMET RY
8 45
U H
ĠDiastolic BP
Ġresol ve
Ġhypod ensity
ĠO AK
z z
ĠB lo
rac er
neuro pathy
C OU
ĠD AR
ĠAn a
ĠOver weight
Ġpurs ue
Ġrep et
ĠHemat uria
RO X
ĠOr t
Ġde bul
ĠMD s
ĠG el
ĠInt egumentary
ĠZ Z
4 31
ĠTOP ROL
Ġh at
PT IST
S ES
ĠInf ar
Ġ ation
i ke
Ġexamin ations
Ġ3 59
IGUE Z
F C
L AST
ĠH ouston
Bel levue
ĠTIM OTHY
ĠJ A
Reg arding
H ysterectomy
Ġhyp ox
Ġ5 54
Ġf ig
YNTH IA
ĠGu ardian
Ġf inished
Ġb oy
ĠO g
ĠPercent ile
ĠD UL
ĠV oice
up ta
14 11
ĠS clerosis
2 19
ĠAb ove
or ineural
F requent
Ġms ec
ge va
ĠDUR ATION
amb da
ĠSuperv isor
ĠC ort
ĠS aline
Ġ19 33
Ġconf lu
3 000
Ġrosu vastatin
B rown
Ġtibial is
MON T
Ġcop ied
Ġc eph
7 03
V d
tt y
Ġdec lines
Ġ3 31
ĠAUT OMATED
Ġinter ventions
ĠHYDRO codone
raz olam
B RON
Ġdin ner
ĠS ID
Ġ6 66
T UMOR
6 32
Ġ âĸł
ĠPhrees ia
z anne
ĠD ental
Ġ0 27
AD V
ĠImmun ization
Ġonc ologist
Ġ9 10
Lab Pak
let ely
ĠJac queline
ĠM ol
ĠS ynthroid
ĠQ ID
ĠP CV
izan idine
ĠImp ort
ĠSpec ify
Ġpres umed
ĠReg arding
o L
ĠL en
ag g
Res ident
Ġam itriptyline
Ġsp hen
ĠF le
Ġp astern
m y
ĠJ ustin
Ġkeep ing
ĠR OW
Seiz ure
ile en
Ġherni ated
Ġequ ipment
ĠAminotrans ferase
m r
istor ian
Vert ebral
CRAN IAL
ĠTH IGH
Ġwant ed
ĠT RE
En ter
ĠHyp erl
As h
ĠN OSE
ĠW or
Ġconsult ed
Ġ5 61
ĠBEN IGN
3 54
Ġcomb ined
ĠG AB
S ET
ĠSL R
el ia
ĠZ U
in ic
ĠFALL S
he x
ĠE dition
Ġp embrolizumab
ĠAd mitting
omin ance
onn ie
ĠC ounseled
RO OM
Ġh ar
ĠGr adient
ost ic
Ġran itidine
duc er
ĠH ALL
ĠHep at
ĠB art
Ġpy lori
Ġar y
Ġi x
ĠO CT
ĠAt ypical
P enn
Pro vid
n or
Ġt amsulosin
ĠK IDNEY
Ġb ro
ĠREMO VAL
ĠBE FORE
Ġcereb ellum
e GFR
ĠC ymbalta
Ġad dendum
ĠDes ired
7 88
ĠMic roscopic
Ġt ort
at rial
Cla im
DES CRIPTION
Ġof a
AB L
9 33
ĠD UE
ĠAd vised
Ġw akes
Ġuro thelial
ĠT ina
ĠCY T
Ġ5 28
ĠG ast
Ġsub stances
th r
Ġi N
Ġauto immune
ice al
Ġfl utter
T ools
ĠER IC
W ILLIAM
ĠNeb ul
it ant
ĠN AM
Ġp or
ot r
13 11
OC OL
ST OLIC
ĠES I
it ional
vent itious
ĠT ibial
Ġor chiectomy
Immun ologic
Vent olin
Ġ3 40
ĠM ISC
Ġs en
B ru
ĠStim ulating
ĠV irginia
Ġerect ile
E astern
ĠT an
Ġconv uls
led ged
Ġfl ap
HEMAT OLOGY
Ġa ro
Ġinsert ion
ust roph
ĠS afety
ĠA UG
ag l
ĠC UR
ĠAD C
9 73
ĠDes c
Ġv ol
ĠPar oxysmal
ROB ERT
Ġlast s
Up dated
ĠGe orgia
ĠD IA
P m
ĠB PH
ĠAPP END
ĠT erry
ĠDirect ives
r ax
ĠH Cl
L IC
ĠRo y
NE UM
ĠWh it
ĠVe ins
ĠU m
atin ib
ĠOrthop edics
ĠP c
ĠSE C
78 2
Ġquad riceps
ĠT iffany
os i
ul ate
Ġprint MultipleChartOptions
ĠOR DE
T ab
Ġ19 57
PM G
98 7
Ġ101 1
Ġinter change
BB B
ĠJ ew
Ar ter
Ġaf ternoon
ĠFib romyalgia
sp icu
Ġhyd rocortisone
ĠIn iti
ĠZ IP
in oma
ĠDIS CONTINUED
Ġle iomy
ĠT ransplant
IL LECTOMY
ĠSp ray
nc opal
ĠB actrim
Ġattempt ed
Pat Ient
ĠTr acy
Ġpr actic
op ia
rolog ist
ĠWe ill
ĠBR U
ord on
Ġr g
Re q
het amine
B ab
Ġ0 26
ĠMar i
Ġmod ifications
Met oprolol
ĠRen ee
ef r
ĠHeight s
Ġevery day
ĠDIST RIB
Ġn ivolumab
Gastro enterology
SPEC IAL
ĠAT TN
00 000
Ġretroper itoneum
101 0
Ġe VI
Ġ7 40
ick en
Ġpulm on
ur ora
Ġg ained
at he
TH A
ĠJan et
Ġpneum onitis
Ġt ee
Ġradi ate
HEM ISTRY
E VERY
ĠB ipolar
sw ers
D aughter
urn s
Rep roductive
ĠCarol yn
ĠApp licable
Not ification
ons ils
ĠO d
AC RAL
98 1
M OD
o emb
6 15
C anc
Ġ4 55
Ġben z
al buterol
Ġ5 75
b rook
ĠG rowth
Ex tra
rr or
Ġsal ivary
Ġcoord inating
77 1
Ġl aminectomy
Ġed ge
ĠAlk aline
System ic
rod uced
F ish
ĠCHOLE CYSTECTOMY
ĠLA URA
6 25
t ained
ĠM aking
ĠS cribe
ĠN atal
i On
Ġt d
ĠS egment
Ġclim bing
ĠInf used
Ġauthor ize
ĠC aps
ph en
ENT S
OR A
Ġmuc inous
Ġ19 55
Ġd ext
Ġfluor oscopic
eot actic
5 22
um f
ĠREN AL
Ġ07 6
ĠAdv air
Ġtr acer
Ġgem citabine
r ite
al ks
W all
Ġ3 49
7 10
ĠDist ribution
ĠNor thern
Ġp ool
ĠT re
os upp
Ġfe eding
RE CE
ĠINHAL ATION
ĠU K
ĠVal id
Ġneural gia
ĠT own
ĠInt egr
Ġenhanc ed
ĠADL s
712 50
Comp lications
TN M
b est
HEMAT OCRIT
od al
Ref errals
ĠT AX
unter don
Ġear ache
ĠAV S
ĠCo ok
ne as
G et
P AN
ĠCH ER
av ed
CHOLE STEROL
Ġ3 88
ĠNITRO GEN
Ġcomp rom
Ġus age
ĠSt ore
ĠInf use
Ġexcept ion
G TH
ĠMart inez
ĠSY MPTOMS
Ġm IU
ĠInclud es
19 00
89 2
ĠF AR
Ġres istance
RE QUEST
Ġme ant
98 4
Ġexcurs ion
ar ter
thop rim
cl usions
Ġsub stant
ĠV AN
Ġw aiting
ENC OUNTER
PROP ion
Ġsubcl avian
58 2
P ac
ĠK umar
end on
ale y
Ġin stead
Ġun defined
Sy racuse
ens itivity
Ġwind ows
Ġc ant
re active
Ġw atch
Ġint estinal
ĠT em
Ġ8 20
ĠA neurysm
ĠACC ESSION
Ġlob ular
a ft
Ġfunction ing
Beg in
ati le
F O
Sup erv
ib rill
Ġend obronchial
Provider s
ench ymal
5 10
ox y
ad one
B ERT
Ġwar farin
ĠEll en
ĠK in
Ġc le
Ġass oci
7 00
ul i
Ġs earch
Ġreass ess
Ġcarcin oid
sc ore
L s
Ġi y
ĠC IA
li i
Ġun involved
Ġobs c
ĠANTIB ODY
Ġs ept
int s
ĠConf irm
ĠTop amax
NE G
rom uscular
Ġbel ieves
iral ax
Ġh pf
i let
ĠM and
Ġtherap ist
U terus
Ġsec ret
ĠJoint s
Ġsw ings
POINT MENT
Ġgo ver
Ġun t
Ġwor ry
n egative
ult y
ip rof
ĠC ran
8 11
ĠEOS IN
RE Z
SY N
Ġunderst ood
Ġstret ch
Cereb ellar
ant i
ĠAn al
diff erentiated
illed ema
ĠL arry
6 22
ow itz
Ver bal
ĠM CD
Ġneuro surgery
ph is
App ears
Ġdig it
Ġt ib
Ġ9 25
ĠG erald
Ġid iopathic
ĠD ER
96 5
Ġsar coidosis
ĠMay o
l D
ra wal
f ic
Ġ6 85
Ġanterol isthesis
ox azole
ĠF ried
Ġbrach ioradialis
ĠNS CLC
s l
Ġnc ounter
dlet own
ĠPATR ICK
Ġcont ributing
ĠmL s
Ġ1046 7
ĠB on
Ġ7 14
grav ating
ĠAPP LY
ĠCL ASS
Ġ ions
uc son
ĠNE OPL
aw a
ĠCHANGE S
ĠEx amin
D ATA
LEV ARD
ĠM IS
ENTER OLOGY
Ġex act
ĠF at
IM MUN
Ġtr ache
Ġ9 54
v nar
y rt
ĠL act
ĠFl ush
Ġs ati
OPH EN
Ġtrans l
ĠMAIN TENANCE
Ġunc le
ĠH H
TY PE
Ġprol actin
t est
ĠREFER RING
Ġvaric ose
Ġdysp epsia
rom ide
Ġop ioids
ĠG OLD
c ode
h ot
av ist
sp ective
ĠPrevious ly
D ictating
h ill
Ġst ream
em al
th i
ĠAb b
ĠG ene
HY PER
ĠEn t
ĠAntib iotics
Ġ9 39
Ġper haps
Ġaccept able
ĠV aric
ĠI tt
Ġ26 5
Mid dle
ĠFLEX ERIL
Ġnat ural
RA YS
ĠCre ation
T reat
Ġb ot
tic aria
Ġh I
ine oplastic
Ġa moxicillin
Ġm ai
irm ingham
ĠCBC P
ĠMid dle
ĠEX TREMITY
Ġred uc
Ġconc entric
im at
x in
Ġ9 70
ationsh ips
er ick
R ITE
Ġww we
orp or
P g
Ġc utaneous
Ġgl uc
Ġret rie
oust ic
Ġoccup ational
ĠPath ologic
Re ceipt
Ġevi CLore
ĠR u
Ġpre fer
ĠHyd e
Man agement
Ġpr one
ĠBe low
SUB JECT
Ġdisc lose
op en
ĠAd vance
Ġ25 9
V AN
co x
ĠDA VIS
IL URE
at z
Ġfl are
ĠS CT
Ġ9 13
ĠArth ur
Ġdispl acement
ĠAD VIL
ĠT D
ĠW el
ĠORDE RED
Ġsk ills
rect al
ĠD YE
Sm art
ent e
Ġext end
ĠH r
d own
othy roid
E qu
Ġmay be
S iblings
ĠREC ENT
ĠH ORMONE
Techn ical
ĠInd ic
Ġows iness
r isk
Ġro le
ĠAn not
let te
Ġ29 1
B SK
Ch ills
Ġcent rilobular
ĠFSC AI
w an
58 3
69 1
Ġn um
M OUNT
ĠM d
ĠOut come
cr I
Ġf unctions
Ġsp inous
W ood
oc ative
Ġsul ci
P SH
Ġdec line
ĠC REST
Ġf ro
Ġinvol ves
Mon mouth
L ittle
ĠPal ate
ĠL ips
ne ed
O g
ĠS CC
Psych ological
A UT
app ing
ĠSe an
ann y
Ġl aying
Ġhomog eneous
IV IDUAL
GRO UP
Ġsusp icion
96 3
roaden oma
Ġ4 70
ĠNY U
ĠU I
ANT AGE
Ġ7 99
ro gram
Ġc ourt
Ġe ats
Int act
Ġb ipolar
Ġ05 00
pl aced
ĠF RI
S ac
u art
ĠScler ae
Ġrot ator
Ġaud ible
o vertebral
ĠTI BC
tic a
Ġpre operative
R IAL
Ġfri ends
Quest ionnaire
ĠT LC
C re
Ġam en
Ġj er
Ġal t
ĠAR M
Ġoriginal ly
Ġc lopidogrel
epue is
ĠK ELLY
Ġ9 37
Ġsl ide
Ġviol ation
FAC ILITY
ĠA FFECTED
F ri
ĠH OU
o ophorectomy
Ġ19 95
Ġ11111 11
ĠW arning
Ġ111 9
NY U
ĠADEN OCARCINOMA
ĠC UM
end ra
Ġ19 59
ĠCon tr
es ia
ĠA rizona
PH Y
ĠVIN CENT
Ġcl av
Ġ4 45
ĠC ES
ĠF urther
Ġgu ide
Ġm ig
Ġbe yond
ant ac
ens ack
ĠK RAS
Ġb ag
ot racer
Ġinter fer
Sh ould
A PT
n u
ĠNO V
Ġdig its
kelet on
FFE INE
IN ESS
roc ytoma
ENN IS
ut ive
Ġvag ina
Grand mother
FFIC IENT
ect oral
S IG
yl ase
ameth oxazole
Ġoptim ization
6 07
Int ake
ĠD YS
Ġme q
ĠTT F
ĠSCHED UL
ĠH air
49 2
r ag
ĠOn going
Ġsubc ortical
ĠBROOK LYN
Ġmod alities
ĠL and
ĠCAL CUL
St omach
vac izumab
Ġc os
Ġscan ning
s ome
Ġpres ervative
ĠTH AN
4 24
Ġbleed s
Ġsur faces
Ġinter preter
69 5
Ġhim self
ur day
Ġs ay
ĠB ldg
Ġk m
09 2
ĠPh oenix
Ġpronoun ced
G RAM
Activ ity
Ġpos terolateral
ID ER
IV ITY
th an
ĠRe ed
ime thoprim
THRO AT
Ġis olated
RAN GE
Ġhyd roxy
ĠIn a
ens ed
Ġclos est
OSCOP IC
ĠF ORE
ĠH om
ĠP SC
S PR
IM ATED
icat alog
ĠM b
id an
Ġ33 00
DIS CHARGE
Ġd up
ĠSp orts
ĠB est
L v
V accine
ĠANTON IO
Di agnostics
e als
p res
Ġfund us
ct u
ĠE thnicity
Ġwhe elchair
p razolam
ĠPain ful
R IE
als artan
4 13
Ġ04 1
r I
LA CT
Orient ed
ĠTh igh
let ed
ĠOr lando
ibrill ator
ĠL ob
Ġsp lit
Ġth or
Ġneuro genic
Ġ28 2
ĠS AT
ĠAc et
ath oracic
og y
Ġcor rected
Ġpat ches
Ġ19 56
s hip
ab on
R en
E asy
WH ITE
J oints
act eria
if erative
ufact urer
ĠU SA
Ġ ies
ĠCh and
7 19
ĠFollow ing
ĠC yclobenzaprine
98 5
Ġelig ibility
Ġ8 70
oc ellular
Ġ4 32
igest ive
est on
41 30
Ġnucle i
ĠDON ALD
Ġ8 04
rex ed
Al buterol
Ġsom atic
Ġs oda
Ġc ure
ip e
Ġac know
P ack
itt ed
ĠR is
7 17
ĠMOD ER
Ġbiops ied
Append ix
Ġman if
ĠCh aracter
Ġflex ors
Ġsl p
ASS OC
ĠL yme
Am ount
L ING
ĠPA D
Z AN
Ġhere in
ĠClass ification
In patient
Ġ7 63
IV ITAMIN
Ġdimens ions
ĠC losed
ĠSt ewart
f o
Ġpl ate
G ets
01 00
J ess
ch ar
A ud
ĠINTRA VENOUS
ĠP SYCH
Ġwill ing
6 24
bi otic
Ġmass age
Ġ4 21
O OL
Ġcoll ateral
a ver
leg m
Ġser osal
app ed
ĠMETAST ATIC
ĠAn ion
ĠSH OULDER
ĠAm er
H OU
Ġsocial ly
V essels
ĠClear ance
Ġt re
ĠEx tra
S usan
ĠCent re
ĠE E
Ġhur ting
H el
G abapentin
C ross
Ġt raumatic
Su pp
ĠH ern
h m
ĠALEX ANDER
Ġ13 01
B ed
ĠL UMB
aper itoneal
Ġo mental
ĠUl tra
Ġ7 25
Ġorb ital
M n
ĠEM ERGENCY
ĠH IM
ors es
Ġdelt oid
ĠMc G
4 19
b ed
Ġsupple mentation
Che wing
ĠCOL L
ĠAM Y
ĠL ar
ĠFax Maker
L u
T aken
ĠS erv
ĠWar ren
ĠBab inski
Quest ions
ĠF F
Ġform at
op hys
Ġan talgic
78 1
ĠImmun o
G IN
p lan
ĠO LD
ĠM ELISSA
ĠV ery
Ġcon spicu
Ġde emed
air ment
Correl ation
CAR BON
ĠH M
ĠP CA
ĠKIM BERLY
ur ance
ĠN ICHOL
ĠCamp bell
Ġun ilateral
yrt ec
ĠRe yes
Ġcertain ly
Ġc etirizine
Ġg ra
Ġ9 06
ĠPre vention
Ġprotocol s
Ġh istories
Post operative
Ġh ila
705 53
iprof loxacin
Rad ial
Mult i
Ġt k
omp letely
ah l
ram ine
ĠP eg
ef usion
Ġtri amcinolone
ĠSIGN ATURE
ĠS PIR
ĠFl uticasone
C OC
Ġhist ologic
Ġl ayer
72 148
Ġtam oxifen
Ġmechan ical
Ġflex ure
od ed
Ġmed ian
Ġquad rivalent
Ġcomp ress
ĠSp iriva
ĠL M
ĠP or
Alb any
GE ON
ĠMO RE
Gastro esophageal
ĠKrist en
ĠAN I
ĠTablet s
CH RIST
Ann ual
Ġtarget ed
Ġ19 60
ĠChem istry
08 00
Ġ4 77
Ġoff ers
H ard
ĠDTR s
ĠCOUNT Y
P n
REN GTH
F DG
ĠC ost
ĠBas eline
Ġg um
Ġmain ly
ĠBOU LEVARD
ĠA ble
ack ensack
ĠDi ameter
Ġ1 1111111111111111
ĠBry an
En glish
ĠB orderline
s r
ĠS eg
c at
RE ACTIVE
ĠX XX
IM A
Ġest imate
ĠR WJ
Ġwid ely
Ġfore ign
8 50
f ish
S EM
Ġdys lipidemia
oper atively
ĠPRO STATE
Ġdes igned
7 46
ĠSin ai
m ol
ĠCERT IFICATION
uz umab
ĠH az
ĠINV OL
Tra vel
ak i
Ġle an
ĠASPIR IN
ĠDis play
IL TON
ĠPre gnancy
ag ue
Ġ27 4
ĠF atty
M ail
ĠL AM
L INE
ĠD DD
St aging
Ġ7 72
ĠFlowshe ets
Ġexacerb ated
ĠField s
GL OBULIN
Di abetic
Ġ4 84
App ro
ĠNash ville
Ġ1 201
General ized
UL A
Ġw il
ĠU re
Di vertic
ET AMIN
Ġf if
ĠHem orrh
Ġo e
ab as
Ġout put
ĠEndomet rial
Ġb a
Ġ ity
9 08
Ġg iving
S ize
Ġet a
Ġser osa
Ġhab itus
Ġindividual s
Go als
ĠLL Q
N ID
umer us
ĠC u
Ġl ir
Ġsp l
ap le
Ġfil es
ĠC is
ĠPle ural
ĠD AL
EL AND
ĠMarg in
ĠC ed
ĠR OCK
Ġc x
ĠK AT
ib ling
ĠPL ACEMENT
Ġn in
lit ude
Ġdebul king
ĠH OSP
ON Z
ĠN RBC
ĠE AC
ENT IAL
US CULAR
ist ic
RE AD
ĠNeur ontin
ĠM AM
iot in
J ugular
P et
Ġ19 58
PO CT
In tra
Ġno s
ĠW IN
Ġ5 22
ĠA verage
head ed
Ġrelax ation
T oler
Ġ8 054
ĠComp arison
Ġroot s
Ġchiropr actic
Ch olecystectomy
id en
ĠElect rocardiogram
Ġd iphenhyd
v il
ĠInf erior
MAR ITAL
ĠL IG
anc reatic
ĠWH ICH
ĠALL EN
Ġal k
ĠSt raight
ĠMe h
ĠTONS ILLECTOMY
ate ctomy
ĠLV OT
h ouse
Ġ4 73
Ġadd iction
S IN
RE F
ĠTri age
Marg ins
ĠS ept
Ġg irl
Ġrect osigmoid
Ġreco vered
ĠR on
urr ay
Ġor t
Ġb ra
K OW
o lom
IM AL
Ġtw it
af il
M ULT
Ġper ip
Ġ4 64
07 2
Ġc gi
Ġconj unction
olaryng ology
ST UDY
Ġu a
I onal
ĠCla ims
Ġpol yethylene
ĠK IN
Ġconjunctiv al
e ur
Ġ12 11
he et
om ies
iz a
ĠM ul
Ġw el
ĠH MC
Ġan us
00 09
ĠLop ez
Ġfri end
ĠNE UT
ĠI he
ĠE val
16 11
C ognition
ĠEnd oscopy
PER FORM
ĠJAC OB
ic itis
ot ecan
i pp
aff in
Ġh c
K ath
Ġerythe matous
Ġink er
PRO GRESS
Ġacc ession
Ġstrict ure
ofib rate
Resp onsible
ĠTher esa
ĠPhil adelphia
Ġd s
20 70
ĠAtt ack
Ġstent ing
Ġto oth
S ter
ĠVict oria
tal gia
Ġdifferent iation
Ġdox ycycline
Ġ19 54
ĠT es
l ied
Ġc T
R P
ĠR ole
Ġcal los
ĠAB OUT
ĠMc g
ĠW ritten
c erative
Ġat enolol
EL LI
Ġweek end
ĠS eat
ir iform
Ġc ot
ĠROC HESTER
ĠEp id
Re v
Ġcar bonate
ĠG out
ĠSumm it
Em otional
ĠEmp hysema
Ġch oking
ĠPhys iologic
d ural
ĠG h
Ġ5 73
ĠRes ource
8 47
ĠSt a
Ġf en
ĠRog ers
ĠOr iginal
ĠIDENT IFIED
Ġp itting
Ġinterval s
at l
ORT IC
CONT ACT
ĠBe ach
ĠPA CU
Ġch ance
ĠL c
lee ve
r ance
ect able
Ġ33 50
ĠMM OL
N OSE
w orth
78 452
Ġst ained
y g
on ica
ĠRET URN
Ġem esis
ĠSam antha
m el
ĠCol l
ĠC f
Ġb t
Ġcistern s
Ġcircumf erence
Ġprop hylactic
il os
Ġth umb
ĠPed s
Ġ3 42
ir ley
art ate
L as
itts burgh
Ġopt imal
ĠA Y
Ġtransf usions
ĠC ur
ĠCont rolled
op a
ĠN aproxen
Ġaneurysm al
anc hez
6 10
ĠMic hele
rio ception
ĠPro Air
ĠP IP
T ub
c ons
ĠF AT
ers et
enu ating
ul an
am ol
Med rol
Ġhypo echoic
TR AN
O ld
ĠBas king
ĠAB N
ĠINJ ECTION
ĠB CL
Ġer a
ro tal
Ġrec reational
Ġsati ety
ĠSH ORT
am ond
ĠIND IVIDUAL
ĠSymmet rical
ĠCT AB
Ġox ide
13 00
ĠChi ari
an al
Ġ7 67
ĠBru ising
Do ing
ĠD ent
i ret
Ġnarc otic
Ġoccl uded
I Y
Ġ19 32
Ġer os
Ġcontact s
Ġ26 4
m ot
ĠColor ado
ĠC YNTHIA
SUM MARY
ĠMon ica
Int egument
Fr anc
L et
G yn
ĠAdv il
Ġ5 07
T W
Sex ually
o very
osc op
M U
ĠST IM
ĠK D
Ġ28 3
En domet
uff alo
ĠCO ZAAR
ADD ENDUM
Ġst ar
ĠL ET
om ening
76 2
Ġsphen oid
ĠJan ice
Ġ9 07
4 02
h urst
Ġparticip ating
k ar
Ġser ver
ĠM ur
ĠRE BE
Well Care
Ġfib rous
Ġgrow ing
ap ril
EN Z
ĠCar pal
ĠC RO
Ġlymph ocytic
ĠTh in
Ġa Jo
ĠB REAT
ĠAm ber
w ave
ĠLang one
le in
o qu
Ġfib romyalgia
ce ive
ĠL J
ĠC lo
ĠM AG
Ge orge
Ġdec ide
ĠC ognitive
n at
Ġtrain ing
ĠJ ordan
av or
ĠKATH LEEN
Ġinterchange ably
align ment
Ġag es
ESTHES IA
Ġ ili
Ġhyp erglycemia
ĠROD R
ĠAll ison
T issue
Ġover t
ro kes
Ġexp iratory
ĠActiv ated
H M
ĠAR THRO
ĠPac emaker
CL INIC
ĠT AL
ĠRight s
ins ic
ĠI E
AS A
ĠF ox
ĠWE IGHT
Ar t
Ġde lete
ĠNE XT
V enous
Enc ouraged
ĠLeon ard
C REAT
Ġrupt ure
8 56
O tt
Ġeth moid
STER ONE
ĠHer ceptin
ĠK R
S ec
Ġ3 41
ors ening
ĠK enn
aph enous
ĠN guyen
B UT
Ġ7 83
3211 053
Ġor d
Ġprotr udes
ĠMember s
App ointments
ĠLymph adenopathy
Ġy p
Ġambul ates
P AC
ar io
Ġinferior ly
OP E
Th ought
Ġl uc
ol ite
A le
Ġpat ella
Ġa h
se ase
Ġ9 26
W a
L isinopril
ĠSH ARON
Th at
Ġpost menopausal
ĠG upta
Ġpl ay
Ġang inal
OCARD IAL
Ġradi otracer
ĠPartners hip
ophren ic
C ath
Ġconsider ing
PREDNIS olone
Ġp olicies
ant us
Do ctor
Ġrear rangement
rat ropium
Ġp ul
idd iness
Ġt act
Ġres c
Ġch olecyst
Conf irmed
NEED ED
Ġelev ates
iv il
LOW ER
Ġh al
ĠGynec ologic
Ġ929 3211053
ĠMed i
Ġ35 54
W ar
du ce
Ġlipid s
T hy
w ed
ot i
Ġneuro p
Ġcarcin omatosis
Ġrob otic
Un able
os orb
Ġb ud
Ġsp ots
Ġ04 0
ĠSt enosis
r AMINE
N as
or ectal
F am
Ġp it
ĠF emoral
IL LE
ĠHYPER TENSION
Ġhospital izations
C ert
ĠOphthalm ology
od inated
ĠWid th
Ġgu ardian
osph ate
ĠT AYLOR
U HC
ip i
Ġmult isequence
nov itis
ĠB REN
IV C
PL IC
Ġhyd r
ind s
14 01
ĠJo el
MOT OR
ĠEqu al
V ING
i pple
11 17
G T
lom ate
Ġoste openia
b ody
Ġverbal izes
ĠE ugene
ĠeCt in
ĠB OB
h ilar
ĠM ason
Requ irement
Ġsampl ing
ĠFL OW
ĠM W
Ġ6 29
Ġventric ulog
road ipose
R od
Peric ardium
Ass istant
ĠF N
Ġ7 07
ab ase
F ISH
ĠDOU GLAS
IL IP
E thnicity
T rem
Ġcontract ed
Pat rick
Ġ4 30
Ġvert ex
Ple ural
ĠBenef its
Ġm isc
Ġth ou
ĠL upron
ĠÂ ¢
Ġarri ved
4 06
Ġperia ortic
Ġfe b
ĠDO CTOR
Ġst iff
Ġc v
Ġstand point
Ġant ineoplastic
Ġ6 58
ums cribed
ost on
Flor ida
emet rexed
ĠG lomerular
Ġident ity
Ġh one
iev able
ĠF rontal
T en
r h
ĠB us
iph ery
ĠBRO AD
IT ARY
PER IPHERAL
JOSE PH
Ġ25 7
ik h
ĠSqu amous
ĠT ower
Ġ7 30
L yn
RE X
ber ry
ĠW ALK
ĠOh io
ĠAN P
ĠS ue
RO CHESTER
Ġsequ ela
it it
IC UL
ĠDaugh ter
Ġident ification
ĠR uth
Interpret ing
ĠDysp hagia
5 30
all a
ni k
7 53
erv ille
CS F
Sign ing
ĠJER SEY
Ġappreci able
ĠO li
Ġ8 32
ĠSpring field
9 04
A pt
Ġb c
ĠPred icted
im posed
Ġatt orney
ĠSn oring
ĠElm wood
ĠRL Q
ĠB US
ĠRE A
ot yp
ĠPVC s
ĠSp leen
Ġlymph edema
HYDRO codone
Ġantr um
io blastoma
Ġ5 51
oriz ontal
I e
R iver
ĠD eltoid
V anderbilt
ul y
Ġhypot ension
end ar
ĠAv oid
Ġhigh est
ĠSH ORE
ĠT ouch
ia i
Encounter s
Ġ19 80
ad ron
ĠRestrict ed
Ġ7 21
oc arb
M AIN
il ion
ĠAss ist
H AB
I o
Ġmy oc
ĠM ast
Acc ording
ĠTr achea
Ġde vi
ĠAsp ir
utom atically
Ġf inancial
Ġaw ak
Id ent
ĠW algreens
pr il
Ġspondy lo
ĠB ERN
ent y
ĠSH AH
L ake
R UM
T er
Ġlapar otomy
ĠRob inson
ĠDirect ed
inject or
ĠS ymptom
Ġgu arant
U NE
SHE ET
Ġ9 33
H IP
Ġminim ize
Con n
ĠLAW RENCE
Ġ7 78
ĠChrist ian
Ġ3 89
99 213
ĠZ E
ĠFLO OR
ĠEls ewhere
Ġha z
ĠAng io
Ġc ategory
ĠR m
Ext ensive
ĠPLE URA
Ġcult ures
ĠP u
ak s
Ġprivi lege
ĠTH OU
l ates
Ġatt end
ĠED UCATION
ĠG C
ĠPre gnant
ous and
Ġam b
Rec reational
K Y
od i
bs ite
Ġcareful ly
ion ic
ĠLyn ch
S econd
ĠN ORM
J er
Ġ20 20
Ġtrans fer
ĠT IN
Ġm as
l ist
ĠDEN IES
J H
ĠADV ANTAGE
enn ett
id elis
Ġ urn
on f
ĠM as
Ġ000 01
lott e
Ġcon vex
ĠInclud ed
ĠMOR NING
k k
ĠAntib odies
F ACE
F emoral
Ġch arge
Ġhold ing
Ġinsp iration
Ġaz ithromycin
Ġhem odynam
B orderline
ĠL an
AND EZ
ĠT etanus
Ġcr est
ĠT ammy
ull a
Ġend oscopic
Ġw ears
Ġ9 56
ĠImmun ology
D et
ar se
Ġd ating
ĠAug mentin
are ly
Ġm ad
Ġu c
Ġ ert
Pro Air
SA INT
Ġconfirm ation
Ġbrach ial
od ule
Ġe thnic
Ġcar ried
ic ulitis
ĠSt ay
ĠDE BRA
Ġal coholic
s m
Ġ29 5
Ġampl ification
Ġure ters
Ġo gy
Ġs an
ĠAssess ments
ĠPhill ips
ĠL UC
Ġst ature
AD EN
ĠCou madin
Ġt as
ĠMALIGN ANT
I z
Ġf ur
ĠH amm
Ġ4 94
o j
ew s
7 13
Che mo
Ġirrit able
S om
ĠB OTH
âĸ º
Ġpass ing
ĠBREAT H
4 17
Bal ance
Ġser ially
ĠMer idian
th at
C ERT
Ġvi al
ĠRo ot
Ġfav ored
S ender
Ġhas n
ĠK N
Ġnarc otics
Ġmet allic
Ġfore head
end or
NE UT
ĠMove ments
ĠLE ON
ander s
9 29
ĠDIAN E
V entricular
o va
Ġen h
EOM I
Ġd at
30 01
IG AN
Ġcyan ocobalamin
ĠC ountry
Ġfor a
t c
96 1
Ġsy rup
Ġr ising
Seiz ures
ĠLAP AR
Ġ6 03
he w
Ġ5 14
ĠT EX
ĠAs c
Ġfru its
P upil
ab e
ĠHealth Care
T roponin
ĠM end
Acc ompanied
Ġimmun izations
ĠST AGE
OC A
Ġa L
IM S
yl on
7 23
Ġforward ed
ĠH orizon
Ġec z
el uting
Ġpro d
Ġv olumes
i T
F ood
if ies
ĠCar ter
Ġcon us
P rem
Ġbo ard
Final ized
PER RL
Ġm ask
Ġ36 1
5 03
J ones
Ġcar b
ĠSPECIAL ISTS
ĠADM ISSION
R CA
Ġconc ussion
Ġsp astic
Ġto w
ĠK athy
Ġind igestion
ĠLA URE
7 37
velop ment
on er
f at
RAC USE
ETAMIN OPHEN
ĠV acc
ĠW ong
Ġdecre asing
Ġadequ ately
Ġrefer enced
Ġthyroid ectomy
ep er
Ġposition ed
ĠCr estor
Ġcirc le
ĠLES ION
app ropriate
Bar riers
Ġg iddiness
Ġno ise
B G
ĠVER IFIED
Inc l
ĠFinal ized
o tere
vent ful
ut ch
Ġintr ac
ĠMA IL
radi ol
t ri
IV EN
ĠLAB CORP
Ġfil ter
Ġ8 92
Ġch lor
Ġca ud
ST RESS
ĠE jection
L at
AR ANT
asp irin
Go al
Ġsh aking
Ġv accines
ĠScler a
S ol
ot ed
U re
1 201
App rox
ĠW ED
op tic
Ġtw elve
ĠActiv ities
Ġl an
Rec ently
Ġr uled
Ġround ed
Ġinter active
em r
ĠInf ectious
Pro cess
air y
Ġf old
ĠAl bert
ĠH aw
Ġcort ex
Ġobt use
ĠL INE
ĠN ag
oid ectomy
Ġwork station
S R
ĠNe ighborhood
Ġl is
Ġop ened
le gh
THER APY
E very
9 06
Ġel ic
ĠJ en
Ġ25 8
L in
Ġ19 61
Ġ3 73
pl es
N ails
Ġmaint aining
all ah
ĠBar ry
rop lasty
L ifestyle
Pal ate
Rec urrent
Ġe hr
Perc ent
Ġad vice
Ġ2 89
Ġre formation
ĠD OW
lant a
ĠCorp oration
Ġ14 01
SERV ICE
M arc
im aging
N IC
C AN
ĠContin uous
Ġapp s
ĠI BS
Ġwat ching
Ġdemyel inating
NOT ICE
ĠC arr
Ġ7 65
M ode
5 20
S ug
TER IOR
Ġcell ular
ĠDisk us
Ġmes h
erm al
ĠHe avy
ĠDISTRIB UTION
ĠG ill
N B
ĠAbbre viation
n ut
ĠTest icular
Ġhypert ensive
Ġa head
her st
ĠK w
ull ivan
GA IT
8 17
Ġv ideo
v r
ly sis
it l
rot um
Ġgen itourinary
azep ine
Car ol
Non specific
Ġbowel s
Sur geon
ĠI H
ĠUN KNOWN
ĠMarc us
k el
Ġcommun ications
ult s
Ġ8 83
6 04
Mar ia
ĠApprox imate
ĠN ut
Pro l
AD A
Ġr ic
fs ky
B i
Ġ7 59
ĠCl on
Ġ001 3
e et
ĠHem optysis
ĠT yp
tt ing
ĠDisc ontinue
ĠSH A
Ib uprofen
8 30
T K
Co verage
Ġm ist
Ġdist ance
Ġult imately
Mart in
em ens
art s
Ġpap illedema
Ġi S
Ġit chy
ĠSp anish
XI ETY
A li
osorb ide
Ġconj ugate
ĠCoord inator
J UL
ĠLOR azepam
Ġimmun ost
Ġpac litaxel
enic illins
Ġevent ually
ĠLt d
Dist ress
UTROPH IL
J a
99 3
G eneric
ĠAss igned
Ġreco ver
ĠMRI s
ĠCongest ion
OD EN
Ġ14 11
HE A
ens or
ĠCHRIST INE
ocarb amol
F lexion
occ ipital
Ġtermin ates
Ġtr ack
Ġinvol untary
Ġincre ases
ĠRot ation
NE A
ĠSING LE
Ġd ynamic
Ġr ag
Ġ6 93
ĠH or
P ower
at ers
ĠMA I
ĠDu ke
ĠCh ad
v itamin
Ġd uplex
Ph arynx
inc oln
ĠBar riers
ĠG AL
ĠLou ise
Ġp alm
ick ness
N ONE
ĠN IGHT
ĠSw ollen
elf mm
ĠLAS IX
Ġ6 26
Ġradio therapy
OL I
Ġl ar
St ar
Ġtim ely
Ġ93 000
del ayed
ĠFr ances
orpor ated
os ite
I um
Ġp ound
Ġvis c
Ġs um
Ġexp lor
ĠGad avist
5 25
Ġ4 42
Ġbrain stem
Ġt ilt
ĠLYMPH OCYTES
iog raph
Ġd ic
ĠOUT PT
ER O
b ie
ĠDIAGNOSTIC S
Ġquick ly
ĠC m
rid ge
Y ork
ĠBrand on
ĠPROC ESS
w orks
Ġe L
g om
5 05
tr uda
Ġ5 55
BOR O
Ġ9 36
ophag ia
ĠS arcoma
a N
Th Is
Ġe ve
M eg
ĠF OOD
sy mmet
ad er
5 15
Ġ9 42
COD E
ul ent
ender son
Ġr ri
T w
Ġmuscular is
ĠW endy
Ġrepl aced
ĠBRA D
Ġarch itect
P la
Ġillness es
F ort
raw n
Ġst rips
ĠMON ITOR
Ġth al
ĠU terine
ĠMo derately
Ġ29 2
ĠE at
ĠT readmill
ĠI SS
Ġ6 51
Ġw ax
Ġ6 63
PER R
Ġinhal ers
ĠOX FORD
Ġ4 87
D av
ILL ARY
Ġhyper activity
ĠS ANT
Ġ3 83
ĠE YES
ĠST RU
ss a
Ġg t
an on
Transcription ist
Ġd ur
Ġr or
Ġrestart ed
ĠT EC
AU THOR
ĠL ancets
ĠW WO
Ġprox imally
C ITY
86 1
Imp ort
Ġseem ed
Ġsl urred
ĠAl f
ĠT TY
legh eny
Ġn en
Ġguid eline
eli hood
ĠS el
Ġcer umen
ch est
ĠMar sh
P an
ud ing
Ġ5 74
Me th
Cr ystal
Ġeclinical web
Ġt es
T dap
Ġle pt
CH I
Ġ4 33
Ġpro me
ĠB ra
7 22
N ucleated
Ġburs itis
rod uc
Ġ5 59
Ġposit ional
ĠE rn
ad enop
ĠU terus
in h
ĠD IG
Ġ11 20
ĠTh orac
Ġchart s
ĠRed dy
iam i
ĠPL US
ap ical
Ġstap le
Ġt m
Ġ4 69
ĠP ier
S ymmet
W C
ĠN b
ĠBen adryl
us er
ĠNon specific
Ġextra hepatic
ĠC erebral
ĠConfidential ity
Ġst romal
L isa
ĠINVAS ION
Jac ob
Ġecw eloud
z ar
ĠV irus
Ġ000 6
v aginal
Ġmammo graphy
ĠE c
Ġr ated
ip lin
7 57
ĠJ AM
icks on
B EN
Ġfam otidine
onat ate
os on
ĠCH O
athy roid
Ġstart s
Ġquest ionnaire
ĠClinic s
ĠCervical gia
inv asive
ĠDe hyd
Ġhapp ened
Ġa ids
Ġn ay
Ġe osin
pi ke
AST Y
Ġdo g
DL P
Ġph legm
Ġ08 6
Ġb end
Ġt ne
Ġ6 20
Ġ5 44
Ġrespect ively
A ch
V aric
Ġg ym
ĠN OW
SCOP Y
oz olom
Ġme ter
tr an
L IS
t ure
Ġaspect s
Ġtub al
Ġinter ventional
Ġ4 37
I ed
Ġcenter ed
ĠPro t
PL ANT
T one
Ġa im
ĠBritt any
Ġt err
b en
ĠH B
ĠNo ct
Ġresult ed
g ro
ĠK am
PROCEDURE S
ar ri
Am y
ĠI to
ric h
Ġlet rozole
GE NE
Great er
Ġm M
ĠSUR G
Ġr pt
ĠAle ve
ĠHol ly
B ONE
Ġcl a
ĠReg istered
Ġg ing
ĠPl antar
c ks
ĠC urt
Ġbul ky
Ġacet ab
are z
F MO
Ġg ag
Ext ension
BER KELEY
Ġaffect s
F rank
Ġest im
just ment
Ag gravating
Ġv ary
Ġune ventful
Ġra ised
ĠL OT
hyd rate
aze PAM
T onsillectomy
ĠD UN
ĠB AL
aryng itis
Ġ08 903
g ency
th arg
Ġ5 63
Ġhydro CHLOROthiazide
D u
ĠLe vaquin
Ġg lioma
Ġlo ck
leg ia
P ager
Ġchiropr actor
ĠR ol
b et
ĠP erez
ĠGR AND
Ġin struction
Ġinv ades
Ġtablet extended
K rist
all en
Cont ent
ad em
Ġ5 46
ĠD ex
Ġwalse al
ĠU H
ĠAmeric a
RECE IVED
Ġlymph ovascular
6 200
UR INALYSIS
ig i
asc ial
Ġpunct ure
Hyd roxy
ĠO DT
LE E
il o
C orn
Ġglute al
Ġap ai
Ġach illes
Ġambul ate
ĠCR C
ve olar
ĠE mm
ĠSu zanne
ĠSH I
L ee
ILL O
inc eton
ĠM IG
Ġ7 81
ĠIg A
ĠVEN OUS
ce le
ĠAL COHOL
ĠK O
S ulf
M ill
TR ANS
efr ame
ES H
K i
In n
ĠKrist in
Sh ot
Ġtons illectomy
ĠRe yn
ri ve
ĠV IT
GL U
Ġcardi omegaly
La ur
ĠEv ans
et o
D etail
ĠN ER
9 07
iat ing
ĠP IN
Cl ar
it rex
um inal
ĠRiver a
ĠM UM
ĠF ine
ĠJ L
ĠPR OM
ĠWell Care
V III
Ġg rip
41 00
ĠALL ERGY
C am
ĠR apid
ert ility
MSK CC
ymp an
urr ences
Ġpd f
f illed
J AMES
Ġdelet ion
29 45
Ġit i
rax ane
Ġab err
ĠREQUEST ED
ĠUS ED
ĠCH ILDREN
ĠRem oval
ozolom ide
ĠJ P
Ġwr ite
Ġ12 12
ĠPe ters
A rea
ĠG REAT
Path ologic
F ew
ĠAuth enticated
Om eprazole
od ar
Ġpro te
Ġad mit
Ġ7 54
ĠNEOPL ASM
Ġast rocytoma
l ung
PH ARM
C IAL
opt imal
RY ST
Ġren ewed
Ġs iblings
ĠPrec ert
3 44
Ġmye loma
ace ut
D at
Sed ation
ron ate
cre en
Ġ4 26
ĠBRU CE
ED ERAL
BAS OPHILS
na ud
ĠC ram
Oste oarthritis
on ne
8 40
Pro p
ĠBl urred
ĠAr rival
Ġv t
T OBACCO
Ġpro ven
8 20
Ġsy ncopal
ĠWIL SON
W ART
ĠSing ulair
Fall s
R WJ
Path ologist
OC OR
UT IC
rhythm ia
OP T
Ġf le
My ocardial
ĠJESS ICA
Ġ5 35
ĠGynec ology
ĠV ICT
ĠCOD ES
Ġ16 00
Ġrecon ciliation
ĠWAR NING
Ġgover ned
4 09
op o
Ġausc ult
V F
ĠPE G
Al c
Ġret roc
ĠCharacter istics
ĠG RE
E ric
ĠH istor
ĠOk lahoma
ĠM SS
Ġ7 26
R C
Ġ19 91
Ġ4 39
Ġ9 78
Ġs ki
ermet abolic
Ep ic
Pulm onic
ĠSc ot
ĠN CCN
Ġ23 00
ĠD ia
Ġover night
My Chart
La ura
ĠT ampa
17 00
iplin ary
b rown
Ġim balance
Ġl A
ilos ec
ĠA moxicillin
b es
ĠC ord
ĠQ ual
S ometimes
ĠN an
ĠShar ma
Ġnormal ized
Ġn es
oc used
Ġ17 00
ĠNY P
ĠWell care
all s
ĠF ord
inc ip
9 12
Ġ5 08
ĠL B
Ġloc ulated
ĠEmploy ment
I li
Ġde ad
Ġst ru
H arr
Inv asive
ĠFOLFIR I
H ct
ĠAPPEND ECTOMY
ric n
Ġ36 2
S AM
rogen ase
Ġenc losed
ĠAg ain
umb us
Ġd ual
ĠAp ical
ri i
Ġres ources
Ġb ill
Ġtalk ed
Ġp ati
ent esis
Ġr is
yn ophagia
ĠR OSE
p age
ĠD ob
ĠULTR AM
ib e
Sp irometry
11 16
ĠNIC OLE
CTURE S
n p
An ti
ĠPER FUSION
Ġmiss ing
Ġl est
Ġ6 33
ĠS IZE
UT ANEOUS
Ġm ismatch
ĠMD LAND
ĠB ON
Ġpre ventive
cl usive
Ġexp edited
ran ge
ĠINTER VENT
Ġor tho
HY TH
Ġno l
ĠA ce
Ġoccup ation
B LE
Ġth i
ul atory
Ġstandard ized
ĠTH EN
b an
Ġ19 97
IST ENT
Ġinfiltr ating
ĠN ex
OW S
5 000
6 02
Ġtri ple
8 48
P IT
ĠWH OLE
ĠMuc ous
ĠRand om
1 2017
ĠM CA
RE FERENCE
Tim ing
g raphic
C AM
Ġo hn
IZ Z
ĠSAR AH
Ġs od
Ġstress ed
Ġ3 93
Ġ4 81
Ġ4 46
ĠCh olecalciferol
p art
ax one
ĠJoy ce
Ġcourt esy
Ġhe els
ĠFOLLOW ING
Ġcol lege
ĠCar bo
ĠH AD
Ġlik elihood
ĠS AND
Ġiniti ation
M PI
ĠNAS AL
ĠOther wise
ĠGu ide
Sar ah
R ot
Ġ9 22
c f
in j
ĠC ab
UR Y
ia h
Ġcost overtebral
Gynec ologic
Ġreformation s
id ence
In j
Ġcallos um
ĠAD MIT
ĠCAL C
O VER
3 59
Ġocc urrence
ok en
E A
ĠLi u
ant a
ĠCOUR T
ĠSchw artz
Ġcon g
L VID
ĠCOL OR
Ġanalges ic
Ġp od
99 99
ĠLUNG S
ĠMeas ures
ĠAd ri
ĠD l
Les ion
Ser ial
Pag el
ĠN UM
ĠT ar
Ġappend icitis
ĠS yn
ĠCHE CK
W AN
h is
ut i
ĠTE CHNIQUE
6 18
e valuation
7 16
C essation
ĠV IA
ĠAtt ached
Orthop edic
ĠCOM M
ĠS ELF
in it
Ġ9 47
Ġan terolateral
Ġproject ions
Ġecz ema
ĠV max
Ġf light
Ġhemisph ere
best os
Ġocc ult
Intr avenous
id et
Ġ6 34
Ġmajor ity
ĠD IL
ĠImp airment
ĠInter ventions
ĠGro ve
ĠPk wy
ĠBL OCK
Ġarterios clerosis
T AX
Ġphys i
ĠTrem or
Ġi ent
Ġbe verages
ĠDE TE
Ġl ately
ĠG FI
Ġdevelop s
a M
ĠP ert
Ġintr athoracic
Ġhemat ocrit
MON OCYTES
7 29
ĠH CV
Ġvoid ing
ĠPuff s
Ġfibroid s
M ercy
ĠCh ris
ĠLN s
S et
ifer ation
Ġmeth otrexate
HE UM
ĠD ICT
ĠSter ling
Ch anged
to o
D LE
Ġ01 01
Ġrequire ment
Ġmeet ings
Ġ8 18
ĠCOU GH
Ġrender ing
in surance
89 00
ĠHCP CS
ĠW HE
ol y
ĠSy ringe
Ġr ation
11 12
Ġach ievable
M CC
Ġt p
aps ular
AL A
Intr amuscular
Ġves icles
and ed
Ġet oposide
Ġdos age
Ġ19 62
ent ive
Sw elling
oxic ity
Muc ous
ĠVOL UME
ĠN ol
U V
sy l
Ġproper ly
ARANT OR
' ve
Ġprome thazine
D ALE
LAND O
l is
Ġob structing
Ġprov ocative
Ġin it
Ġpar s
Ġperi hilar
Ġm eclizine
ĠGr ace
c ells
ĠDep ressive
Th anks
let s
Â ®
ĠES OPHAG
Ġl er
ĠANGE LA
ĠE VID
Ġliqu ids
th romb
S ore
ĠL OS
if ton
Ġhydro ureter
ĠBr ent
Ġca ution
Ġr ace
ĠPRO AIR
Ġstrength ening
RA Z
M EL
ĠPark er
th ra
Ġpig mentation
Ġ3 57
At orvastatin
gom ery
Ġmedial ly
ĠCop ies
Ġn p
ĠL b
Ġsol itary
ED ICS
Ġesc italopram
el Ve
inop athy
os ity
G IA
Ġ8 100
al ate
Ġc ad
ĠInv olved
ĠW estern
Ġpres um
ĠAn aphylaxis
Pres byterian
ĠD ENNIS
Comp uted
Ġile ostomy
Oste oporosis
Ġeyel id
C igarettes
Ġvertebra e
L ength
ĠUn able
f le
ic ar
ĠK IR
ĠJud ith
Ġk l
Ġassist ed
el or
B T
V en
th ere
P ressure
Ġ4 36
Ġl ag
OS ACRAL
S r
ĠP it
Ex cessive
ĠD erm
Ġtop iramate
e le
Prof essional
W L
all i
DT Rs
ol ve
Ġr ime
Ġsleep s
ĠOste openia
Ġlif etime
UL AIR
Ġexperi ences
ĠS id
Ġfact s
ia o
ther ia
Ġe vicore
Ġo ct
25 00
ĠS ix
Pro ximal
Lymph oma
Cont ributor
ĠD IM
Ġbec omes
ĠT innitus
VE RE
Pain ful
ĠBrach ial
Ġsuper imposed
K ing
ĠRecipient s
5 24
Ġpara vertebral
Ġocc as
ĠM utation
es in
ULT RAS
Ġmod ulation
Ġtons il
INTE G
Ġt ut
Ġ8 25
Ġradi ologic
ophy tic
ĠR ML
Ġtalk ing
er ied
Ġ Ã
w here
ĠGr ad
ĠR ao
HEMAT OLOGIC
L act
Ġ26 3
EM I
Ġsor eness
ĠSpondy losis
ĠAl so
Ġb ibasilar
Ġn er
Ġ2018 1
m as
ĠIG G
ED T
ĠL IF
ĠA IM
ĠP ress
Ġe astern
Ġtw isting
B ro
ĠN ERV
R onald
E v
pro cedural
ion e
Ġon o
OP A
CH EL
ra ham
orph ology
t at
ĠU AB
Ġ7 47
ĠMult ivitamin
We b
ĠM inn
Ġr p
aceut ical
4 27
86 3
ĠRe active
ĠPr in
ob iliary
ograph er
Ġ4 66
ri v
ĠS Z
ĠFUR THER
ĠR osa
Ġup coming
ĠMethod ist
ĠPres ence
sci ence
Ļ ¦
Ġm oles
ĠMon roe
ĠSt iffness
ĠMET S
ĠSt rong
Ġrem arkable
Ġt ran
O CT
ĠC ORD
U rology
ĠGreat er
Ġb lank
ĠN et
V AR
ĠPlan ned
Ġin i
W at
ĠGL OBULIN
ĠAN NA
Ob structive
ow ing
Ġhem idi
ĠInfar ction
IP S
Ġen co
Ġthan k
ĠE os
ĠL v
Nor co
ĠK ING
F inding
D uke
Ġ5 47
ĠSim vastatin
M orbid
ĠI on
Ġk ept
Ġ4 85
ĠCardi ologist
ĠTEX AS
Ġo a
ĠL IVING
ĠG ib
and y
Ġhem ostasis
ĠPED IATRIC
iriform is
ĠP f
V incent
iled oc
RIT IS
ĠMARG IN
ROX INE
A mp
oun te
ĠDe velopmental
5 04
Ġfor get
Ġsem inal
ĠPro tonix
ĠRitux an
ĠMALIGN ANCY
AD OL
Ġcav itary
e ep
Mel issa
69 2
Ġirrit ability
Ġ38 00
he ast
Ġpro posed
id y
N ELL
or ic
im an
ip it
Ġe z
Clin ically
ĠMy ers
Ġlept omening
iv ated
o view
Ġlos ing
ah an
ĠMari juana
ĠG IST
Ġpro jection
ĠCh o
Rx ID
ĠV t
AD MIT
Post surgical
Ġt all
ĠC ause
ĠD un
ĠH CG
Ġsid ew
ast s
ubic in
4 22
' re
ĠR ound
Ġb er
Ġorgan izations
U a
z ac
ĠRequ ires
Ġ7 55
ĠSmart Link
Ġ98 5
Br ad
Ġ38 01
MAN N
Ġgenital ia
E lectron
iret y
Ġ7 46
yc lovir
ĠREBE CCA
leg al
H IGH
G REEN
Ġarthral gia
ar eness
WE IGHT
ĠH IS
ARE AN
ĠS yl
ER A
Ġro ugh
ĠJ os
Th in
ĠF P
ĠMON T
ever ly
Mult ilevel
USH ING
ĠFlex eril
ĠC oding
ay ette
ĠV AR
Ġpat Ient
L ive
Sub mitted
Ġconstant ly
Ġs cribed
Ġsp orts
Ġprostate ctomy
any a
Ġest radiol
ĠD ME
ĠM OS
ĠRODR IGUEZ
ĠFACT ORS
ĠCon centration
ep tic
Ġtablet delayed
C ognitive
ĠNE UTROPHILS
Ġz olpidem
Ġp k
Ġless er
OXY zine
ĠHyp ert
ĠDI ET
S aw
tr am
rect ile
Ġexcl usive
Ġab x
ĠTemp lates
Ġsw itch
ĠO per
ĠEs ter
ot ide
S F
ĠE du
Ped al
U m
F ine
Ġstate ment
Ġ19 70
ĠOp erative
oca val
Ġsp irometry
J ason
s er
Ġ ial
Ġ3 72
ĠP OT
Inter im
Ġ5 99
6 33
ĠIN TO
ol ving
ĠC Z
Ġexp lanation
Ġaspir ate
Ġhist ology
F ellow
Ġg ender
Ġsub dural
ĠRober ts
F lex
31 00
HEALTH CARE
ĠB irmingham
ann el
ĠRes ection
Ke vin
am an
Ġent irety
mo b
Ġ4 62
rup ted
lor ia
W al
c us
ĠP y
ĠTest osterone
Ir regular
on amide
Ġ5 19
S il
IM P
Ġ111 5
UM AR
ism us
og ran
Ġinter actions
ĠC AS
DL CO
Ġex ons
tract ed
Ġ19 64
Ġpres cribing
ĠPROT OCOL
Ġle x
let on
CA FFEINE
ĠCourt ney
oplas ia
Ġmeant ime
Ġac ne
ĠEP IC
O EN
Ġ3 84
F RE
omfort able
reg on
Ġr v
erv ations
ĠD AN
ĠR heumatology
w alk
ĠEX TREMITIES
Ġenh ance
Ġ101 9
ĠLe vey
Ġu u
Ġ2018 11
ol ation
ĠZ h
AN AX
IAN A
ĠOr bits
NESS EE
at eness
uh ammad
6 50
Ġdef er
ĠWe in
r heumatic
Ġwor ried
NY P
vI ew
ĠOb ese
ĠT G
ĠP ink
ĠC AST
D ictation
ĠH ernandez
it c
4 28
tr al
um ont
Ġk a
ig ion
Ġconsist ency
Greg ory
Carotid s
Ġ orm
ĠSc attered
ĠIC U
ĠP ICC
Ġexhib ited
Ġhy bridization
L earning
ĠR ah
Ġ9 24
ĠCH ART
U Z
Ġlo ad
ra i
a In
Ġ8 28
Ġ4 57
es ee
Ġins ide
ĠCar los
ĠMARG ARET
Ġ10 30
ĠRec ommended
Ġarrhythm ias
r Ic
Ġ8 96
t v
Ġ4 75
ant he
ĠWOJ i
TER N
ĠF ew
Ġinc ons
ĠAng iography
ĠInter preted
Physician s
G M
ok alemia
Ġdi ary
G ALLBLADDER
AP E
ĠMULT IVITAMIN
W ritten
" âĢ¢
Ġdiv orced
Ġcap ecitabine
COP Y
ĠH AL
ĠC art
ig ible
av in
D eltoid
ĠSmok ed
3 66
Ġd yst
ĠRog er
NE C
ĠA ri
ber ger
G astric
ĠSc oliosis
ĠEl igibility
ĠAt lantic
CAL C
z ole
Ġvari ants
Ġ9 46
PERR LA
ĠPl acement
of ascial
ĠS EN
ĠGl asses
Ġcontr acept
Ġp uber
Ġtri p
Ġ3 96
Ġcranioc aud
Pulm onology
Ġprur itis
H ot
s ch
ĠM att
Ġsub jective
Ġbl ister
AZ OLE
Ġvest ibular
AP ENTIN
ICILL IN
ĠYOU NG
unn y
ĠDirect ions
ĠM aterial
ĠCOMPLAINT S
Ġlum inal
ĠCM X
7 15
Diet ary
ĠW AT
SE CTION
Ġvitamin s
ĠM AST
level and
D ysp
ĠP antoprazole
ĠCanc eled
ew ood
Ġfl att
ĠAnnot ation
RO PON
te a
ĠCM C
ĠST ENT
ĠACC ESS
al on
Ġs aving
ĠQU ANT
Ġad herence
Ġ19 63
Ġn v
ĠCh anged
as ol
8 14
ai k
LIPID EMIA
ST ART
ĠY EARS
Ġintr anasal
ĠCAR OTID
Ġ19 31
PH EN
S ections
ol ization
Ġneed les
ĠB ob
ome ter
Ġmin eral
Ġrel apse
um ing
Ġc italopram
B iops
lom ax
ac il
Ġlacer ation
ĠP CT
Ġm I
Ġb urn
ĠFO OT
omet rium
Ġg al
ĠLex apro
ĠUl cer
ĠW olf
H ives
ĠG ram
B iceps
Hep at
Ġ7 68
69 4
Ġdiffer ences
di rected
ĠAl ice
Ġcur ve
ax in
Ġalop ecia
ĠAL AN
Ġcollect ing
li k
ĠSU FFICIENT
V EL
ĠSOL UTION
ĠTUB E
ĠIN ITIAL
Ġphot ograph
ly mph
ar one
dis placed
H um
Ġmeet ing
ĠSULF ATE
Ġcereb rovascular
ĠI IA
w all
SPE CT
Ġl ent
Wor ry
03 00
off icial
Ġhypo kinesis
A therosclerotic
Ġa pt
Ġflu ctu
ĠHOW ARD
Ġguarant ee
Ġend oc
CH ELL
Sign s
Ġis ch
N um
C ort
ĠTim el
ĠOr ange
iss ion
F AR
Ġbronch odilator
ĠTherap ies
F em
Ġa ur
ĠTrans dermal
ĠEmploy ed
Ġpro of
ĠCARD I
SO FT
ĠW y
Ġintr aperitoneal
ag on
ĠQT c
but yn
08 2
ĠTIM I
iropr actic
Ġb udesonide
vI der
L IE
th romycin
ET IRA
Ġcentral ly
ĠJ C
ĠSc ans
ĠSAM UEL
ULTRAS OUND
Ġh arm
ĠM CL
ĠAmb care
Ġre in
ĠAll iance
ĠD allas
Ġ5 64
S it
ISC AN
Ġint ub
OSH UA
8 54
N ED
Ġl arynx
ĠL apar
w t
un der
BC L
WAL GREENS
ĠCol lins
ĠHist o
N KDA
ex or
ĠPlan ning
Ġp L
FER OL
7 000
Ġ5 79
Ġrec ogn
Ġ101 0
Ġwall s
ĠN s
ĠPRO F
Ġv el
Lymph s
ĠB eat
Arter ial
Ġ7 019
ĠHIGH WAY
ĠR MA
Ġmet am
ĠFor est
aw s
V entric
Ġprohib it
Ġconn ections
Ġep ithel
F ina
ĠDivertic ulosis
ĠT EE
Gross ly
c id
Ġtrans cription
ĠBran ch
Ġ9 30
23 45
ĠJ J
ĠL is
Ġconsum es
ĠEVID ENCE
Ġn j
im in
ĠS agittal
ĠAmeric ans
Ġtra ZODone
Ġe lected
M AC
E I
ag in
ĠV TI
Ġpuls atile
ĠHyd roxy
Ġindic ative
Ġenc ount
Ġb ottle
Ġ6 89
ol is
Ġeng age
Ġe VIL
Ġz o
ĠSig moid
RESS OR
ĠW Y
ed a
ĠM X
ĠM ye
Ġ9 96
ĠE LA
Ġdiaphragm atic
ĠTh r
Ġintra operative
Ġo us
ĠUs age
Ġ88 305
In formed
Ġprovid es
Ġcomp are
b it
Smart Forms
ĠV d
LYMPH OCYTES
Ġspontaneous ly
Ġpl aying
Ġy oun
Ġmet abol
Ġl ines
ĠW u
De velopmental
ĠJul ia
u an
ig m
Ġ04 4
ĠB eta
Ġ8 31
Ġ7 35
p c
Ġt A
ĠN ick
uls a
Ġincident ally
Con c
ĠU DS
VEN ING
RA INE
Ġth ing
Ġirregular ities
L or
c ence
Ġwe bsite
R ow
D UR
ĠOr g
CONT IN
Ġdiff erence
ĠCH I
arm aceutical
INOP RIL
M usculos
Ġ7 56
ĠChart ed
ĠSub missions
Ġnear est
ĠEqu ation
ĠA ly
ĠLes ions
Y ear
Ġst asis
ure l
ĠB X
ĠNorm a
Jon athan
P MI
ĠA UD
Ġc li
ac le
Ġ5 45
Ġass igned
ĠPort able
ĠPi ke
ĠTy ler
t otal
ce ctomy
Ġenc ou
ĠSUS P
sy n
ĠPrec ordial
ĠS IDE
ĠEm ory
ĠR ectum
Ġthere after
J AMIN
Ġspect ral
ĠCarol ina
ĠCh ang
ĠJO Y
11 41
ias m
Ġad vis
Ġ4 35
Ġ7 28
D erm
ĠAS CO
Ġmobiled oe
Ed ward
ĠTh ird
ĠGlen n
lox etine
ome z
ĠL ock
b elt
la pping
iss ues
B est
Ġg li
Ġ2018 10
ĠOb tain
o ved
Ġster eotactic
ĠN em
ĠG IL
EOSIN OPHILS
ĠIND EX
ĠPost operative
MON S
au er
Ġdivertic ula
ĠD IV
Ġn ause
Ġpl ain
Ġto ward
Cont rol
Ġle a
ec utive
ĠCon version
Ġfib roadipose
TE X
ĠMe loxicam
ĠA st
Ġclin ician
ĠE H
ix ation
roch loride
Y e
ec w
Ġinfiltr ative
Min utes
ĠCOMPLET ED
w eek
V ersion
op ath
Ġ4 49
ĠARTH UR
Flu or
Ġ000 8
ĠRU SS
o der
ĠExt ensive
ment ed
COC ET
v us
At lantic
ĠH udson
AM ERICAN
Jess ica
ĠEx ercises
N u
Ġ9 75
A h
Ġus eful
N eb
ST R
Ġallow ed
if l
com es
ĠA RI
Ġhorm onal
ata via
Ġvari able
C ategory
Ġinc ompletely
W AT
Ġe cc
D IF
ER IC
ĠOR IG
er es
Ġ100 6
Ġ9 79
ĠCl inton
ĠR ig
T AM
ĠD ouble
ĠCyt ology
L ON
ĠL ie
Ġpattern s
ĠN ails
ĠChew able
ĠC n
ĠBU CK
ĠBEL OW
vI ewed
Ġn th
5 34
Ġwo ke
ĠBronch itis
ĠF ast
oar th
ĠI ra
omal acia
LAH OMA
Ġ3 48
c lear
N V
id emia
Ġ6 000
Ġne ither
Ġ3 85
ĠLocal ized
ĠLOP RESSOR
ic ine
Ġpre f
Ġconflu ent
Ġresc ue
er b
Ġg yn
ĠOX Y
8 28
ĠSOL N
Fax ed
Ġclub s
Ġte en
ane y
E jection
ĠG ordon
ocet axel
ĠIng uinal
Ġprol iferation
ĠS tern
Re vision
van ia
ĠR CC
Ġspecial ty
ĠHart ford
ic z
ĠRe vised
Ġconduct ed
AS IA
AIN T
ĠAP R
ĠPar esthesia
Law rence
ĠS QU
Ġod ynophagia
S ci
Ġst ock
ĠA th
LI F
ulan ate
Ġh ous
ĠT b
ol ing
ab el
ĠD ID
Ġmen isc
Ġp ark
Ġth reshold
V ESSELS
Ġsister s
Ġst ating
butyn in
s ub
he aled
ĠD JD
B a
Ġfib rotic
11 13
re viewed
Ġo at
Ġr heumat
cc al
01 10
iv ar
BROOK LYN
Ġ19 65
rog lobulin
ĠAn at
Ġsymmet ry
R ISON
Ġs aphenous
Ġhyp erl
ĠCh oice
Ġ4 71
Ġpsych iatrist
ĠFl ushing
Ġse ason
UD SON
c an
rib ute
ĠC IS
4 23
ĠL ID
Max imum
ĠDIS ORDER
ĠIN JECT
Ġact ual
ĠPre ventive
En larged
ĠClaud ication
h inct
Ġamp litude
ĠGRAN UL
Ġhab it
ĠStan ley
ĠA te
OMP SON
ĠSUB MITTED
R OME
ĠF u
Ġ6 44
Ġ03 1
ĠF ILE
t d
IP A
Stat en
ĠLu is
ohistochem istry
kin esia
Z EN
D OSE
he e
Ġpractic efusion
ZAN idine
Ġn ter
ag en
Ġox aliplatin
y der
ade qu
8 15
ĠI Q
ac o
ĠAt ivan
ĠLV I
Ġask ing
Ġclass ification
Ġo ss
- -
Prec ert
Ġrepl ace
S ING
ĠBa iley
Ġelect roly
N s
rat ent
alp h
ĠURE TERS
j acent
ĠY O
M g
Ġr Ight
ĠS ENT
ĠZ OCOR
ĠR at
R an
ĠX geva
PR INT
ĠD NP
Code ine
HYTH M
Ġ9 16
Ġinvol ve
Ġbreak through
E ver
CI FEROL
Ġintr ad
ĠDI ABETES
ĠN K
Smok ed
Ġsur vey
Ġst reet
ĠNeg lect
H old
69 3
ĠX ANAX
CE PT
ĠFl at
A verage
Ġint roduced
ANT AC
Ġ4 63
Ġ29 4
Ġnas opharynx
ĠD ONE
Ġun fortunately
ĠE US
EM EM
ĠK ap
â ľĵ
p ool
Ġcontr aind
Ġl I
Ġ6 36
ĠPRE VIOUS
s ign
ef lex
Ġbru ises
SY STEM
Ġadult s
ĠOphthalm ic
6 17
ĠN athan
ĠST IR
ip uncture
ĠAU STIN
ĠEx cell
Ġhyp ers
Ġ36 8
ĠT ara
R G
Ġv asc
AD S
Ġqu eried
C UM
ĠD ub
ll fish
IN TRA
C Z
Ġoper ation
op lasty
Ġequ ivocal
Ġnonob structing
Ġits elf
Ġsup ras
ĠJo an
Ġtuber culosis
Ġdis orient
Ġlip oma
cn em
ĠMot rin
m arks
ap lastic
CK D
K aren
ĠR UN
ĠB ot
Ġn ig
OU LD
ĠQ UAL
i D
Ġt earing
ĠAN TERIOR
Ġaer ated
Ġn ate
Es ophag
Ġe Ch
Ġg y
g ies
ĠCon stant
Br ach
Re quired
Ġree valuation
Ġ5 67
Ġt ru
001 1
ĠY U
ĠSi emens
V ES
D emographics
Un less
ver a
22 00
ĠY R
T or
ĠVe in
OX IC
ĠI ii
ĠIND IC
ĠDIS CUSS
ĠI de
4 39
ĠAND ERSON
Ġosteophy tes
c opy
Ġ4 68
Ġw ounds
ĠN m
ĠGr ant
Ġ7 74
UTER OL
ĠProvid e
ALT A
AR ING
Ġread ings
iiii ii
Ġvo iced
att enuating
Ġ ended
K H
ĠW U
icl ib
Ġad renals
Ġcholecyst itis
Ġelic ited
Immun ohistochemical
K enneth
ĠR AN
Ġupst roke
5 14
Ġe u
ĠWASH INGTON
ony a
ĠW ard
Ġflex ible
Ġun stable
Ġchrom os
ĠP NEUM
ĠSe lect
ĠMM M
ine a
ĠImpro ve
no fsky
Ġr k
N at
or l
ĠM ut
el n
ĠB B
C ET
Ġm um
S AN
a vid
Ġbifurc ation
ĠJ ust
Ġd y
Ġag n
E MR
ron ically
Ġsuperv ised
omed iastinal
ine x
ĠF er
K LE
CL AIM
I tal
ĠHyp og
ĠSat urday
G RAN
Ġm er
yc lom
ICILL INS
Us es
H X
ĠMar tha
Chart Opt
6 14
6 16
VE ST
I or
levi ating
ĠP erry
ĠB ottle
ĠAL PRAZolam
Ġheav iness
ĠCh amber
iaz em
Ġsp erm
ĠCh an
h igh
Ġ111 8
Ġht n
ĠT rial
4 99
Ġ atient
ĠY Y
Ġt ap
f ir
ĠS MA
ut ely
ĠK y
M es
ub ital
ĠVal erie
Ġir rig
001 0
ĠNE B
uck er
Chem istries
ator vastatin
COLLE CTION
ĠPK WY
ĠCES AREAN
Ġ8 05
H al
ĠDef iciency
ĠC esarean
Li kely
ĠPhys ic
J ACK
Ġh istorical
ĠD IAGNOSES
ĠSTRU CTURES
Ġhapp en
Ġthink ing
ĠIn quiry
ĠT arget
Ġm In
Ġref r
b u
d ue
Ġo tt
P ID
Ġsub acute
ĠB NP
Ġ4 29
X RAY
Ġexpress ly
Ent ire
Ġth reat
Ġar rival
ep ir
ĠSun day
Ġnervous ness
ĠC ox
on ch
TH OMAS
ĠF INE
ĠRes olution
ĠMB BS
Ġawak ening
ĠAP POINTMENT
Ġh v
Ġn ine
ĠSING ULAIR
L ICATIONS
ĠE HL
b d
occ yx
ĠSw eats
Rest aging
Ġ6 61
itt e
Ġleptomening eal
ĠKn oxville
Ġach ieve
5 09
i V
Ġd om
Ġ111 3
ĠHel en
ĠR ou
ĠN g
ĠD iaz
ĠPUL SES
F re
Ġdep loyed
ld L
Ġ âĸº
Ġp upil
ĠE ileen
Ġmo o
RE LL
ĠRN A
ĠP DA
ĠN APRO
Ġepis odic
ĠPa ula
Pat ricia
ĠSe th
Ġrestrict ive
ĠEL LI
ĠSn ap
fe eding
Ġm ix
Ġhemodynam ically
ĠGL UC
ag ulation
Ġd ab
P AY
Ġc ef
H B
ĠE CT
GE S
ĠH AY
Ġs keleton
Y ellow
Col umbia
Neuro pathy
ĠSTEPH ANIE
ĠEffect s
ĠBR AND
7 44
ad on
ĠMAGN ESIUM
Ġ4 88
COM MUN
Ab ove
ĠEnd o
Ġbl urring
Ġ7 09
ĠVict or
Ġret ail
ĠB ACT
Ġv ul
ĠSh irley
ĠM CK
ĠREPORT S
S ing
ĠUn official
ogran in
ĠAudit ory
ĠOTHER CLIN
ĠO ME
Ġr il
int a
ĠADD ENDUM
Techn ician
Is it
ain er
D os
S cribe
ĠP ra
Ġiniti ate
Ġt urning
ĠCS ID
ĠDec lined
IFIC ANT
ĠNe il
Ġt ransportation
Ġ ign
TEST S
ĠBeg in
ĠWEE KS
RIT IN
um n
Ep is
7 20
ĠM ere
ĠD F
USE A
ĠSp e
ĠPAM ELA
En try
Ġanest hetic
ĠAn ita
Ġh en
4 16
ĠFlu or
B ur
orn ia
Z ofran
Ġassist ive
He a
ĠGil bert
Ġsu ite
Ġport a
ĠTim ing
Ġeti ologies
Ġaer obic
D ig
SC RIPT
Ġ3 100
Ġsuccessful ly
ĠM ae
or is
Ġs enna
ĠM un
R heumatoid
ĠLo venox
Ġtri als
ĠI LI
Ġox imetry
ĠFax ID
Ġ ite
Ġi odine
ĠAT LANT
K ar
Append ectomy
T rouble
st atic
Ġmye locytes
R M
ĠConcern s
h art
ĠMR CP
ĠMy algia
P alp
ĠN ontender
L umbosacral
io v
ĠSTIM UL
yp ass
Ġn L
Ġdent ist
Att n
at um
ĠEx tr
iop soas
ĠDEL IVER
Ġde br
ĠB ul
Ġsm ears
Ġt ir
ĠN c
h x
Ġal lopurinol
3 56
ĠFred erick
ĠB enz
INE Z
Ġpro be
ĠG lobal
Ġimpro ves
Ġprote ins
ĠS ad
ĠPer iod
Ġul nar
Ġwe ather
E O
Ġ5 88
r f
ĠRY AN
Ġab uts
thy roidism
ARIT AN
Ġerg ocalciferol
IV S
Ġtr action
Ġoff icial
ĠANTI GEN
cz ema
Ġcyst oscopy
Comp laint
s n
E li
Ġh osp
K EN
ĠST AN
d ef
Ġhapp ens
ĠG OOD
Ġattempt s
Ġform ed
t or
ĠCarm en
ĠSuff icient
orb ic
ith rom
ĠW B
ĠY rs
N am
Ġper oneal
Ġpe er
ĠPEN DING
ARY N
ĠRef used
Ġd c
art ed
Ref lex
Ġ9 40
Ġ5 37
I W
Ġcontour s
alm e
ĠMEAS URE
UP MC
UG A
Ġsad dle
ĠMark ers
om i
agnos Is
ĠL OG
Ġiss ued
ĠSPRING S
ough ts
us tr
Ġr io
Ġm ultip
Ġneur itis
Ġc oding
Ġaf ebrile
uc onazole
Ġp M
Ġh ay
RO PERITONEUM
P am
ĠFac et
Ġevery thing
Ġ12 34
UO re
Ġ8 35
ĠF OUR
ĠTM J
ĠReg istry
Ġlight headed
ĠDeg eneration
art icular
yclom ine
B arb
ter os
el itis
Ġup right
ĠWell butrin
Ġt ram
syl vania
F at
vid a
Ġs cript
Ġor y
Ġrequ isition
ĠINVAS IVE
Ġround ing
ĠSim on
L M
Ġw n
ĠH OS
Ġ25 00
RY L
dam ycin
ĠP ush
ĠAb n
istr ative
U ES
Ad renals
Color ectal
Ġper iphery
ĠFr acture
on k
Ġt roponin
Port al
A a
ĠEster ase
RE B
iven ess
OU GH
ter son
ĠMan ager
T iny
Ġ5 26
Ġ8 86
B ase
ĠLi qu
Iss ued
3 58
ĠTH Y
ĠComplet ion
ĠAT IVAN
Ġcommun ity
ineph ric
ĠG AST
Ġsp ironolactone
Ġposit ions
ĠPOL Y
iph theria
ot y
Ġvers ion
Ġ6 82
Ġsu icide
Ġv olt
ALE Z
T ech
Ġl oud
pr int
ĠUr ination
r p
Ġfung al
ĠEar ly
Ġ5 77
ĠR ng
ĠCh ap
Ġhum an
ĠS ure
93 000
ĠMY OCARDIAL
M oh
ĠMem bran
il n
ness ed
T y
ĠWal ter
T onsils
Ġforce ps
U TH
ĠHCT Z
ĠHEMAT OCRIT
ĠIn tractable
Ġdeliver ed
CT S
Ġextens or
Ġ19 66
Breath ing
aw ay
ĠN os
Calc ified
ĠPsych iatry
ĠPle ura
Ġcode ine
Ġca uter
UM C
ĠM ai
os its
Ġlip osarcoma
Ġe Cl
len ess
9 36
Ġd ou
il m
ĠDELAY ED
T D
Ġsubcutaneous ly
AR ACT
Ġ4 52
Ġc IL
H am
Ġen e
ĠNon AA
al va
ĠT achycardia
ĠCL ARK
al lowing
ĠChar lotte
Ġoun ces
Ad vantage
ifi able
ID IAN
ĠINS ERT
Superv ising
4 30
ĠSlight ly
7 58
ĠH ART
BUR Y
Ġappend iceal
ĠMed ial
L ot
Ġt g
Ġi Clinic
ĠH ugh
l itt
ĠB iceps
Ġcalvar ium
t f
Ġcor ona
ĠPROVID E
Ġresol ving
Ġt razodone
V oice
S qu
In hal
or rect
pos itive
98 3
Ġcord s
Ov arian
AD L
ĠComp lications
ĠUP MC
omet a
ĠFLOR IDA
Ġleaflet s
enc er
Ġlib ido
Ġot itis
Ġsy novitis
Ġ000 5
ĠHum an
ĠR ick
ĠCar bon
C yst
ILL S
F iller
Ben ef
Ġtrig lycerides
ut gers
ĠWAL GREENS
ĠW ol
ĠPag el
H MA
l p
AM Y
ĠBre o
on ate
ĠPO INT
ĠNOT IFIED
Ġscre ened
ĠPT T
Ġkil ograms
ĠReview ers
u lopathy
Ġfeel ings
Per itoneum
an an
ĠAd equate
ut y
UT GERS
L VEF
ĠL s
op s
Ġc reat
NE UTROPHILS
ĠTub al
Al tern
Ġqu e
ĠR ating
Ġconvuls ions
Ġ6 13
ratent orial
Abs ent
ĠLIM A
k at
TE CHN
Par ents
Ġe b
SN OMED
LYCER IDES
Ġcal endar
Ġrun s
ĠMICRO SCOPIC
Ġdisc ontin
7 89
Y I
Ġaberr ant
Ġlo ading
Ġchem ical
ĠS z
ĠA cknow
ĠCh er
Ġme at
CH OP
Ġ7 96
az apine
asp inal
AIN ED
ĠK G
ME TH
ĠGen etic
ĠPM S
Ġc bc
Ġro w
F REE
en berg
D P
Ġil iopsoas
est am
ĠC le
Ph osphorus
aster ide
ĠB ri
Ġe el
ĠI th
Ġu y
co b
ĠSc anned
7 25
ĠBIL I
LE CULAR
Ġrout ing
ĠPres byterian
Ġbel ts
ĠE Z
In ability
99 2
Ġ_ ____
ĠOt olaryngology
ĠSp utum
ĠE MS
Ġunc omfortable
ĠI UD
Ġ7 79
ĠWH EN
Ġperip ancreatic
ĠZ oloft
ĠEr g
ĠWAY NE
ĠJ AY
9 10
M ot
d n
Ġaden oc
w it
Ġcl ay
4 54
ĠK al
AL P
ĠV ATS
RE A
oc ate
ĠSt acy
ĠZ ANTAC
20 62
Ġse ven
ĠT m
Ġsens ations
Ġpre tty
ĠCH EN
ĠG IVEN
P ati
cc i
em i
AS IS
Ġt arry
Ch anges
ĠNERV ES
RO LL
V an
ĠL AK
ĠPh en
ĠENT ITY
ol m
Ġm and
Ġconspicu ous
ĠCereb rovascular
ĠIschem ic
ĠU CC
TH AL
ĠK I
Ġm enopause
lo v
ĠB atavia
Ġfluor oscopy
ONZ ALEZ
terog eneous
INTEG UMENT
on itrate
ĠLE WIS
Ġsurvi val
R un
termin ed
Ġsection ing
u ate
Ġst re
ĠLIM ITED
ure en
ARIT IN
Ġ2019 11
Ġmat ched
Ġcataract s
ĠLE AR
Ġneut ral
VE Y
M iller
ĠM ee
ĠMed ia
ĠD est
vi an
ĠSp irometry
Aden ocarcinoma
ĠTes la
os se
Ġin put
ĠInc omplete
ard ed
Ġturn ed
ĠC ad
Ġreach ed
URE A
St ud
6 05
at ur
Ġbrother s
R ule
ĠNICHOL AS
ĠP Y
yd ia
43 00
m ild
as see
7 07
ĠDec rease
5 36
51 00
R apid
5 27
ĠS ick
Ġpack age
Ġt et
ĠRES PIRATORY
ĠM F
Ġtravel ed
Ġpoly neuropathy
ĠVer onica
Ġhur ts
Ġsecret ions
F erritin
Ġsy m
ĠWe i
Ġreturn ing
Re leased
Ġe V
rup t
ĠP ear
il k
ĠB and
IM C
al ic
AR TH
ĠK u
omic idal
Ġun re
Ġis n
GE L
Ġextens ors
i ologist
ens en
Ġk appa
L ew
ap amil
SM ITH
AL OG
at ology
DI vol
ĠT d
ĠP as
OL VED
ĠP op
ĠMUS CLE
Ġsp urring
Ġc ousin
00 5402406
ĠNEURO SURGERY
ĠF olate
Resp onse
ĠK er
ne al
Ġin cl
20 45
Ġsup rac
Ġun co
Mic ro
epir ide
ĠD IAG
ĠSPECI FIC
Ġrub ber
ĠPT A
I H
ch art
N itr
Ġr itux
ĠW m
Ġnut ritional
ĠOnc ol
Ġpartic ipation
T alks
9 18
Un s
ĠOrthop nea
ĠWill is
Ġ19 30
l cal
Ġ000 4
Ġ28 4
W ashington
Ġt ad
v it
cnem ius
Ġ126 01
pl astic
Ġst ri
POS ITIVE
ib r
Ġ079 20
ĠINCLUD ES
UN ITED
iazep am
ĠANAL YSIS
ĠRep resentative
ĠEdward s
Ġ100 21
c lovir
Ġle tharg
Ġ7 76
ĠF o
ag h
ĠSt ill
ĠMan h
Ġdehyd ration
ody n
Th u
Ġu b
ĠST ABLE
ĠM m
Ġprop ranolol
ĠCardi olite
MEDIC ARE
5 02
ĠC ot
ĠIdent ity
5 13
ĠR DT
ant on
ĠAr ch
P oints
Ġex ophytic
ĠID H
ĠF ainting
Ġhemidi aphragm
AP PRO
ow ell
ĠREG ISTRATION
Ġ9 09
ĠHospital s
t ax
ver e
MES SAGE
Ġextr action
ĠNSAID S
hinct er
i rect
S B
Smok e
ĠCON TR
Ġ21 00
ĠPH D
Ġ111 01
ĠSU CC
Ġrehab ilitation
c etam
ver ified
rib utes
Part ial
Approx imately
och ond
exp ression
ox ide
act ices
Ġ19 94
SCRI BER
Ġp ate
ĠT n
am et
ĠOr th
enter ologist
re view
AR O
s ized
Ġ6 88
Sug gest
Ġ umbil
Ġ8 40
ĠCON FIR
H y
Ġide as
ĠDos age
ern a
ĠSt ory
ĠDes cript
ol ly
ĠW D
Ġsim p
6 36
im ta
Ġx anthe
ĠCOPY ING
Comp ared
ĠCl ay
u vastatin
ĠNec ess
Ġ19 92
RE FLEX
Ġg h
Ġp ai
Ġdef ibrillator
ĠPATIENT S
In fl
Ġfl av
Ġcontract ures
Cap illary
K ET
ĠOb jective
ELL O
Ġpred ict
Ġ6 37
Ġsp aring
All en
Ġgast rectomy
i q
em ess
hes ive
os urgery
Ġip ratropium
W IL
ĠL IND
ĠCy anosis
ĠMel anie
Ins ulin
U J
Ġ5 24
Ġ227 45
ĠK IT
ĠEND O
if ornia
Ġ7 36
Ġ2019 1
ĠHEAD ACHE
rem ia
ĠCap acity
ĠP ara
ily n
Ġconn ective
Ġ âĸª
55 66
Ġaw areness
ond yl
oker atin
o is
iod arone
ĠSqu are
ĠHyd rochlorothiazide
ĠSO AP
ĠInf iltr
ft s
id ex
ĠST A
s ay
ĠB RAN
BC BS
ĠO ur
Ġ7 45
et asol
ĠEl aine
4 34
G ran
L ESS
rap ubic
ĠT roy
opt ed
B lock
ĠWh ipple
ĠMax imum
ĠS anchez
ĠNEUROLOG ICAL
ĠPH Y
ĠCom b
ĠFR ONT
ĠNER VE
Ġp f
Ġmel atonin
ĠS we
Ġvar ices
ĠT BR
Ġob jective
CC I
ed e
ĠG T
ĠK en
ĠC W
ĠMETH OD
ĠI a
ĠRad io
Ġy n
L ist
ĠS ullivan
Bu ild
astro zole
Ġdisp ersed
Ġ9 49
Lip ase
ou ri
HEUM AT
Ġex isting
ĠDys function
ĠK yle
Ġdes icc
Ġdel ays
EE EE
ĠEpis odes
6 86
ac etam
ĠA therosclerosis
ĠB is
It ching
END O
IT OT
IN FORMATION
onad ism
ul ary
um et
ĠP ittsburgh
ĠPat Ient
ĠC LE
ĠFA IR
T n
B leeding
S IM
EST IMATED
ub b
Ġmanif est
Ġ18 01
am y
Mont efiore
Ġtim ing
OLO FT
ĠDE PRESSION
act ed
ĠST RENGTH
Ġ19 53
9 89
E ry
ĠS AC
ĠSHI ELD
C k
ĠSend Dale
IM PACT
ĠE b
ENT AL
irt azapine
6 000
ep ithelial
Ġhamstr ing
Ġc as
iast inum
M OM
Ġeff acement
Ab use
VIS ED
C ourse
111 01
c ore
ĠG un
ĠM AS
IN K
ĠIn formed
ĠNe ulasta
d ec
ĠI h
Ġ8 98
B ED
ĠK AY
ĠCurt is
P all
ĠCe leb
Ġeat alog
ĠLA id
ĠAN NE
s en
7 36
Ġmark ings
ĠEpid ural
m ay
am ycin
Ġper inephric
ĠNit rite
ĠD ENS
Ġoment ectomy
Ġret rol
LYMPH ATIC
ĠF SH
lex us
o za
ĠMar row
ĠInter preter
ĠM k
Ġand lor
ĠLUMB OSACRAL
23 00
ĠPT CA
O re
im epiride
ef ully
PLIC ABLE
o terol
atic a
tt i
Ġ4 58
ĠPC MP
ĠCongest ive
S EN
ĠAB USE
ĠVill age
Wh ere
Ġn an
Ġamount s
rop ine
ĠL ac
allah assee
rep orts
Ġa utomatically
ak ote
ĠS ENS
IT O
Ġhypod ensities
Ġmet ap
Section ing
R ock
BAS IC
ĠTechn ician
Ġst ance
ĠHo arseness
D NA
Ġpr actitioner
Ġst ored
Ġcalc ulation
ORD ERED
Ġr on
Ġol ig
ĠF RO
ĠO sw
AT ELY
ĠAct ual
ART AN
T riceps
Ġ227 5
o op
Ġmeas ur
C NP
Ġb at
Ġsidew all
ĠJAC QU
Ġ4 61
CH ART
Ġbe vacizumab
ĠP RED
ex ual
Ġpharmac ologic
ock et
ĠH ur
Ġcre ation
P in
Ġle ading
Ġres umed
v at
ĠMet astasis
Ġvi able
As c
Ġlit ers
Ġs oc
ĠB RY
ĠS URE
ĠG rans
ĠT UN
ĠP ool
C ass
ĠT RI
ĠV in
AL I
idet ector
om n
Ġsplen ectomy
Ġflush ing
ĠDors alis
ĠY r
P OL
Ġsp in
ĠSh awn
ĠBro oks
Obs ervation
Bab inski
Ġ000 7
ĠC indy
ĠTr act
ĠR ee
L uke
N ight
Sin ai
la us
ĠN ik
IM G
D an
Ġ8 24
N et
C amp
REG IONAL
Ġglute us
Ġht m
ĠN r
ĠPost surgical
Ġcran i
D ouglas
ĠEducation al
L AR
it il
Or ig
ĠHEN RY
ĠOpt ic
Ġven lafaxine
Ġsupras ellar
Ġun des
og an
tr ig
Es ophageal
ey iCore
Ġyoun ger
Ġ5 80
Sy ncope
ĠS or
alc emia
op athology
Ġclav icle
ĠTT P
ĠI OW
Ġsupple mental
ĠAn ticoag
E B
Ġg g
ĠAD A
ass isted
Mic helle
ĠS CL
ET S
Ġsu it
ĠC ATHERINE
end ronate
Le ad
Ġref illed
At ypical
Ġblock er
ĠV ia
OP ATH
Dis claimer
Ġaccess ed
ulo se
ars h
Ġopp osite
Ġen vironment
Ġ7 41
Ph il
Sim ilar
Ġwithd rawn
Ġbe aring
t m
ĠC CA
ĠHILL S
vi v
Ġ7 39
ed er
Sign er
Ġn em
il ine
ĠSam aritan
OP S
Ġref errals
B efore
Ġ19 69
Ġdefinit ely
ĠN UC
Ġon es
rah ilar
Ġche ek
ath ena
ĠBR UN
Ġcomorbid ities
ĠOut put
et z
Ġrespond ed
ĠEm b
Nitr ite
Ġs ending
REAS ED
Ex isting
ĠA ER
Ġfeb rile
5 66
en larged
Fac et
Ġb up
Beg un
un i
AL LY
Ġfin ish
Ġrep ly
ĠEric a
ĠS ender
egr ade
Ġinc isions
of i
COMMEND ATION
Ġad herent
ĠPsych osocial
ocrin ologist
ĠIL D
B MP
ĠH story
Ġ113 55
ke eps
Ġk ids
Dav is
als alva
C ro
Ġ6 99
he art
ati a
ĠAn icteric
V asculature
Ġ111 2
ĠMAD ISON
CV A
ĠP ul
Ġw ild
Ġneed ing
End ocrinology
ĠSV R
ĠP od
EN CY
ĠSt uart
OM ER
Ġmic ron
ĠPalp able
l isinopril
oc yst
Ġsx s
AND ARD
RI UM
ĠKey truda
T arget
7 30
MAGN ESIUM
ĠG as
RR R
ĠNG S
R ICHARD
Em ory
ĠChant ix
Ġpros thesis
AL ES
Ġdist r
OMA CH
He el
Ġte acher
IT I
SENS ORY
Ġ2019 10
Ġ6 47
Ġtem ozolomide
Ġh ack
Ġ9 45
Ġun spec
Ġcla ustroph
ĠT ree
g abapentin
oc omp
Ġad m
B arn
ETIRA cetam
thromb in
ĠTo e
ĠNatal ie
ĠMan aged
Ġcons isting
ĠV anderbilt
ĠC ruz
ĠS OURCE
s ky
Ġ8 76
4 111
ild en
valu ated
Im ary
st ained
eg er
up uncture
Ġdiphenhyd rAMINE
ĠHel ical
Asp ir
ĠDEN ISE
ens Ion
ĠSh arp
ĠVisual ized
ĠDivertic ulitis
z one
ĠDi x
ĠSnap Shot
5 33
Ġt ak
Exp osure
Ġp emetrexed
ĠJ I
ĠSt acey
ĠPH ILLI
ĠRP VI
ithrom ax
et ron
ĠCL ARITIN
Cos ign
PRO T
angi ocarcinoma
l ap
Ġf erritin
ĠPER COCET
ĠMammo graphy
6 20
ĠF arm
Ġ5 27
ĠC d
ven ous
os ures
ST RIL
ĠZ i
Ġpolyp ectomy
ĠV o
PRE SENT
ĠS aw
En g
Ġ8 48
ĠC OB
Ġ4 72
ĠJ aundice
Ġ0 50
ĠIrrit able
Ġprop rioception
ge ons
Ġover lapping
OUR S
ĠB at
ad ia
Ġ11 22
ĠLeg al
AB N
ĠMON OCYTES
amm ation
SE P
86 2
ĠSh a
COR ONARY
ĠD V
Ġang io
ĠNor vasc
ĠMarsh all
Ġprec ordial
Ġg lob
OT O
Ġbath room
A IL
ĠAM I
Ġscap ula
Ġb ite
ĠT ucson
8 25
He at
ĠRap ids
Ġland marks
keeps ie
S ED
ic are
RAZ OLE
ep ak
Ġe G
COLON OSCOPY
ĠIn structed
UR I
ERG IC
D IA
ĠCO OPER
ic et
urs es
ĠG Y
ROPON IN
Ġvas ogenic
Ġ5 06
OC I
ĠRefer enced
Ġwat ery
B ony
Ġc od
Ġpro duce
ĠAppend ix
ĠGL EN
T t
M ir
ort riptyline
Ġimp ulse
ĠExp edited
Ġwell ness
7 28
ĠCAM P
Ġend orses
7 47
Ġtrochanter ic
ill us
ĠM az
ĠResp imat
Ic ally
Ġpol ys
ĠDate t
R m
p ol
Ġwithd rawal
Ġver b
Ġthor ough
Ġ9 35
al april
tr im
ĠPav ilion
P END
s k
ific ial
ĠBut ler
ĠP VD
L ate
in r
P hy
IC ORT
Ġ iz
ĠIC I
cor p
anc omycin
ĠAdult s
Ġfif th
ĠRADI ATION
ceph aly
Hyper cholesterolemia
Ġan o
ĠSU BC
9 25
K elly
p d
ĠRESPON DING
Ġit ch
ĠDOCUMENT S
ĠH ZN
ME AS
ĠPR OB
Ġb ate
Ch o
Ġperson s
ĠCase y
ĠInf ections
ough keepsie
Ġ5 93
Ġj erk
Ġbu PROPion
ĠJo anne
ĠP lo
bye vic
ĠA UC
T RI
ĠJo e
Bo is
ul d
ĠANGI OGRAPHY
Panc reatic
Dys uria
R W
Ġson ographic
Ġin a
ĠG ive
ĠV ag
RYST AL
yy y
7 09
ĠAB I
Ġman ager
Ġ32 10
D ental
Ġ5 23
ĠT able
itt i
ĠJ OSHUA
ĠAP PT
Ġimmun osupp
ĠRand all
ĠO ndansetron
N UT
AB NORMAL
Ġc ognition
ĠT ak
Ġtrans cribed
ĠSy ed
T OWN
ĠF ORT
G ra
ĠBilateral ly
ĠSign ing
Ġpla ques
ĠGAR CIA
ĠP ig
Ġr w
Ġhypermet abolism
ĠGER ALD
health care
6 47
ĠRef illed
An derson
ĠK ir
ĠMob ic
Ġhung er
ot he
- _
G ranu
hem ia
Sp ring
Ġh orizontal
ĠPanc reas
ĠF EDERAL
ĠInfl ammatory
Ġp lu
op ied
ĠE rror
ĠBe havior
ĠCL AR
ĠWork station
ĠF x
ĠHEALTH FIRST
ĠBILL ING
ĠM ack
Ġalter ation
n ose
F ORT
ĠGen esee
Ġple om
PRE OPERATIVE
Spec ify
ĠQU AD
ĠD iss
KE Y
ĠM erc
Ġal pha
ĠC RAN
ĠP b
u ce
IT ING
Ġpost op
Ext ended
ĠJ H
ĠHAR RIS
Ġ6 41
PRE S
Ġl ad
ĠIII B
L OS
ĠMONTH S
Ġas bestos
Pac emaker
ĠGr iff
ĠDis ch
Ġsuggest ion
ĠAR OM
ĠAl icia
rop ion
ĠMODER ATE
ĠM is
S ymptom
IR I
Ġb ilirubin
Ġling ular
Stop ped
ĠD ot
Ġdent ures
Ġaccept ed
ed itary
ĠORTHOP A
Ġcon sequ
ĠPre ference
MEDIC INE
ain der
ass ay
Ġlymph aden
ed ded
Ġ2018 12
Ġechogenic ity
not ifications
ĠA LE
Emotional ly
ĠT ran
Ġ11 41
Ġom ega
sur geon
ĠTHE RE
IT ICAL
Ġme atus
rome thazine
ĠI odine
N ml
Ġ19 85
Ġparac entral
ĠB everly
Ġ001 1
Ġsh ingles
ĠB all
ign ated
Ġ93 306
ĠMcC ash
Ġumbil icus
ach ary
Ġrr g
S LE
Ġfund i
ĠF olic
ial l
j oy
Ant ib
ĠPM Hx
ĠF entanyl
Us ed
ĠFried man
ĠF ront
4 08
ĠD ul
pt on
5 37
u lop
Ġ08 869
Pl at
ĠREQUEST S
Ġan om
G ary
Ġn ce
Ġin version
ĠBet ty
ĠS EM
Ġk J
Sh ield
Ġsuperior ly
Ġch iasm
OW ER
Cop ies
ĠS AINT
ĠNOT ED
K PS
n en
Ġs ett
ĠC el
Ġz e
Ġ3 82
ĠT al
O STERONE
ĠA ub
ĠSusp ected
Ġdes c
Ġmar ks
Ġ19 68
Ġintr av
ĠOm ega
i ates
ĠO SH
8 08
b ilateral
G ASTRO
3 31
oc r
D EL
14 14
Ġ18 88
Ġ8 29
G il
5 35
Ġtoday s
Ġb elt
Ġsent ences
j an
Ġrad iculitis
ĠAM ANDA
VI X
Ġ8 36
sc ape
ĠArn old
Ġe k
ba um
U ST
es i
ĠE I
Subsequ ently
Ġ6 56
7 35
AT O
Ġlower ing
Ġvar iety
ire z
For ced
ĠG LY
ĠBE ACH
et ion
Ġmal alignment
DOC UMENT
4 000
om an
ĠC od
len a
y ch
L inda
ĠKenn edy
Ġcomprom ise
O h
C u
nc are
Ġj o
M uscular
Ġpres y
Ġempty ing
ĠDermat ology
CR P
Ġcomp uted
Ġdebr is
Or chard
ĠL UM
T aylor
ure tic
Ġr er
MO RE
ĠTax otere
ĠG loria
n ie
z en
ith a
Ġbehavi ors
THE RE
H G
ĠJUL IE
ĠAlex andra
Ġf entanyl
Ġs ources
Ġrel ieve
Ġc M
in ar
Ġof the
ĠD Y
ĠS VT
ĠIV A
or ad
ĠF erritin
ĠOP EN
Ġvag ue
ec a
ĠZ OLOFT
ĠIM O
ĠMAMM OGRAM
ĠRash es
ĠEN G
IST ANT
Ġor n
EE P
Ġphon ophobia
ĠN il
SE EN
Il s
TR AM
es us
Ġep ithelial
ob lastic
ĠII IA
ĠBEN JAMIN
Ġtas ks
ĠF idelis
Ġcann ula
c orn
ou ter
ĠPneum ovax
OM AX
ĠD NIS
Inter ventional
sh aped
der all
SE CONDARY
ĠSP RAY
ĠUL TRA
ind le
ĠEB US
Ġwork er
SY MPTOMS
Ġ5 53
Ġ19 67
ĠPH ILIP
ĠGuid eline
B et
ĠWat son
bo ard
N AS
Ġper ib
Ġ7 43
Comp liance
Ġ8 07
on ed
ĠF ab
Ġmit otic
STER IOR
ĠM ath
Ġ8 58
Ġ99 204
ĠT endon
Ġk w
33 33
ĠImp ulse
L OSEC
ĠTh an
N ULL
ĠSC OT
M ast
Ġ7 66
ĠK H
3 45
ac char
anc o
Ġpar affin
Ġval ves
J UN
ĠRet roper
ĠP ID
ĠAccept able
ĠBed time
In a
P ad
ĠAD AM
ail ed
ĠBreast s
ens us
Ġ8 99
H ouston
orn a
Deb orah
em Ia
ĠDes ai
ĠSol n
Pro c
7 14
Ġclo tting
Ġtoxic ities
Ġvisc eral
ĠWe is
Ġimmun ophen
MEM BER
ĠASSOC IATED
705 51
Associ ates
TEX AS
11 21
ĠT issues
ĠW en
Ġr iot
Ġret inal
ĠdIs c
Re a
Ġad ventitious
T ry
ent ed
ĠL eb
Ġn ar
uss is
ce an
Ġvascular ity
Ġpuber ty
Test osterone
ob structive
fri end
ĠW s
ĠThe y
ĠF EL
Ġap art
Ġsqu ared
ĠR endering
ĠCREST OR
roph oresis
leb itis
ĠP ate
Ġ6 19
N c
d ep
ĠG ASTROINTESTINAL
ĠSp ent
ĠAr bor
c ott
9 47
ĠSc ores
Ġ9 52
Ġhem ith
Ġmess ages
Ġn w
Bl ack
ĠInter vertebral
11111111 1
Ġbu ild
Ġo val
ĠMOB IC
Ġo stomy
K N
ĠInterpret ing
Ch ol
ĠPenn sylvania
ĠBern ard
N ear
ĠA CH
oc or
100 7
ĠSu ccessful
l ad
ens ation
LA W
MB ICORT
ĠCT s
Out come
T etanus
Z IP
adi ology
ĠMO ST
MB ALTA
Copy right
ĠPer ic
Ġ14 226
11 15
Ġauscult ated
Ġcert ify
ĠP cp
adequ ate
Ġtotal ly
ĠS RS
Se lect
4 29
Ġhemorrh ages
EM AN
Ġi L
St ool
Ġ101 8
Val ues
ĠFIL MS
ĠV ari
h it
O u
t el
ĠD examethasone
ANN ON
St an
ĠEXT ENSION
SG PT
Ġun sp
Ġ07 00
6 99
if ice
DT R
ĠA etna
ĠPLA ZA
N KA
Ġ3 51
OP ROL
Ġchron ically
st s
Ġret ained
ĠNUR SE
[...]
