{"<s>":0,"<pad>":1,"</s>":2,"<unk>":3,"<mask>":4,"!":5,"\"":6,"#":7,"$":8,"%":9,"&":10,"'":11,"(":12,")":13,"*":14,"+":15,",":16,"-":17,".":18,"/":19,"0":20,"1":21,"2":22,"3":23,"4":24,"5":25,"6":26,"7":27,"8":28,"9":29,":":30,";":31,"<":32,"=":33,">":34,"?":35,"@":36,"A":37,"B":38,"C":39,"D":40,"E":41,"F":42,"G":43,"H":44,"I":45,"J":46,"K":47,"L":48,"M":49,"N":50,"O":51,"P":52,"Q":53,"R":54,"S":55,"T":56,"U":57,"V":58,"W":59,"X":60,"Y":61,"Z":62,"[":63,"\\":64,"]":65,"^":66,"_":67,"`":68,"a":69,"b":70,"c":71,"d":72,"e":73,"f":74,"g":75,"h":76,"i":77,"j":78,"k":79,"l":80,"m":81,"n":82,"o":83,"p":84,"q":85,"r":86,"s":87,"t":88,"u":89,"v":90,"w":91,"x":92,"y":93,"z":94,"{":95,"|":96,"}":97,"~":98,"¡":99,"¢":100,"£":101,"¤":102,"¥":103,"¦":104,"§":105,"¨":106,"©":107,"ª":108,"«":109,"¬":110,"®":111,"¯":112,"°":113,"±":114,"²":115,"³":116,"´":117,"µ":118,"¶":119,"·":120,"¸":121,"¹":122,"º":123,"»":124,"¼":125,"½":126,"¾":127,"¿":128,"À":129,"Á":130,"Â":131,"Ã":132,"Ä":133,"Å":134,"Æ":135,"Ç":136,"È":137,"É":138,"Ê":139,"Ë":140,"Ì":141,"Í":142,"Î":143,"Ï":144,"Ð":145,"Ñ":146,"Ò":147,"Ó":148,"Ô":149,"Õ":150,"Ö":151,"×":152,"Ø":153,"Ù":154,"Ú":155,"Û":156,"Ü":157,"Ý":158,"Þ":159,"ß":160,"à":161,"á":162,"â":163,"ã":164,"ä":165,"å":166,"æ":167,"ç":168,"è":169,"é":170,"ê":171,"ë":172,"ì":173,"í":174,"î":175,"ï":176,"ð":177,"ñ":178,"ò":179,"ó":180,"ô":181,"õ":182,"ö":183,"÷":184,"ø":185,"ù":186,"ú":187,"û":188,"ü":189,"ý":190,"þ":191,"ÿ":192,"Ā":193,"ā":194,"Ă":195,"ă":196,"Ą":197,"ą":198,"Ć":199,"ć":200,"Ĉ":201,"ĉ":202,"Ċ":203,"ċ":204,"Č":205,"č":206,"Ď":207,"ď":208,"Đ":209,"đ":210,"Ē":211,"ē":212,"Ĕ":213,"ĕ":214,"Ė":215,"ė":216,"Ę":217,"ę":218,"Ě":219,"ě":220,"Ĝ":221,"ĝ":222,"Ğ":223,"ğ":224,"Ġ":225,"ġ":226,"Ģ":227,"ģ":228,"Ĥ":229,"ĥ":230,"Ħ":231,"ħ":232,"Ĩ":233,"ĩ":234,"Ī":235,"ī":236,"Ĭ":237,"ĭ":238,"Į":239,"į":240,"İ":241,"ı":242,"Ĳ":243,"ĳ":244,"Ĵ":245,"ĵ":246,"Ķ":247,"ķ":248,"ĸ":249,"Ĺ":250,"ĺ":251,"Ļ":252,"ļ":253,"Ľ":254,"ľ":255,"Ŀ":256,"ŀ":257,"Ł":258,"ł":259,"Ń":260,"in":261,"Ġ.":262,"er":263,"on":264,"at":265,"Ġ:":266,"Ġ,":267,"al":268,"en":269,"or":270,"Ġa":271,"Ġt":272,"es":273,"ed":274,"is":275,"Ġ1":276,"Ġs":277,"re":278,"it":279,"ic":280,"ĠP":281,"Ġp":282,"ar":283,"he":284,"Ġc":285,"ion":286,"le":287,"as":288,"ent":289,"Ġm":290,"an":291,"Ġn":292,"Ġo":293,"ĠM":294,"ĠC":295,"Ġd":296,"Ġw":297,"01":298,"ĠS":299,"Ġ)":300,"Ġ/":301,"Ġf":302,"ĠA":303,"Ġan":304,"ro":305,"Ġb":306,"Ġ(":307,"ing":308,"ĠN":309,"ĠD":310,"Ġ-":311,"Ġ2":312,"Ġof":313,"ĠR":314,"Ġ0":315,"Ġin":316,"ou":317,"Ġand":318,"ĠI":319,"il":320,"Ġh":321,"ĠT":322,"ct":323,"Ġthe":324,"lo":325,"ation":326,"om":327,"201":328,"ĠH":329,"Ġno":330,"th":331,"ul":332,"ig":333,"âĢ":334,"el":335,"Ġto":336,"Ġre":337,"Ġe":338,"us":339,"ĠL":340,"ve":341,"ĠE":342,"id":343,"ur":344,"âĢ¢":345,"Ġr":346,"ĠF":347,"ati":348,"ab":349,"Ġ3":350,"ĠO":351,"Ġl":352,"ol":353,"os":354,"orm":355,"im":356,"am":357,"ess":358,"ter":359,"ĠB":360,"00":361,"ith":362,"ac":363,"ag":364,"Ġth":365,"Ġor":366,"RE":367,"Ġis":368,"ate":369,"Ġwith":370,"et":371,"ist":372,"ain":373,"um":374,"Ġ4":375,"Ġ5":376,"Ġfor":377,"11":378,"ad":379,"Ġon":380,"em":381,"ly":382,"est":383,"un":384,"atient":385,"ce":386,"ay":387,"ical":388,"ut":389,"der":390,"ast":391,"ON":392,"IN":393,"ec":394,"igh":395,"ĠPA":396,"if":397,"ot":398,"GE":399,"Ġ6":400,"Ġ7":401,"Ġg":402,"able":403,"oc":404,"AL":405,"st":406,"ormal":407,"ory":408,"Ġst":409,"ver":410,"ĠW":411,"op":412,"ight":413,"ri":414,"Ġ9":415,"ER":416,"19":417,"Ġ;":418,"Ġby":419,"Ġ8":420,"Ġ>":421,"Ġcon":422,"ort":423,"Ġ10":424,"ir":425,"ĠV":426,"AK":427,"od":428,"Ġy":429,"ep":430,"2018":431,"ĠPAGE":432,"pp":433,"AT":434,"Ġhe":435,"ch":436,"ew":437,"vi":438,"ult":439,"ĠG":440,"BRE":441,"ment":442,"ies":443,"Ġat":444,"BREAK":445,"ĠPAGEBREAK":446,"ĠâĢ¢":447,"OR":448,"ary":449,"ST":450,"ine":451,"ĠU":452,"ill":453,"EN":454,"ĠIn":455,"IC":456,"ef":457,"10":458,"hy":459,"one":460,"Ġnot":461,"ak":462,"ial":463,"eg":464,"istory":465,"Ġex":466,"ect":467,"Ġas":468,"Ġv":469,"ĠMD":470,"Ġ201":471,"ap":472,"age":473,"Ġmg":474,"low":475,"ase":476,"ere":477,"oun":478,"ign":479,"Ġch":480,"Ġ11":481,"ĠJ":482,"2019":483,"ĠNo":484,"ity":485,"ure":486,"qu":487,"Ġ12":488,"ow":489,"AN":490,"ated":491,"ablet":492,"art":493,"Ġle":494,"log":495,"ress":496,"mp":497,"ive":498,"Ġdis":499,"No":500,"12":501,"ge":502,"ip":503,"ia":504,"Ġwas":505,"18":506,"ĠSt":507,"Ġu":508,"Ġab":509,"form":510,"Ġpro":511,"Ġpain":512,"Ġare":513,"AR":514,"end":515,"all":516,"ell":517,"Ġ*":518,"Ġbe":519,"ther":520,"omp":521,"Ġnormal":522,"iz":523,"ED":524,"se":525,"act":526,"iv":527,"yp":528,"Ġ#":529,"ĠDate":530,"inal":531,"ear":532,"ard":533,"Ġper":534,"ft":535,"Ġpatient":536,"ative":537,"view":538,"ant":539,"IT":540,"The":541,"17":542,"ax":543,"Ġtablet":544,"tr":545,"ue":546,"ĠK":547,"Th":548,"Ġun":549,"ail":550,"ff":551,"eral":552,"ĠOr":553,"rom":554,"Ġ'":555,"ber":556,"OB":557,"Patient":558,"ION":559,"ymp":560,"ication":561,"Ġhas":562,"olog":563,"20":564,"Ġ%":565,"ES":566,"res":567,"ular":568,"OM":569,"Ġthis":570,"vid":571,"14":572,"our":573,"are":574,"ions":575,"ime":576,"2017":577,"ll":578,"ron":579,"ss":580,"LE":581,"15":582,"ous":583,"esult":584,"IS":585,"ice":586,"30":587,"out":588,"ee":589,"int":590,"ness":591,"anc":592,"He":593,"ub":594,"ens":595,"Ġad":596,"ĠHistory":597,"ud":598,"ĠMR":599,"Ġne":600,"Ġsp":601,"mo":602,"Ġday":603,"16":604,"nc":605,"ĠPro":606,"Ġapp":607,"Ġk":608,"ĠPM":609,"ĠMed":610,"ENT":611,"and":612,"ib":613,"13":614,"RO":615,"Ġal":616,"Ġrec":617,"ame":618,"25":619,"ath":620,"isit":621,"Ġright":622,"ake":623,"In":624,"up":625,"CT":626,"use":627,"ass":628,"Ġim":629,"ance":630,"\"\"":631,"ĠRe":632,"ied":633,"Ġthat":634,"ĠNot":635,"cc":636,"Ġwh":637,"ĠY":638,"hys":639,"02":640,"Ġha":641,"AM":642,"pt":643,"05":644,"Ġlo":645,"ric":646,"egative":647,"Ġleft":648,"erv":649,"atus":650,"ran":651,"06":652,"Ġi":653,"formation":654,"ĠAM":655,"Ġdi":656,"ne":657,"lect":658,"Ġ\"\"":659,"She":660,"ollow":661,"ert":662,"Ġ01":663,"OL":664,"Ġrep":665,"AS":666,"osis":667,"24":668,"ĠCT":669,"04":670,"ID":671,"lin":672,"Ġsh":673,"ack":674,"IL":675,"Ġx":676,"Ġ]":677,"ĠCh":678,"sp":679,"cl":680,"let":681,"agn":682,"22":683,"ale":684,"Ġher":685,"TH":686,"03":687,"Ġ14":688,"OS":689,"ounter":690,"08":691,"ore":692,"Ġmed":693,"ital":694,"ology":695,"Ġcont":696,"Ġse":697,"Ġyou":698,"Re":699,"ru":700,"urr":701,"enies":702,"ang":703,"resent":704,"09":705,"EL":706,"urg":707,"ĠEx":708,"27":709,"07":710,"Ġhave":711,"Ġfrom":712,"ost":713,"Ġnod":714,"lan":715,"Ġint":716,"23":717,"Ġcomp":718,"ified":719,"dom":720,"ateral":721,"Ġ=":722,"ont":723,"26":724,"alth":725,"ence":726,"ld":727,"ian":728,"Ġ15":729,"29":730,"Pro":731,"ĠHe":732,"Ġ13":733,"viewed":734,"erg":735,"uc":736,"ING":737,"ĠDOB":738,"Ġ?":739,"ymph":740,"ional":741,"RA":742,"Ġar":743,"ite":744,"Ġ[":745,"Ġsign":746,"HE":747,"yst":748,"ex":749,"28":750,"AB":751,"eport":752,"Ġ08":753,"cri":754,"gh":755,"Ġ09":756,"ncounter":757,"Ġany":758,"Ġ19":759,"ule":760,"rem":761,"Ġcm":762,"err":763,"Or":764,"reat":765,"ute":766,"co":767,"io":768,"ease":769,"ĠOrder":770,"ATION":771,"IM":772,"Ġsc":773,"itt":774,"outh":775,"lease":776,"ĠIN":777,"ĠDr":778,"aily":779,"its":780,"CC":781,"vider":782,"ange":783,"urrent":784,"uro":785,"Ġshe":786,"St":787,"ender":788,"Ġdo":789,"ord":790,"Ġdisc":791,"ĠâĢ":792,"esp":793,"ual":794,"Ġ07":795,"21":796,"ra":797,"hone":798,"usc":799,"ely":800,"ĠTh":801,"'s":802,"val":803,"Ġmo":804,"ĠPage":805,"ĠRE":806,"mok":807,"Ġwe":808,"ich":809,"54":810,"enc":811,"Ġfollow":812,"Ġreport":813,"Date":814,"AD":815,"ose":816,"ĠAN":817,"ĠNormal":818,"There":819,"TE":820,"ild":821,"ications":822,"Ġchest":823,"Ġhistory":824,"Ġoral":825,"ĠDi":826,"CH":827,"ide":828,"ile":829,"ĠMG":830,"ble":831,"ome":832,"Ġ16":833,"ks":834,"Ġme":835,"OU":836,"amin":837,"Ġ03":838,"Ġlow":839,"ily":840,"Ġwithout":841,"Ġ&":842,"Ġ04":843,"ancer":844,"very":845,"atic":846,"ĠPatient":847,"Ġ2018":848,"Ġup":849,"tt":850,"Ġdaily":851,"ically":852,"Ġdisease":853,"55":854,"Ġ!":855,"tom":856,"Ġ18":857,"UM":858,"Ch":859,"quest":860,"ilateral":861,"Ġbre":862,"44":863,"ĠName":864,"tern":865,"Ġ02":866,"31":867,"iss":868,"iff":869,"Ġwell":870,"ction":871,"umb":872,"ĠAd":873,"ĠReport":874,"ung":875,"Ġmass":876,"ument":877,"ĠSign":878,"Ġyear":879,"umber":880,"Ġmouth":881,"Ġro":882,"Ġmm":883,"ection":884,"Ġdr":885,"UL":886,"Ġwill":887,"50":888,"Ġ17":889,"MR":890,"ĠAn":891,"son":892,"ET":893,"ĠCon":894,"ended":895,"Ġj":896,"ke":897,"Ġwere":898,"Ġbeen":899,"ever":900,"Ġ100":901,"atory":902,"onary":903,"Ġ05":904,"ician":905,"adi":906,"ced":907,"Ġinformation":908,"Order":909,"ype":910,"Ġneed":911,"Ġreg":912,"Ġ06":913,"ound":914,"OG":915,"trast":916,"Ġ20":917,"ĠZ":918,"ICAL":919,"Ġit":920,"omm":921,"amily":922,"ased":923,"ĠPr":924,"Ġuse":925,"ach":926,"Ġpresent":927,"ace":928,"Ġlymph":929,"rop":930,"sy":931,"oma":932,"IV":933,"ĠOF":934,"ĠTime":935,"SS":936,"los":937,"Ġus":938,"Ġdist":939,"hysician":940,"ark":941,"ments":942,"formed":943,"athy":944,"Ġpos":945,"blem":946,"Ġhad":947,"ymptom":948,"ĠRef":949,"33":950,"uth":951,"ations":952,"Med":953,"ys":954,"ocument":955,"ĠSp":956,"ĠUn":957,"IA":958,"ĠOral":959,"PH":960,"llerg":961,"kin":962,"ĠVisit":963,"ĠMedical":964,"ĠNegative":965,"oint":966,"ĠResult":967,"Ġref":968,"Ġmon":969,"eck":970,"day":971,"Ġles":972,"aging":973,"normal":974,"ĠStatus":975,"Ad":976,"Ġob":977,"Ġ30":978,"ĠST":979,"own":980,"ient":981,"ident":982,"Ġag":983,"ob":984,"Ex":985,"av":986,"EM":987,"Ġ+":988,"ior":989,"Ġhyp":990,"45":991,"lood":992,"Ġde":993,"lectron":994,"66":995,"ĠEncounter":996,"Ġsu":997,"Ġabdom":998,"Ġreviewed":999,"dit":1000,"Ġcons":1001,"euro":1002,"Ġpre":1003,"ension":1004,"Ġinf":1005,"te":1006,"ĠAb":1007,"ĠÂ":1008,"Ġback":1009,"ise":1010,"ates":1011,"Ġ25":1012,"og":1013,"Ġbilateral":1014,"IST":1015,"ork":1016,"ery":1017,"apy":1018,"Ġbut":1019,"Ġli":1020,"asc":1021,"rior":1022,"ind":1023,"Ġother":1024,"ĠBy":1025,"lop":1026,"Ġall":1027,"cre":1028,"34":1029,"Ġhis":1030,"ie":1031,"lear":1032,"ities":1033,"ymptoms":1034,"ctive":1035,"aps":1036,"Ġac":1037,"stru":1038,"arg":1039,"AC":1040,"Ġtest":1041,"enter":1042,"ium":1043,"Ġext":1044,"Ġed":1045,"uss":1046,"alp":1047,"ific":1048,"89":1049,"itis":1050,"ĠID":1051,"ĠFax":1052,"ĠQ":1053,"ening":1054,"vel":1055,"39":1056,"ĠComp":1057,"aint":1058,"Ġwee":1059,"1111":1060,"37":1061,"clud":1062,"OD":1063,"Ġtime":1064,"ral":1065,"Ġsub":1066,"Ġevery":1067,"linical":1068,"ood":1069,"rans":1070,"ures":1071,"Ġnon":1072,"ĠThe":1073,"36":1074,"OP":1075,"Ġwhich":1076,"oph":1077,"ĠMRI":1078,"lu":1079,"OT":1080,"ern":1081,"59":1082,"Ġen":1083,"ulm":1084,"agnosis":1085,"ĠAl":1086,"rain":1087,"Ġ2019":1088,"47":1089,"osp":1090,"ren":1091,"UR":1092,"Ġdenies":1093,"ough":1094,"urn":1095,"ement":1096,"ression":1097,"uthor":1098,"56":1099,"46":1100,"ĠDis":1101,"Con":1102,"ĠAND":1103,"cedure":1104,"Ġcol":1105,"eft":1106,"Di":1107,"min":1108,"57":1109,"ĠTablet":1110,"omy":1111,"PI":1112,"nd":1113,"olic":1114,"This":1115,"imary":1116,"Ġmin":1117,"so":1118,"lectronically":1119,"Ġ2017":1120,"iat":1121,"NE":1122,"ved":1123,"ATE":1124,"vis":1125,"anges":1126,"ĠCON":1127,"ĠNY":1128,"IG":1129,"lex":1130,"ascular":1131,"dL":1132,"ceiv":1133,"Ġinter":1134,"BC":1135,"ĠInformation":1136,"88":1137,"40":1138,"ĠX":1139,"ĠFinal":1140,"Ġmet":1141,"Ġif":1142,"ĠProvider":1143,"be":1144,"ystem":1145,"Ġlower":1146,"ount":1147,"mm":1148,"li":1149,"ers":1150,"OC":1151,"Ġnoted":1152,"alc":1153,"Ġhead":1154,"valu":1155,"Ġsymptoms":1156,"cript":1157,"Page":1158,"Ġso":1159,"Ġmonth":1160,"essment":1161,"Ġresult":1162,"ĠNumber":1163,"Ġmay":1164,"ings":1165,"ram":1166,"ĠOn":1167,"ema":1168,"99":1169,"Ġres":1170,"II":1171,"ized":1172,"apsule":1173,"UN":1174,"Result":1175,"ry":1176,"PT":1177,"DT":1178,"ĠExam":1179,"ĠMRN":1180,"Ġvisit":1181,"ceived":1182,"Ġtoday":1183,"58":1184,"emale":1185,"ond":1186,"ited":1187,"ash":1188,"INE":1189,"32":1190,"IAL":1191,"aw":1192,"fter":1193,"ong":1194,"ors":1195,"ii":1196,"reatment":1197,"If":1198,"ulmonary":1199,"Ġpr":1200,"2016":1201,"ORY":1202,"Ġperformed":1203,"arc":1204,"opy":1205,"ould":1206,"Ġinclud":1207,"ardio":1208,"Ġreports":1209,"77":1210,"ason":1211,"Ġsin":1212,"Ġpl":1213,"Ġcancer":1214,"Ġdays":1215,"llergies":1216,"enop":1217,"urgical":1218,"imes":1219,"Ġseen":1220,"ove":1221,"oth":1222,"ĠAL":1223,"49":1224,"Ġlung":1225,"ility":1226,"41":1227,"AX":1228,"38":1229,"eneral":1230,"rect":1231,"ish":1232,"Ġdiff":1233,"ode":1234,"Ġyour":1235,"hysical":1236,"Ġkg":1237,"Ġsmok":1238,"ency":1239,"itive":1240,"ma":1241,"Pr":1242,"ĠÂ°":1243,"pper":1244,"ages":1245,"Ġ_":1246,"ontin":1247,"ocial":1248,"PRE":1249,"Ġcontrast":1250,"espir":1251,"ronic":1252,"Sp":1253,"umbar":1254,"Ġsw":1255,"Ref":1256,"MI":1257,"Ġ50":1258,"Ġind":1259,"ervice":1260,"48":1261,"US":1262,"ctiv":1263,"ree":1264,"ause":1265,"Ġnegative":1266,"Ġappear":1267,"aking":1268,"AP":1269,"usion":1270,"Ġchanges":1271,"ize":1272,"196":1273,"und":1274,"hn":1275,"Ġshow":1276,"ills":1277,"35":1278,"ĠOR":1279,"Ġabnormal":1280,"eurolog":1281,"ĠHealth":1282,"Ġlast":1283,"Ġneeded":1284,"ĠIC":1285,"arr":1286,"ating":1287,"erapy":1288,"Not":1289,"ardi":1290,"ssessment":1291,"ending":1292,"Ġbreath":1293,"dress":1294,"ph":1295,"Ġdef":1296,"ole":1297,"Fax":1298,"ĠNote":1299,"Ġunder":1300,"IE":1301,"enopathy":1302,"Ġam":1303,"Ġabove":1304,"ick":1305,"UE":1306,"Ġloss":1307,"Ġimp":1308,"arge":1309,"ANC":1310,"ĠPRO":1311,"Ġtimes":1312,"terior":1313,"ature":1314,"ained":1315,"gress":1316,"Ġeff":1317,"vious":1318,"ffice":1319,"ject":1320,"Al":1321,"hol":1322,"acco":1323,"urgery":1324,"Ġcan":1325,"erc":1326,"We":1327,"Ġold":1328,"Ġcor":1329,"Ġvis":1330,"ospital":1331,"ĠPh":1332,"ĠNotes":1333,"ĠâĢĶ":1334,"DING":1335,"emp":1336,"tal":1337,"ĠSigned":1338,"Ġalso":1339,"ization":1340,"78":1341,"Ġug":1342,"51":1343,"ĠNE":1344,"ĠTake":1345,"Ġpalp":1346,"Ġ24":1347,"cription":1348,"nown":1349,"spec":1350,"Ġdocument":1351,"Ab":1352,"Ġscan":1353,"vascular":1354,"ĠCol":1355,"ĠMED":1356,"53":1357,"Ġsy":1358,"Ġass":1359,"ĠPhysician":1360,"ĠHE":1361,"Ġ40":1362,"ĠIV":1363,"ternal":1364,"ORM":1365,"Ġstatus":1366,"Ġconf":1367,"79":1368,"LI":1369,"Ġprior":1370,"Ġevalu":1371,"ocation":1372,"ditional":1373,"Ġcl":1374,"An":1375,"Ġexam":1376,"Ġupper":1377,"ĠLab":1378,"imen":1379,"ĠPlan":1380,"ificant":1381,"DOB":1382,"ertension":1383,"ural":1384,"Ġsigned":1385,"OLOG":1386,"Ġevid":1387,"Ġafter":1388,"Ġtender":1389,"oci":1390,"Ġcurrent":1391,"OMP":1392,"OW":1393,"ĠIs":1394,"ĠCare":1395,"ĠTH":1396,"ember":1397,"SA":1398,"ORT":1399,"CL":1400,"ĠNone":1401,"ĠmL":1402,"etail":1403,"MRN":1404,"Ġcapsule":1405,"Ġ90":1406,"espiratory":1407,"Ġheart":1408,"ck":1409,"Ġyears":1410,"Ġret":1411,"Ġmeas":1412,"Ġdec":1413,"uring":1414,"ĠMar":1415,"Ġco":1416,"Ġhem":1417,"Ġclear":1418,"ugh":1419,"Ġmild":1420,"mall":1421,"ISTORY":1422,"Ġpar":1423,"73":1424,"Ġ200":1425,"Ġdiscuss":1426,"Ġhealth":1427,"Ġlobe":1428,"Ġ60":1429,"Electronically":1430,"stit":1431,"Ġcontin":1432,"Ġexp":1433,"Ġoff":1434,"Ġthro":1435,"owel":1436,"Ġwithin":1437,"ache":1438,"ible":1439,"ye":1440,"Ġreceived":1441,"Ġover":1442,"ĠCenter":1443,"blems":1444,"ĠPhone":1445,"ĠRec":1446,"linic":1447,"Ġfe":1448,"ull":1449,"Ġstud":1450,"IR":1451,"Ġevidence":1452,"Ġcare":1453,"ĠSc":1454,"amination":1455,"umor":1456,"ĠPR":1457,"Ġedema":1458,"cohol":1459,"ulse":1460,"Ġ000":1461,"mitt":1462,"Ġcom":1463,"Un":1464,"Ġarter":1465,"Ġtrans":1466,"Ġsignificant":1467,"Ġche":1468,"Ġmonths":1469,"ade":1470,"emia":1471,"ĠSh":1472,"AY":1473,"Ġpel":1474,"200":1475,"SK":1476,"ĠTO":1477,"ust":1478,"struct":1479,"Encounter":1480,"Ġintact":1481,"Ġhour":1482,"ĠSu":1483,"43":1484,"Ġout":1485,"oid":1486,"abet":1487,"Ġblood":1488,"ounds":1489,"Ġnew":1490,"ĠFOR":1491,"LET":1492,"air":1493,"AND":1494,"Ġleg":1495,"sych":1496,"Ġ<":1497,"AST":1498,"sur":1499,"86":1500,"roid":1501,"ather":1502,"Ġthan":1503,"Ġdoes":1504,"iop":1505,"ardiovascular":1506,"Ġtab":1507,"Ġatt":1508,"Ġpost":1509,"76":1510,"Ġlesions":1511,"tered":1512,"Take":1513,"Vital":1514,"Ġ111":1515,"laint":1516,"Ġtreatment":1517,"Ġperson":1518,"Ġgro":1519,"ĠICD":1520,"ez":1521,"Ġacute":1522,"It":1523,"Ġtw":1524,"ition":1525,"ĠType":1526,"Ġweight":1527,"ody":1528,"Ġcy":1529,"Ġtr":1530,"ulos":1531,"erm":1532,"Phone":1533,"42":1534,"Ġone":1535,"TRA":1536,"ious":1537,"FR":1538,"ressure":1539,"Ġcomplet":1540,"ecimen":1541,"ai":1542,"Ġqu":1543,"crib":1544,"ĠApp":1545,"UT":1546,"arm":1547,"indings":1548,"ug":1549,"ĠEDT":1550,"ution":1551,"arkable":1552,"inted":1553,"ARD":1554,"astro":1555,"eb":1556,"ĠCM":1557,"CI":1558,"ĠPain":1559,"History":1560,"ONE":1561,"ĠYes":1562,"arcin":1563,"Ġlab":1564,"Ġtenderness":1565,"Ġsize":1566,"Lab":1567,"ĠTAB":1568,"Ġorder":1569,"Ġabdominal":1570,"Past":1571,"set":1572,"Social":1573,"ĠService":1574,"ĠSex":1575,"las":1576,"Ġmid":1577,"PRESS":1578,"eat":1579,"Ġmedical":1580,"Ġchange":1581,"remarkable":1582,"ĠPer":1583,"ystems":1584,"als":1585,"med":1586,"Ġextrem":1587,"Ġmetast":1588,"ultation":1589,"vent":1590,"ving":1591,"nea":1592,"Ġ\\":1593,"Ġbilaterally":1594,"52":1595,"Ġ26":1596,"ĠPH":1597,"Ġspine":1598,"ervical":1599,"specified":1600,"ĠLeft":1601,"70":1602,"ĠCH":1603,"yes":1604,"ĠHyp":1605,"thm":1606,"ait":1607,"Ġplease":1608,"Name":1609,"Ġtake":1610,"ener":1611,"other":1612,"ĠRo":1613,"ĠAB":1614,"gth":1615,"ĠRight":1616,"96":1617,"iet":1618,"Ġacc":1619,"ese":1620,"OLOGY":1621,"usp":1622,"Ġpast":1623,"ITAL":1624,"ĠPO":1625,"IP":1626,"ued":1627,"Neurolog":1628,"Ġbreast":1629,"Comp":1630,"ĠMedic":1631,"PRESSION":1632,"ĠDO":1633,"rox":1634,"ues":1635,"care":1636,"Normal":1637,"Ġ36":1638,"kelet":1639,"Ġsome":1640,"Ġlevel":1641,"Ġman":1642,"75":1643,"Ġintended":1644,"NT":1645,"Ġlim":1646,"leep":1647,"ITH":1648,"ĠCom":1649,"ata":1650,"Ġlesion":1651,"ĠChest":1652,"ĠEX":1653,"Ġincre":1654,"anged":1655,"Ġdue":1656,"YS":1657,"umm":1658,"CON":1659,"ched":1660,"Ġplan":1661,"Ġhours":1662,"Ġabdomen":1663,"Family":1664,"ret":1665,"FIN":1666,"urs":1667,"abetes":1668,"LY":1669,"Ġintr":1670,"Ġhere":1671,"ĠAm":1672,"iver":1673,"ĠBP":1674,"hythm":1675,"Ġnodes":1676,"Sign":1677,"surance":1678,"inary":1679,"Ġlb":1680,"Ġdep":1681,"ected":1682,"arcinoma":1683,"ox":1684,"iven":1685,"velop":1686,"Ġradi":1687,"keletal":1688,"ocal":1689,"ĠDenies":1690,"Acc":1691,"LA":1692,"ĠâĢŀ":1693,"ons":1694,"Denies":1695,"isk":1696,"Ġweek":1697,"PORT":1698,"Ġfac":1699,"agnos":1700,"MENT":1701,"ultip":1702,"Ġrecent":1703,"Ġmot":1704,"IVE":1705,"Ġ28":1706,"ired":1707,"ausea":1708,"Ġax":1709,"ential":1710,"order":1711,"Ġabout":1712,"hib":1713,"iatric":1714,"ĠIm":1715,"PE":1716,"osc":1717,"la":1718,"Ġpulmonary":1719,"lor":1720,"ARE":1721,"ify":1722,"ics":1723,"ĠIM":1724,"ix":1725,"Ġbowel":1726,"Ġnodule":1727,"iness":1728,"Ġstart":1729,"miss":1730,"escription":1731,"ĠEn":1732,"Ġsee":1733,"Ġonce":1734,"TRAST":1735,"Current":1736,"unction":1737,"yt":1738,"Review":1739,"Ġ21":1740,"FORM":1741,"ALTH":1742,"ĠPos":1743,"yd":1744,"Ġtiss":1745,"Ġver":1746,"Ġur":1747,"Ġ29":1748,"uscle":1749,"Ġsmall":1750,"Ġroute":1751,"Ġlumbar":1752,"usculos":1753,"Assessment":1754,"ipient":1755,"Ġrash":1756,"Ġcough":1757,"idential":1758,"Ġthere":1759,"Ġmc":1760,"ict":1761,"Ġcell":1762,"cribed":1763,"Ġweeks":1764,"ven":1765,"ĠAr":1766,"Ġ27":1767,"Ġop":1768,"Ġprevious":1769,"ĠOut":1770,"Ġconc":1771,"Ġsoft":1772,"Ġep":1773,"Ġresults":1774,"ĠWe":1775,"Ġneck":1776,"iting":1777,"Ġfat":1778,"Ġobt":1779,"ĠUse":1780,"Ġrel":1781,"Allergies":1782,"Ġimaging":1783,"len":1784,"str":1785,"Ġtherapy":1786,"ortness":1787,"Ġear":1788,"Ġsounds":1789,"ĠAP":1790,"ĠOther":1791,"usculoskeletal":1792,"patient":1793,"ĠRange":1794,"Ġinv":1795,"Ġfile":1796,"ectomy":1797,"pr":1798,"ĠCancer":1799,"ane":1800,"2015":1801,"EX":1802,"Ġple":1803,"ĠPresent":1804,"mission":1805,"ally":1806,"80":1807,"stitut":1808,"Ġrate":1809,"ĠRequest":1810,"Per":1811,"Ġpres":1812,"Ġmore":1813,"Ġmedications":1814,"Ġpart":1815,"Ġunspecified":1816,"Ġgl":1817,"Ġsupp":1818,"isc":1819,"Ġtumor":1820,"ysp":1821,"Ġbl":1822,"Ġsince":1823,"Ġartery":1824,"60":1825,"pl":1826,"Ġwork":1827,"ĠDep":1828,"AG":1829,"IF":1830,"structions":1831,"iel":1832,"eph":1833,"ĠUp":1834,"ĠHISTORY":1835,"Ġfollowing":1836,"Provider":1837,"URE":1838,"rine":1839,"ultiple":1840,"erred":1841,"orac":1842,"iopsy":1843,"Ġactiv":1844,"CE":1845,"Ġmy":1846,"cess":1847,"ĠSmok":1848,"Com":1849,"econd":1850,"ray":1851,"Ġstable":1852,"Ġend":1853,"akness":1854,"ĠCONTRAST":1855,"On":1856,"Ġwhe":1857,"ESS":1858,"obacco":1859,"stitutional":1860,"domen":1861,"icult":1862,"Cardiovascular":1863,"istent":1864,"IENT":1865,"atin":1866,"gram":1867,"ĠResults":1868,"Ġrecord":1869,"ĠLe":1870,"ĠRadi":1871,"Ġonly":1872,"ologic":1873,"Ġfever":1874,"charge":1875,"ire":1876,"Ġq":1877,"Ġrecipient":1878,"ILY":1879,"Ġpat":1880,"ĠInf":1881,"Ġreview":1882,"HEST":1883,"Ġcar":1884,"Ġfax":1885,"OSP":1886,"ARY":1887,"Physical":1888,"Reviewed":1889,"ĠVal":1890,"Ġ22":1891,"Ġ98":1892,"Ġdistress":1893,"eling":1894,"Ġcolon":1895,"Ġevaluation":1896,"rap":1897,"erence":1898,"ĠDIS":1899,"urm":1900,"TER":1901,"98":1902,"Pt":1903,"ĠAcc":1904,"ĠShe":1905,"align":1906,"General":1907,"Ġdiscussed":1908,"lev":1909,"aly":1910,"derate":1911,"ĠHospital":1912,"asal":1913,"light":1914,"IMPRESSION":1915,"Ġrecomm":1916,"ĠNJ":1917,"cept":1918,"Ġcall":1919,"ules":1920,"ty":1921,"90":1922,"no":1923,"SH":1924,"Ġfemale":1925,"ICE":1926,"Other":1927,"line":1928,"hal":1929,"ĠLE":1930,"ok":1931,"enous":1932,"Ġ00":1933,"Ġwhen":1934,"Ġent":1935,"Ġ23":1936,"Ġpelvis":1937,"Ġfr":1938,"ipid":1939,"orn":1940,"Ġsever":1941,"ĠWITH":1942,"changed":1943,"ĠBMI":1944,"igue":1945,"Skin":1946,"ummary":1947,"Ġbrain":1948,"ately":1949,"elling":1950,"ologist":1951,"gest":1952,"ti":1953,"Plan":1954,"Ġthrough":1955,"requ":1956,"ĠER":1957,"Ġocc":1958,"Ġgo":1959,"agnost":1960,"itamin":1961,"Pre":1962,"VE":1963,"ils":1964,"ĠOffice":1965,"PAT":1966,"ĠPre":1967,"Ġtissue":1968,"ĠMe":1969,"the":1970,"65":1971,"ĠNe":1972,"ART":1973,"Ġincluding":1974,"OSPITAL":1975,"Ġorient":1976,"ina":1977,"Ġident":1978,"alk":1979,"ĠHEALTH":1980,"ĠON":1981,"ercise":1982,"ination":1983,"rol":1984,"ĠBY":1985,"Ġwho":1986,"ĠDA":1987,"ah":1988,"AKE":1989,"Ġjoint":1990,"hea":1991,"ĠAD":1992,"omiting":1993,"Psych":1994,"Status":1995,"uff":1996,"ool":1997,"100":1998,"ĠCode":1999,"Ġage":2000,"ĠRout":2001,"ropri":2002,"ĠTABLET":2003,"rib":2004,"74":2005,"les":2006,"Ġsup":2007,"ief":2008,"leed":2009,"Ġcalc":2010,"CO":2011,"az":2012,"ĠNO":2013,"Ġsurgery":2014,"ĠLocation":2015,"ĠREPORT":2016,"Ġpressure":2017,"Ġneuro":2018,"otal":2019,"Report":2020,"CP":2021,"Ġstudy":2022,"Ġchronic":2023,"Ġenc":2024,"oracic":2025,"cler":2026,"ITY":2027,"adder":2028,"72":2029,"FT":2030,"Ġtotal":2031,"Follow":2032,"iety":2033,"Ġside":2034,"ins":2035,"ester":2036,"ney":2037,"kely":2038,"Ġthen":2039,"entric":2040,"RI":2041,"ains":2042,"Ġweakness":2043,"Ġgiven":2044,"Ġrhythm":2045,"Ġoriented":2046,"ĠAll":2047,"ĠHOSPITAL":2048,"Ġimages":2049,"uria":2050,"COMP":2051,"Ġrequest":2052,"Ġskin":2053,"ĠNew":2054,"ĠAge":2055,"Ġdes":2056,"yn":2057,"Ġnode":2058,"Sub":2059,"Ġimpro":2060,"Ġclinical":2061,"Ġago":2062,"Ġfl":2063,"man":2064,"els":2065,"ĠTHE":2066,"Ġnausea":2067,"emat":2068,"ech":2069,"Ġmasses":2070,"ĠActive":2071,"Musculoskeletal":2072,"ĠEST":2073,"âĿ":2074,"âĿĳ":2075,"BP":2076,"85":2077,"ĠMedicine":2078,"Ġgr":2079,"xiety":2080,"row":2081,"enal":2082,"ociated":2083,"ffect":2084,"ĠSystems":2085,"Ġreve":2086,"ĠAs":2087,"acy":2088,"ished":2089,"rict":2090,"asis":2091,"Ġdid":2092,"urther":2093,"Neck":2094,"Ġused":2095,"71":2096,"Ġdose":2097,"Ġflu":2098,"ĠII":2099,"Ġwheez":2100,"artment":2101,"ili":2102,"Please":2103,"ĠFamily":2104,"Ġte":2105,"Ġrest":2106,"Ġcervical":2107,"ĠCL":2108,"Ġhep":2109,"larg":2110,"Ġir":2111,"FORMATION":2112,"Ġget":2113,"ps":2114,"ĠPl":2115,"Ġbiopsy":2116,"Ġval":2117,"Health":2118,"rit":2119,"reet":2120,"etails":2121,"Ġ99":2122,"MC":2123,"UMB":2124,"ULT":2125,"ĠRN":2126,"Constitutional":2127,"ĠDE":2128,"ICATION":2129,"AIN":2130,"mother":2131,"ification":2132,"Ġdate":2133,"Ġrequ":2134,"mitted":2135,"adenopathy":2136,"ĠDay":2137,"Ġregular":2138,"ĠLast":2139,"DINGS":2140,"ĠCO":2141,"ision":2142,"Left":2143,"DER":2144,"Ġprovid":2145,"Ġser":2146,"Ġinj":2147,"tic":2148,"Ġmurm":2149,"ĠList":2150,"Ġkn":2151,"bul":2152,"IGH":2153,"Ġ500":2154,"Ġred":2155,"Ġconfidential":2156,"oscopy":2157,"imal":2158,"ices":2159,"mmet":2160,"ĠCar":2161,"ĠINFORMATION":2162,"Ġfindings":2163,"fl":2164,"Ġdevelop":2165,"ardiac":2166,"Ġsleep":2167,"Ġdecre":2168,"ĠAT":2169,"Ġhel":2170,"Ġexamination":2171,"ĠInter":2172,"Ġ110":2173,"Ġmuscle":2174,"izz":2175,"rist":2176,"aches":2177,"ommun":2178,"ĠCl":2179,"Ġ2016":2180,"Ġmcg":2181,"Ġdifficult":2182,"Ġstates":2183,"69":2184,"QUE":2185,"Ġ80":2186,"Ġshowed":2187,"Ġ35":2188,"Ġ31":2189,"Ġtype":2190,"ASE":2191,"Ġlight":2192,"Respiratory":2193,"Clinical":2194,"rength":2195,"ĠGr":2196,"to":2197,"ration":2198,"Ġaort":2199,"pret":2200,"Ġreturn":2201,"Ġdel":2202,"Ġbleed":2203,"Ġdeg":2204,"Ġhigh":2205,"VER":2206,"IES":2207,"GER":2208,"irth":2209,"Right":2210,"ĠAss":2211,"yc":2212,"Ġnow":2213,"ĠPL":2214,"ton":2215,"echn":2216,"Rec":2217,"Ġpresents":2218,"oral":2219,"itations":2220,"ĠMedications":2221,"81":2222,"GEN":2223,"Ġsens":2224,"egaly":2225,"ALL":2226,"ĠQu":2227,"ĠClinic":2228,"111":2229,"Negative":2230,"Ġdem":2231,"itting":2232,"Ġshortness":2233,"Ġnodules":2234,"lected":2235,"ĠSP":2236,"ĠIll":2237,"IEW":2238,"Ġben":2239,"Ġadenopathy":2240,"ĠPrinted":2241,"MED":2242,"Eyes":2243,"ĠMEDICAL":2244,"Ġsinus":2245,"ros":2246,"agnostic":2247,"ĠAllergies":2248,"ĠOnc":2249,"Ġactivity":2250,"Is":2251,"ĠAc":2252,"Ġ75":2253,"aryn":2254,"Ġhypertension":2255,"Ġresp":2256,"ĠReg":2257,"Ġswelling":2258,"ĠTest":2259,"Ġposs":2260,"irst":2261,"Primary":2262,"Ġthy":2263,"To":2264,"uscultation":2265,"87":2266,"ler":2267,"Ġoffice":2268,"ĠSo":2269,"Ġdysp":2270,"DL":2271,"ĠFor":2272,"ĠFL":2273,"Reason":2274,"ĠMSK":2275,"estinal":2276,"Ġsmoker":2277,"Ġidentified":2278,"ĠPrimary":2279,"ĠContrast":2280,"af":2281,"ĠCo":2282,"DOM":2283,"icular":2284,"Ġproblems":2285,"CG":2286,"Ġpo":2287,"Ġpm":2288,"Ġliver":2289,"Ġwall":2290,"Ġobtained":2291,"ĠCont":2292,"Ġaw":2293,"Ġvomiting":2294,"arrhea":2295,"Ġph":2296,"iph":2297,"ts":2298,"Im":2299,"Ġquest":2300,"ĠAuthor":2301,"SE":2302,"NO":2303,"84":2304,"Ġbru":2305,"Ġdirect":2306,"Ġsusp":2307,"onstr":2308,"Ġdone":2309,"Ġ97":2310,"IO":2311,"idual":2312,"illary":2313,"000":2314,"NI":2315,"Ġenlarg":2316,"itus":2317,"Ġfamily":2318,"cal":2319,"ann":2320,"orr":2321,"Col":2322,"Visit":2323,"ouns":2324,"ecial":2325,"Procedure":2326,"ĠAddress":2327,"Ġmedication":2328,"Diagnosis":2329,"ĠDec":2330,"ha":2331,"ĠDe":2332,"rs":2333,"ater":2334,"91":2335,"Ġ33":2336,"ĠFemale":2337,"Ġtaking":2338,"ANCER":2339,"ropriate":2340,"Ġfurther":2341,"ĠEnd":2342,"Ġmotion":2343,"erral":2344,"agement":2345,"hem":2346,"Last":2347,"Ġrange":2348,"PM":2349,"ars":2350,"DATE":2351,"Ġinc":2352,"Ġav":2353,"Ġerr":2354,"astroint":2355,"ĠStreet":2356,"any":2357,"ĠUs":2358,"Ġconcern":2359,"Ġwould":2360,"NP":2361,"Ġasp":2362,"Ġmeasuring":2363,"Ġequ":2364,"PL":2365,"64":2366,"ACC":2367,"Ġdisorder":2368,"izziness":2369,"active":2370,"ELL":2371,"ĠOrdered":2372,"Ġ101":2373,"Ġlateral":2374,"Vitals":2375,"Ġnight":2376,"Ġvisual":2377,"Ġ70":2378,"du":2379,"Ġapprox":2380,"Ġap":2381,"Ġgood":2382,"ae":2383,"astrointestinal":2384,"Ġarea":2385,"ider":2386,"iew":2387,"Ġposterior":2388,"ĠComplaint":2389,"Ġlymphadenopathy":2390,"Ġunremarkable":2391,"ISON":2392,"enn":2393,"Ġallerg":2394,"Ġfocal":2395,"erative":2396,"Ġrad":2397,"VID":2398,"ĠJan":2399,"EST":2400,"Ġpositive":2401,"ĠLow":2402,"Ġ81":2403,"Ġmetastatic":2404,"losure":2405,"ling":2406,"ĠHeart":2407,"ĠCHEST":2408,"ĠSC":2409,"ĠDR":2410,"ĠPER":2411,"FAX":2412,"aced":2413,"Ġmale":2414,"ĠDiagnosis":2415,"ĠDocument":2416,"vic":2417,"Core":2418,"ĠMay":2419,"ĠScre":2420,"ucation":2421,"Dr":2422,"Ġcyst":2423,"ĠThere":2424,"ĠIL":2425,"ĠSub":2426,"action":2427,"ĠReview":2428,"ĠEXAM":2429,"ste":2430,"ĠPulse":2431,"ears":2432,"ĠMon":2433,"PRO":2434,"Ġmuc":2435,"erl":2436,"ink":2437,"ĠInt":2438,"by":2439,"ĠDescription":2440,"FINDINGS":2441,"Ġes":2442,"Ġcompl":2443,"athology":2444,"trem":2445,"vement":2446,"neum":2447,"ĠCANCER":2448,"enosis":2449,"PA":2450,"Ġins":2451,"rial":2452,"Ġel":2453,"Ġincreased":2454,"ĠProcedure":2455,"amm":2456,"otid":2457,"illed":2458,"ĠNP":2459,"ĠBl":2460,"82":2461,"Ġprohib":2462,"Ġdys":2463,"Ġlikely":2464,"oratory":2465,"ession":2466,"ĠSU":2467,"83":2468,"ĠFollow":2469,"Ġbleeding":2470,"Exam":2471,"roup":2472,"All":2473,"chedul":2474,"ĠSurgical":2475,"ĠBlood":2476,"efore":2477,"Ġbet":2478,"OSE":2479,"ILL":2480,"Ġsent":2481,"ĠPET":2482,"umbness":2483,"2014":2484,"acc":2485,"uls":2486,"ĠuL":2487,"Ġrem":2488,"ands":2489,"we":2490,"ranial":2491,"ontinue":2492,"odes":2493,"Author":2494,"At":2495,"93":2496,"ting":2497,"ley":2498,"tra":2499,"Ġheadaches":2500,"aff":2501,"Ġarm":2502,"Ġdiagnosis":2503,"ases":2504,"ĠJo":2505,"ism":2506,"Ġdemonstr":2507,"idney":2508,"ĠDisp":2509,"Chief":2510,"itor":2511,"aring":2512,"97":2513,"onal":2514,"ĠFAX":2515,"Ġvision":2516,"Ġanterior":2517,"Ġcarcinoma":2518,"ĠComplet":2519,"oplas":2520,"Psychiatric":2521,"IAG":2522,"Ġadditional":2523,"utes":2524,"MRI":2525,"Ġboth":2526,"Office":2527,"iled":2528,"63":2529,"Ġinto":2530,"ĠIS":2531,"time":2532,"Ġmem":2533,"ilar":2534,"ointment":2535,"ĠWt":2536,"ĠPat":2537,"ĠImaging":2538,"ĠEl":2539,"ents":2540,"ipation":2541,"61":2542,"Ġplace":2543,"ĠBre":2544,"94":2545,"ĠSigns":2546,"Ġappears":2547,"Medications":2548,"Ġtesting":2549,"Ġthese":2550,"Ġpol":2551,"Ġcase":2552,"Ġusing":2553,"ept":2554,"Ġalert":2555,"Pain":2556,"ĠIt":2557,"ĠRecord":2558,"xt":2559,"App":2560,"Ġmmol":2561,"ipidemia":2562,"Additional":2563,"old":2564,"Ġport":2565,"ĠInd":2566,"itial":2567,"Final":2568,"essage":2569,"Ġgross":2570,"Ġ37":2571,"Ġve":2572,"ĠLymph":2573,"Ġtwo":2574,"SC":2575,"Ġimage":2576,"Ġpt":2577,"Ġem":2578,"ĠSuite":2579,"Ġair":2580,"Medication":2581,"Ġstenosis":2582,"hanc":2583,"As":2584,"alignant":2585,"Ġextremities":2586,"Progress":2587,"entral":2588,"ĠSer":2589,"Ġrisk":2590,"ĠUN":2591,"toc":2592,"dated":2593,"Ġorally":2594,"Ġfatigue":2595,"anding":2596,"ĠDISE":2597,"lob":2598,"Ġcat":2599,"ĠEd":2600,"oplasm":2601,"IAN":2602,"Lymph":2603,"Ġhelp":2604,"CK":2605,"ĠOnset":2606,"Ġdefic":2607,"ank":2608,"PATIENT":2609,"ĠAt":2610,"ym":2611,"erified":2612,"round":2613,"68":2614,"ĠNon":2615,"Ġz":2616,"Ġ32":2617,"ARISON":2618,"stipation":2619,"ense":2620,"Ġid":2621,"ĠThis":2622,"Ġcompleted":2623,"ans":2624,"gn":2625,"ield":2626,"ĠAR":2627,"Ġcontact":2628,"Ġsur":2629,"ĠSoft":2630,"ĠTemp":2631,"Ġstress":2632,"ttending":2633,"ĠâĢĺ":2634,"Ġventric":2635,"Ġcopy":2636,"icious":2637,"SON":2638,"Ġregion":2639,"PER":2640,"OUTH":2641,"67":2642,"ĠCons":2643,"DA":2644,"phal":2645,"ELV":2646,"ĠReviewed":2647,"PR":2648,"ancy":2649,"Ġprohibited":2650,"ASS":2651,"Ġ300":2652,"Ġ74":2653,"thes":2654,"Ġwalk":2655,"agnoses":2656,"econdary":2657,"ipheral":2658,"95":2659,"Tobacco":2660,"uture":2661,"EMOR":2662,"Signed":2663,"ĠOrally":2664,"ni":2665,"Ġheadache":2666,"ysis":2667,"astern":2668,"Ġinvol":2669,"Ġquestions":2670,"From":2671,"Ġmoderate":2672,"NA":2673,"erior":2674,"Ġpri":2675,"ronch":2676,"Ġ38":2677,"ĠIllness":2678,"Ġ72":2679,"Ġcoronary":2680,"Ġeffusion":2681,"Ġaffect":2682,"Ġprocedure":2683,"ĠSY":2684,"odium":2685,"ĠAug":2686,"Ġnext":2687,"nia":2688,"ention":2689,"sw":2690,"ĠJul":2691,"Ġvi":2692,"ided":2693,"ĠBL":2694,"Sh":2695,"ational":2696,"Ġnote":2697,"Location":2698,"anel":2699,"icated":2700,"erring":2701,"OLIC":2702,"ĠMale":2703,"que":2704,"aneous":2705,"ĠOncology":2706,"ĠFR":2707,"Ġerror":2708,"lder":2709,"ĠAS":2710,"ensive":2711,"Ġdiarrhea":2712,"dominal":2713,"ci":2714,"ENTER":2715,"ritis":2716,"Ġunchanged":2717,"year":2718,"leg":2719,"ĠOutpatient":2720,"Ġtob":2721,"ner":2722,"of":2723,"ĠTab":2724,"lection":2725,"roph":2726,"ĠMet":2727,"EMORIAL":2728,"arding":2729,"Ġfrequ":2730,"CA":2731,"Heart":2732,"ĠMO":2733,"ĠWith":2734,"FF":2735,"RES":2736,"Ġscre":2737,"Ġdischarge":2738,"Ġstrength":2739,"iast":2740,"ays":2741,"Ġsug":2742,"62":2743,"elf":2744,"ĠMSKCC":2745,"reg":2746,"COMPARISON":2747,"ĠApr":2748,"Head":2749,"Ġdifficulty":2750,"INICAL":2751,"motherapy":2752,"wise":2753,"ĠRadiology":2754,"Ġtransmission":2755,"ĠDAILY":2756,"ability":2757,"Ġ800":2758,"Ġeye":2759,"Type":2760,"Ġhyd":2761,"Test":2762,"ext":2763,"Ġappropriate":2764,"Weight":2765,"Neurological":2766,"Ġtobacco":2767,"Ġdown":2768,"Ġphysician":2769,"Ġmost":2770,"ribution":2771,"Ġet":2772,"Ġnotify":2773,"Ġhome":2774,"uration":2775,"Ġmultiple":2776,"ailable":2777,"ĠComments":2778,"Imp":2779,"VIEW":2780,"SU":2781,"lant":2782,"Ġcontain":2783,"Ġthick":2784,"MO":2785,"att":2786,"ĠSe":2787,"New":2788,"ĠYork":2789,"Cl":2790,"ASES":2791,"ĠHigh":2792,"Medical":2793,"ĠALLI":2794,"Ġencounter":2795,"Ġsymmet":2796,"loc":2797,"ĠDATE":2798,"ĠMI":2799,"ried":2800,"ĠWeight":2801,"ANT":2802,"Ġpleural":2803,"bral":2804,"Ġfunction":2805,"Ġnone":2806,"Ġ44":2807,"Ġimmed":2808,"ĠAssessment":2809,"Ġexercise":2810,"DOMEN":2811,"Ġ41":2812,"gen":2813,"URO":2814,"Ġpreviously":2815,"Ġgu":2816,"Ġminutes":2817,"ĠProgress":2818,"Ġ45":2819,"ucose":2820,"Physician":2821,"Do":2822,"ĠRAD":2823,"Ġdisclosure":2824,"Specimen":2825,"Ġeffect":2826,"cephal":2827,"Ġnumbness":2828,"Account":2829,"Dis":2830,"IGHT":2831,"Ġcontinue":2832,"ives":2833,"Ġwor":2834,"Ġduring":2835,"ĠNOT":2836,"ĠTAKE":2837,"erlipidemia":2838,"Ġcal":2839,"ator":2840,"GFR":2841,"Ġ53":2842,"END":2843,"Ġdeveloped":2844,"uation":2845,"ERAL":2846,"Ġhaving":2847,"aken":2848,"Ġhearing":2849,"Ġrelease":2850,"Ġalcohol":2851,"raum":2852,"ĠForm":2853,"omegaly":2854,"Ġpalpitations":2855,"ĠAbnormal":2856,"abolic":2857,"Ġcomplaint":2858,"ister":2859,"ison":2860,"ave":2861,"ĠNever":2862,"ĠDISEASES":2863,"CTED":2864,"ĠBr":2865,"Ġprovided":2866,"ontinued":2867,"Ġstarted":2868,"End":2869,"ĠAC":2870,"Ġthoracic":2871,"ernal":2872,"ĠRequested":2873,"Ġinclude":2874,"aj":2875,"ĠDetails":2876,"Ġhip":2877,"ĠALLIED":2878,"Her":2879,"Ġ34":2880,"Gastrointestinal":2881,"Ġhim":2882,"ĠChronic":2883,"Ġdecreased":2884,"ervices":2885,"ĠACC":2886,"Ġbone":2887,"AME":2888,"de":2889,"ising":2890,"avenous":2891,"olution":2892,"ĠMan":2893,"Ġlaw":2894,"CHNI":2895,"ĠPT":2896,"pm":2897,"Ġbody":2898,"Ġfull":2899,"ĠTo":2900,"inn":2901,"ĠSummary":2902,"ope":2903,"KG":2904,"ourished":2905,"mmun":2906,"ĠCOMP":2907,"Ġseiz":2908,"Ġneoplasm":2909,"ĠPositive":2910,"Ġlist":2911,"101":2912,"Ġform":2913,"UC":2914,"Problem":2915,"fort":2916,"ĠJun":2917,"ensity":2918,"Ġwheezing":2919,"Ġnotified":2920,"ful":2921,"ones":2922,"ĠPlease":2923,"Ġ$":2924,"Gen":2925,"Hyp":2926,"ĠSE":2927,"Ġrecommended":2928,"CV":2929,"ayed":2930,"iately":2931,"AGING":2932,"ĠSTAT":2933,"Ġassociated":2934,"Le":2935,"Ġlong":2936,"Inter":2937,"ĠUS":2938,"jun":2939,"Ġca":2940,"Ġbed":2941,"ĠWO":2942,"ICH":2943,"ĠPRN":2944,"Ġshould":2945,"CHNIQUE":2946,"Ġadmin":2947,"otic":2948,"ael":2949,"Am":2950,"Ġconsistent":2951,"ĠFeb":2952,"Ġdiffer":2953,"Ġchills":2954,"TN":2955,"ared":2956,"loy":2957,"spection":2958,"ections":2959,"Ġang":2960,"Ġadj":2961,"Ass":2962,"Chest":2963,"Ġexcept":2964,"Ġspec":2965,"Ġmarg":2966,"11111111":2967,"Ġrelated":2968,"Notes":2969,"Ġant":2970,"ĠMAR":2971,"Ġnumber":2972,"Lung":2973,"reated":2974,"MD":2975,"oss":2976,"ĠOct":2977,"state":2978,"Ġrenal":2979,"THER":2980,"ental":2981,"ww":2982,"Ġfound":2983,"dition":2984,"ĠLAB":2985,"Ġfluid":2986,"ĠOrders":2987,"Ġknown":2988,"Ġsevere":2989,"Ne":2990,"ĠSH":2991,"ĠMo":2992,"olid":2993,"ene":2994,"ildren":2995,"Ġ65":2996,"ĠHCC":2997,"Ġdizziness":2998,"Ġill":2999,"vast":3000,"Ġrh":3001,"ĠTr":3002,"Abdomen":3003,"ĠStart":3004,"None":3005,"tocol":3006,"na":3007,"ĠCor":3008,"Comments":3009,"Ġprovider":3010,"ĠMedication":3011,"Ġlike":3012,"Ġdepression":3013,"cles":3014,"MP":3015,"oot":3016,"enz":3017,"ocyt":3018,"ple":3019,"Ġphysical":3020,"TR":3021,"orth":3022,"jective":3023,"Ġhemat":3024,"ormo":3025,"Ġprimary":3026,"ĠOf":3027,"Ġdirected":3028,"ĠBirth":3029,"Ġmessage":3030,"ĠRes":3031,"ounseling":3032,"Ġ2015":3033,"struction":3034,"Ġavailable":3035,"ĠPrior":3036,"Ġbefore":3037,"cer":3038,"ĠCA":3039,"UP":3040,"othy":3041,"IZ":3042,"venue":3043,"Hg":3044,"ocrine":3045,"Ġbr":3046,"Ġvery":3047,"Ġft":3048,"TECHNIQUE":3049,"ĠExp":3050,"Ġenhanc":3051,"Ġ150":3052,"arynx":3053,"Ġaden":3054,"Ġappearance":3055,"bert":3056,"bing":3057,"Ġradiation":3058,"ulses":3059,"thritis":3060,"DI":3061,"oulder":3062,"ille":3063,"lic":3064,"known":3065,"Ġmidline":3066,"Ġmood":3067,"001":3068,"ĠHead":3069,"osa":3070,"Ġng":3071,"92":3072,"cheduled":3073,"Cor":3074,"LAB":3075,"Ġgait":3076,"enerated":3077,"Ġul":3078,"Mar":3079,"Ġthyroid":3080,"ardial":3081,"Ordering":3082,"Ġwors":3083,"Ġactive":3084,"ĠComment":3085,"Age":3086,"ividual":3087,"Ġ64":3088,"ardiology":3089,"ictated":3090,"IGN":3091,"ĠKnown":3092,"ĠRate":3093,"eric":3094,"ĠAvenue":3095,"Ġdyspnea":3096,"itour":3097,"Ġbeing":3098,"ĠScreening":3099,"Care":3100,"ĠSUR":3101,"not":3102,"ĠED":3103,"ĠCurrent":3104,"2013":3105,"Ġnec":3106,"Ġkidney":3107,"Ġenlarged":3108,"allop":3109,"ystolic":3110,"SY":3111,"CUL":3112,"ource":3113,"Ġchemotherapy":3114,"Ġequal":3115,"0000":3116,"ines":3117,"Ġlimits":3118,"onent":3119,"istered":3120,"ik":3121,"Ġsurgical":3122,"Ġextremity":3123,"itourinary":3124,"ĠNeurolog":3125,"raph":3126,"ĠHypertension":3127,"Surgical":3128,"omet":3129,"Ġsupple":3130,"Ġanxiety":3131,"Ġ212":3132,"Ġdistribution":3133,"ves":3134,"Ġsuspicious":3135,"owever":3136,"Ġpage":3137,"erve":3138,"ĠData":3139,"ERG":3140,"raz":3141,"Ġ61":3142,"Ġgrossly":3143,"ĠCD":3144,"Ġ55":3145,"eled":3146,"Ġknee":3147,"Ġiss":3148,"UMBER":3149,"ĠClinical":3150,"ĠInfo":3151,"Ġgreat":3152,"Ġml":3153,"Ġfilled":3154,"rome":3155,"Ġreveal":3156,"Ġauscultation":3157,"Sc":3158,"eturn":3159,"ĠInstructions":3160,"Ġorg":3161,"OH":3162,"ĠTotal":3163,"Ġ68":3164,"Ġresection":3165,"roc":3166,"Ġimmediately":3167,"'t":3168,"ets":3169,"Ġ78":3170,"roved":3171,"olester":3172,"ERV":3173,"RESS":3174,"ena":3175,"Ġconsider":3176,"Ġtwice":3177,"ĠTrans":3178,"Ġdocuments":3179,"Ġspe":3180,"Ġtechn":3181,"ta":3182,"Ġabs":3183,"anosis":3184,"IDENT":3185,"ENS":3186,"Ġnasal":3187,"Dep":3188,"Ġbased":3189,"CONT":3190,"ĠMA":3191,"Ġpossible":3192,"Ġopt":3193,"ORD":3194,"Ob":3195,"ĠSpine":3196,"En":3197,"itation":3198,"Ġcould":3199,"LC":3200,"ĠGroup":3201,"ĠAbs":3202,"__":3203,"junctiv":3204,"Ġfib":3205,"ND":3206,"Ġoz":3207,"ias":3208,"ĠCalc":3209,"andard":3210,"ross":3211,"Ġview":3212,"Time":3213,"Ġinhal":3214,"Ġrub":3215,"Ġer":3216,"istration":3217,"Ġauthor":3218,"Ġconstipation":3219,"ching":3220,"Hemat":3221,"Ġsuggest":3222,"ĠImp":3223,"thma":3224,"Ġpneum":3225,"ĠValue":3226,"ĠBe":3227,"Ġagain":3228,"ĠOnce":3229,"igrain":3230,"CTION":3231,"Ġread":3232,"Thank":3233,"Ġstudies":3234,"ĠGeneral":3235,"agnosed":3236,"operative":3237,"ichael":3238,"ĠPres":3239,"ĠDirect":3240,"FA":3241,"Ġpanc":3242,"phone":3243,"ouse":3244,"go":3245,"Ġdob":3246,"ĠElectronically":3247,"Insurance":3248,"ĠDepartment":3249,"Ġdiet":3250,"Ġbladder":3251,"Cont":3252,"ĠRES":3253,"ury":3254,"ĠIf":3255,"Ġless":3256,"ĠSite":3257,"Ġclinic":3258,"Orders":3259,"Ġrecon":3260,"For":3261,"Ġsmoking":3262,"Ġcontrol":3263,"ĠDa":3264,"pretation":3265,"mun":3266,"Ġdiabetes":3267,"ĠPROTE":3268,"Ġexert":3269,"rac":3270,"olved":3271,"ĠRoad":3272,"Ġdest":3273,"cephalic":3274,"ĠView":3275,"Ġrepresent":3276,"ĠWill":3277,"Temp":3278,"MG":3279,"ĠPel":3280,"ĠContact":3281,"ĠAve":3282,"ĠJohn":3283,"app":3284,"ĠPt":3285,"ably":3286,"havi":3287,"ĠCOM":3288,"iam":3289,"tein":3290,"Chart":3291,"Ġreported":3292,"REN":3293,"ulation":3294,"itone":3295,"ĠHt":3296,"uter":3297,"rel":3298,"Ġdu":3299,"etite":3300,"sim":3301,"Smok":3302,"Ġaddress":3303,"Ġink":3304,"udy":3305,"Co":3306,"ĠLA":3307,"INAL":3308,"Ġallergies":3309,"Disc":3310,"gl":3311,"vised":3312,"Ġpalpable":3313,"ĠAbdomen":3314,"Ġordered":3315,"Neurologic":3316,"Ġcurrently":3317,"ĠDiff":3318,"Ġprocess":3319,"ĠRoutine":3320,"Me":3321,"Pulse":3322,"Results":3323,"Ġemp":3324,"Ġmanagement":3325,"ĠWh":3326,"tremities":3327,"irc":3328,"Will":3329,"thop":3330,"MIT":3331,"Ġotherwise":3332,"ĠReason":3333,"ĠProblems":3334,"PO":3335,"Imaging":3336,"Ġfract":3337,"UD":3338,"ĠNUMBER":3339,"ula":3340,"ĠEastern":3341,"side":3342,"Ġhyper":3343,"lux":3344,"Ġstrict":3345,"TO":3346,"ĠInsurance":3347,"Ġrepeat":3348,"ulated":3349,"bl":3350,"Wh":3351,"VA":3352,"uk":3353,"Ġ51":3354,"Ġepis":3355,"aining":3356,"CED":3357,"ĠCBC":3358,"ĠRefill":3359,"Ġmeasures":3360,"olum":3361,"ĠCapsule":3362,"Ġcyanosis":3363,"ĠRel":3364,"Ġest":3365,"ĠNeck":3366,"OUT":3367,"Ġalong":3368,"Ph":3369,"roll":3370,"ush":3371,"FIDENT":3372,"RAN":3373,"Ar":3374,"Ġsubc":3375,"olicy":3376,"Ġshows":3377,"Ion":3378,"EE":3379,"Ġ59":3380,"Ġrequired":3381,"OSIS":3382,"ĠDisease":3383,"ril":3384,"Ġintravenous":3385,"Ġtoler":3386,"Ġhereby":3387,"vastatin":3388,"leen":3389,"ĠSurgery":3390,"ĠCENTER":3391,"itals":3392,"irin":3393,"Ġcontinued":3394,"ĠCAP":3395,"arrow":3396,"Ġmediast":3397,"Ġnose":3398,"IB":3399,"ndrome":3400,"OX":3401,"cedures":3402,"iency":3403,"MA":3404,"Ġact":3405,"OOD":3406,"Ġdil":3407,"lephone":3408,"ATIVE":3409,"Address":3410,"FIDENTIAL":3411,"MON":3412,"UNG":3413,"elt":3414,"ormocephalic":3415,"uto":3416,"Ic":3417,"His":3418,"Allerg":3419,"Ġ77":3420,"ICD":3421,"ellitus":3422,"ĠUnremarkable":3423,"YN":3424,"Ġloc":3425,"onse":3426,"STEM":3427,"ĠTIM":3428,"AMIN":3429,"Ġproblem":3430,"she":3431,"ĠORAL":3432,"ml":3433,"Ġinjection":3434,"Ġcheck":3435,"egment":3436,"Ġ315":3437,"INT":3438,"ĠmmHg":3439,"ĠCPT":3440,"ales":3441,"enerative":3442,"Ġmurmurs":3443,"Ġcells":3444,"face":3445,"Ġ39":3446,"Ġdocumented":3447,"ĠTaking":3448,"ĠIb":3449,"ward":3450,"Ġscler":3451,"osure":3452,"ERT":3453,"Ġthroat":3454,"Ġelev":3455,"reatin":3456,"ĠAlcohol":3457,"Ġ001":3458,"ĠIns":3459,"ĠUr":3460,"Ġprivi":3461,"ANCE":3462,"arn":3463,"ĠOb":3464,"Ġour":3465,"ysm":3466,"Ġ48":3467,"ott":3468,"Ġflex":3469,"Ġunderst":3470,"ĠFac":3471,"ĠMc":3472,"ĠDaily":3473,"Blood":3474,"esthes":3475,"ĠMother":3476,"ĠDI":3477,"ĠPAT":3478,"olute":3479,"less":3480,"swer":3481,"oler":3482,"Ġrecorded":3483,"vant":3484,"ocarcinoma":3485,"Home":3486,"simile":3487,"ĠPHYS":3488,"Ġ66":3489,"termin":3490,"Ġrespiratory":3491,"MPH":3492,"ĠMem":3493,"lol":3494,"ĠWell":3495,"ulf":3496,"ĠDiagnoses":3497,"CEDURE":3498,"Int":3499,"ana":3500,"Ġwww":3501,"CLINICAL":3502,"Ġspecimen":3503,"ĠRefills":3504,"ĠMOUTH":3505,"Ac":3506,"ĠDiabetes":3507,"Ġ96":3508,"ett":3509,"Ġcomplete":3510,"angu":3511,"ured":3512,"ĠPELV":3513,"Ġbelow":3514,"aternal":3515,"upils":3516,"ĠDose":3517,"ony":3518,"Ġ88":3519,"ips":3520,"Ġ42":3521,"va":3522,"Ġable":3523,"reatinine":3524,"HISTORY":3525,"Ġlabs":3526,"rn":3527,"Ġ76":3528,"Ġ73":3529,"imately":3530,"Qu":3531,"ara":3532,"ĠCollected":3533,"asound":3534,"htt":3535,"Ġcopying":3536,"rin":3537,"Ġpatients":3538,"Ġbetter":3539,"ĠSmoking":3540,"REAT":3541,"lexes":3542,"ĠGI":3543,"Ġ@":3544,"Pulmonary":3545,"Ġremo":3546,"Neuro":3547,"Ġfact":3548,"Mother":3549,"earing":3550,"Ġaortic":3551,"Impression":3552,"Ġ`":3553,"OUR":3554,"opic":3555,"ĠFl":3556,"orks":3557,"Ġbronch":3558,"leged":3559,"Ġaxillary":3560,"Ġslight":3561,"ĠGl":3562,"Ġstrictly":3563,"Ġ718":3564,"ĠPROVID":3565,"Ġos":3566,"IOLOGY":3567,"ĠLung":3568,"HPI":3569,"AINS":3570,"Ġdiss":3571,"Ġsubmitted":3572,"eros":3573,"IUM":3574,"ISIT":3575,"acement":3576,"Ġgrade":3577,"ĠUnits":3578,"Ġsender":3579,"Ġrect":3580,"yl":3581,"Ġov":3582,"Ġbec":3583,"Ġcover":3584,"Ġrecommend":3585,"tebral":3586,"Ġpred":3587,"KE":3588,"ĠResp":3589,"2012":3590,"ĠYears":3591,"Ġaround":3592,"ĠPC":3593,"Sex":3594,"Ġ130":3595,"110":3596,"mit":3597,"Note":3598,"ĠId":3599,"Ġ46":3600,"illing":3601,"ober":3602,"MS":3603,"Ġmax":3604,"Ġbenef":3605,"Ġabnormality":3606,"CPT":3607,"ently":3608,"Mild":3609,"ĠHAND":3610,"ville":3611,"Ġfail":3612,"Printed":3613,"FE":3614,"ĠDisc":3615,"Ġvalve":3616,"Ġcap":3617,"Ġhepat":3618,"Ġmade":3619,"ĠâĿĳ":3620,"ĠHeight":3621,"Ġreactive":3622,"ĠRO":3623,"IAGN":3624,"Ġmonitor":3625,"ĠQuest":3626,"atio":3627,"heter":3628,"utaneous":3629,"Ġhospital":3630,"ĠGL":3631,"ites":3632,"Number":3633,"unct":3634,"Ġlarge":3635,"ĠDo":3636,"ĠCC":3637,"Ġgallop":3638,"erved":3639,"RIC":3640,"ĠRD":3641,"anguage":3642,"Ġcardiac":3643,"Ing":3644,"ier":3645,"Ġmurmur":3646,"Ġcommun":3647,"lock":3648,"ĠMS":3649,"Ġ63":3650,"MT":3651,"Ġdoing":3652,"Ġeach":3653,"ROS":3654,"eps":3655,"RY":3656,"Ġsyndrome":3657,"ĠExternal":3658,"Ġmob":3659,"ĠCDT":3660,"Alcohol":3661,"orial":3662,"ĠHx":3663,"irm":3664,"hyroid":3665,"ĠSYSTEM":3666,"ength":3667,"Ġname":3668,"amed":3669,"asional":3670,"Ġfree":3671,"Ġevi":3672,"Ġ54":3673,"Ġimmun":3674,"ĠRfl":3675,"ĠHPI":3676,"Ġsigns":3677,"ĠPROTECTED":3678,"lopathy":3679,"Ġdiagnosed":3680,"Ġmellitus":3681,"VD":3682,"Ġprivileged":3683,"ĠRR":3684,"ĠFr":3685,"Ġstool":3686,"Ġdistal":3687,"COM":3688,"rosis":3689,"Comment":3690,"otass":3691,"OLICY":3692,"AGE":3693,"Ġyrs":3694,"raphy":3695,"Ġprescribed":3696,"BMI":3697,"IDE":3698,"Height":3699,"Ġexertion":3700,"Ġsystem":3701,"ĠRegular":3702,"Ġsuch":3703,"ĠSte":3704,"ĠBilateral":3705,"eats":3706,"ĠME":3707,"ĠPark":3708,"Ġsite":3709,"ĠAnd":3710,"Ġ400":3711,"xy":3712,"LOG":3713,"Ġmove":3714,"ura":3715,"Ġcr":3716,"Ġ71":3717,"Ġ56":3718,"ĠVerified":3719,"ames":3720,"Ġive":3721,"ĠLumbar":3722,"ATH":3723,"Ġfew":3724,"Case":3725,"HEENT":3726,"Ġ62":3727,"arett":3728,"ICATIONS":3729,"urb":3730,"Ġcomplaints":3731,"ĠSTE":3732,"ife":3733,"ĠBrain":3734,"Exp":3735,"Ġabnormalities":3736,"ĠRequ":3737,"Ġinfl":3738,"Ġpelvic":3739,"Ġaxial":3740,"Ġappetite":3741,"Ġ49":3742,"Ġthickening":3743,"land":3744,"alg":3745,"izing":3746,"ifer":3747,"Ġdata":3748,"Ġrashes":3749,"Ġery":3750,"Ġclub":3751,"ITE":3752,"Ġeducation":3753,"fen":3754,"Genitourinary":3755,"Ġhepatic":3756,"Car":3757,"Ġfall":3758,"itu":3759,"ĠRelease":3760,"aract":3761,"Ġpalpation":3762,"irmed":3763,"PHYS":3764,"otassium":3765,"ĠHome":3766,"Ġthree":3767,"ki":3768,"ĠScan":3769,"IAT":3770,"ĠPOLICY":3771,"erves":3772,"Ġquad":3773,"razole":3774,"Radi":3775,"Ġscreening":3776,"utom":3777,"ptake":3778,"Ġsystems":3779,"pple":3780,"au":3781,"orrh":3782,"Ġlbs":3783,"ĠSkin":3784,"ĠBreast":3785,"ĠLV":3786,"ORDING":3787,"ĠCAR":3788,"Ġthroughout":3789,"ĠTobacco":3790,"ĠNeed":3791,"uary":3792,"Ġtop":3793,"Ġreli":3794,"Ġsupport":3795,"ĠFROM":3796,"Healthcare":3797,"icu":3798,"Lungs":3799,"loride":3800,"OUNT":3801,"Ġthey":3802,"Ġ52":3803,"ined":3804,"Document":3805,"Site":3806,"ĠFrom":3807,"ophage":3808,"ĠHANDLE":3809,"ĠEntered":3810,"ĠDAY":3811,"Ġventricular":3812,"Ġissues":3813,"rolled":3814,"dle":3815,"ĠLevel":3816,"Ġindividual":3817,"ĠCARE":3818,"lectronic":3819,"ĠMy":3820,"ĠSPINE":3821,"alm":3822,"ĠFather":3823,"ĠRep":3824,"Ġurinary":3825,"igarett":3826,"Ġshoulder":3827,"omas":3828,"CONTAINS":3829,"roat":3830,"armacy":3831,"Ġ355":3832,"ĠBRA":3833,"Ġmaint":3834,"erature":3835,"ĠPELVIS":3836,"ĠACCORDING":3837,"ammo":3838,"bal":3839,"inent":3840,"rother":3841,"ari":3842,"ĠState":3843,"Ġnotes":3844,"ĠCOP":3845,"Ġreveals":3846,"ĠRecorded":3847,"Ġperipheral":3848,"ĠDaylight":3849,"Total":3850,"ĠResulted":3851,"ncope":3852,"eless":3853,"til":3854,"Ġsim":3855,"Ġwalking":3856,"Ġnecess":3857,"structive":3858,"VEN":3859,"Ġ2014":3860,"MCH":3861,"GI":3862,"raumatic":3863,"ruct":3864,"Ġgeneral":3865,"Ġseries":3866,"Ġrn":3867,"ingling":3868,"Ġpoint":3869,"Ġstill":3870,"ingle":3871,"ĠPCP":3872,"Ġentire":3873,"roy":3874,"thod":3875,"Ġ57":3876,"Su":3877,"chedule":3878,"etailed":3879,"CARD":3880,"Ġnerve":3881,"ĠCR":3882,"MAN":3883,"anic":3884,"ape":3885,"ĠPROVIDER":3886,"ĠBID":3887,"Ġcyc":3888,"Ġpulses":3889,"Ordered":3890,"Ġorig":3891,"ĠSO":3892,"Dictated":3893,"ophen":3894,"ĠExamination":3895,"ĠTe":3896,"ophageal":3897,"ĠReference":3898,"Sin":3899,"Ġcc":3900,"Ġworse":3901,"Ġtheir":3902,"ists":3903,"Ġ58":3904,"Ġ69":3905,"Ġcarotid":3906,"Ġbpm":3907,"Ġhernia":3908,"Se":3909,"RN":3910,"rient":3911,"ĠAttending":3912,"Ġ125":3913,"ded":3914,"ĠMichael":3915,"CARE":3916,"ĠPressure":3917,"ĠIII":3918,"IAGNOSIS":3919,"Ġtemp":3920,"Ġimproved":3921,"Ġinfection":3922,"inger":3923,"reh":3924,"Ġuptake":3925,"AA":3926,"Ġ47":3927,"tender":3928,"ica":3929,"accine":3930,"lom":3931,"Ġfron":3932,"Ġaorta":3933,"Ġrece":3934,"ĠPelvis":3935,"last":3936,"Has":3937,"eline":3938,"ĠVitamin":3939,"Ġregarding":3940,"Ġtaken":3941,"iration":3942,"Cons":3943,"COP":3944,"led":3945,"RON":3946,"Ġits":3947,"Ġing":3948,"ids":3949,"LEY":3950,"ĠABDOMEN":3951,"ĠEKG":3952,"ches":3953,"Ġyo":3954,"ĠKn":3955,"ĠPa":3956,"oday":3957,"Ġ85":3958,"Ġerythe":3959,"iltr":3960,"chi":3961,"FER":3962,"way":3963,"kle":3964,"Ġcongest":3965,"Ġasc":3966,"Ġ732":3967,"Start":3968,"Ġnever":3969,"onia":3970,"ĠBE":3971,"Ġdifferent":3972,"ĠIMAGING":3973,"per":3974,"ĠMild":3975,"otor":3976,"Ġapproximately":3977,"aged":3978,"Ġfirst":3979,"Ġreflux":3980,"Ġnourished":3981,"ĠNeuro":3982,"iving":3983,"Ġattach":3984,"El":3985,"ĠSin":3986,"atelet":3987,"Ġround":3988,"Ġfacsimile":3989,"rant":3990,"omfort":3991,"Ġpers":3992,"Ġsl":3993,"Ġresponse":3994,"Ġfeels":3995,"asure":3996,"Ġsensation":3997,"Non":3998,"entin":3999,"Ġsec":4000,"Ġneurolog":4001,"ady":4002,"ually":4003,"Father":4004,"Prior":4005,"Description":4006,"olerance":4007,"Ġti":4008,"emog":4009,"Mon":4010,"ĠHR":4011,"ĠAg":4012,"Ġ^":4013,"Ġ43":4014,"Ġhr":4015,"rees":4016,"Ġsymmetric":4017,"ĠPe":4018,"ME":4019,"NEURO":4020,"unt":4021,"HC":4022,"Ġech":4023,"me":4024,"ferred":4025,"ĠRx":4026,"ĠLaboratory":4027,"Ġvisualized":4028,"aph":4029,"ontender":4030,"ĠFuture":4031,"ĠMEMORIAL":4032,"seous":4033,"ĠEast":4034,"Request":4035,"Ġrecords":4036,"ĠPrint":4037,"Ġperform":4038,"olesterol":4039,"Ġ120":4040,"Ġplaced":4041,"ĠML":4042,"Ġrevealed":4043,"OTAL":4044,"ĠBSA":4045,"VAS":4046,"licable":4047,"Referring":4048,"criber":4049,"ICIAN":4050,"went":4051,"Ġstop":4052,"ĠMCG":4053,"ORE":4054,"Ġdeform":4055,"Ġwarm":4056,"ĠTN":4057,"Ġfood":4058,"Ġmemory":4059,"Ġrecurrent":4060,"vem":4061,"ĠVISIT":4062,"Active":4063,"ardiogram":4064,"reas":4065,"EMENT":4066,"renal":4067,"Ġil":4068,"icter":4069,"astolic":4070,"lobin":4071,"ores":4072,"ĠEm":4073,"ĠAlert":4074,"CS":4075,"Ġ250":4076,"ivers":4077,"ĠInc":4078,"uclear":4079,"Ġcentral":4080,"ĠCompleted":4081,"ĠWest":4082,"Ġ67":4083,"Ġult":4084,"Ġinitial":4085,"Ġconcerns":4086,"Ġ84":4087,"ĠConf":4088,"Ġtub":4089,"Ġstage":4090,"Ġsweats":4091,"ajor":4092,"Ġmovements":4093,"Ġseizures":4094,"119":4095,"Performed":4096,"Ġexhib":4097,"yte":4098,"ERGIES":4099,"Works":4100,"olume":4101,"ĠAssoci":4102,"amp":4103,"ĠEst":4104,"itoneal":4105,"ĠAllerg":4106,"You":4107,"SP":4108,"Ġstate":4109,"Ġenter":4110,"Rad":4111,"Ġsegment":4112,"ĠSch":4113,"DG":4114,"Ġclubbing":4115,"Ġyes":4116,"ĠApril":4117,"ussed":4118,"akes":4119,"ĠSee":4120,"Ġincrease":4121,"eri":4122,"Ġpatent":4123,"Ġmoist":4124,"Ġtests":4125,"ĠPanel":4126,"ĠVitals":4127,"Ġinflamm":4128,"Ġmediastinal":4129,"QU":4130,"Ġ516":4131,"ĠSmoker":4132,"iti":4133,"Ġbedtime":4134,"ĠRT":4135,"ĠPart":4136,"CY":4137,"Ġspinal":4138,"hip":4139,"uL":4140,"ĠMEDIC":4141,"Return":4142,"orax":4143,"Ġtone":4144,"ceased":4145,"Ġ95":4146,"ERS":4147,"Ġhand":4148,"Ġmargin":4149,"ĠNOD":4150,"ssential":4151,"ĠNM":4152,"urse":4153,"GICAL":4154,"alpation":4155,"roke":4156,"eptember":4157,"ophag":4158,"ouch":4159,"bran":4160,"ĠDirector":4161,"Ġsat":4162,"Ġmucosa":4163,"Ġugs":4164,"esity":4165,"Ġface":4166,"ĠPost":4167,"Smoking":4168,"Ġ600":4169,"ĠChe":4170,"ĠClear":4171,"olec":4172,"Ġstated":4173,"Ġdegenerative":4174,"iot":4175,"avicular":4176,"Ġadenocarcinoma":4177,"ĠGrand":4178,"CBC":4179,"TON":4180,"ĠOctober":4181,"VI":4182,"ontinence":4183,"ocytes":4184,"Ġatraumatic":4185,"Ġii":4186,"Ġra":4187,"UB":4188,"used":4189,"LL":4190,"etamin":4191,"iog":4192,"ĠDavid":4193,"Gender":4194,"oh":4195,"uch":4196,"ological":4197,"ĠPAN":4198,"RAL":4199,"Ġsecond":4200,"Continue":4201,"Extremities":4202,"ussion":4203,"Ġmother":4204,"ware":4205,"ruary":4206,"ĠMarch":4207,"lowing":4208,"ORK":4209,"Ġexposure":4210,"ĠCr":4211,"XR":4212,"ximal":4213,"Ġdescribed":4214,"Ġcompared":4215,"ĠAugust":4216,"Ġrout":4217,"opt":4218,"Ġbul":4219,"etaminophen":4220,"Ġfracture":4221,"Ġvess":4222,"itedHealthcare":4223,"ĠDel":4224,"fusion":4225,"Ġperic":4226,"Ġterm":4227,"vember":4228,"ĠPerformed":4229,"Ġec":4230,"itary":4231,"ĠRd":4232,"Ġrefills":4233,"ĠTop":4234,"actions":4235,"ters":4236,"odone":4237,"Ġmorn":4238,"Ġlungs":4239,"arrative":4240,"GENERAL":4241,"Bre":4242,"ĠLa":4243,"Ġchildren":4244,"FINAL":4245,"vers":4246,"IONAL":4247,"Ġmod":4248,"Ġfrequency":4249,"ongue":4250,"Ġflow":4251,"Resp":4252,"ĠHemat":4253,"Ġadvised":4254,"erican":4255,"Ġtreated":4256,"ĠUP":4257,"ĠSitting":4258,"rate":4259,"Ġpolyp":4260,"stance":4261,"ĠCOL":4262,"Ġtingling":4263,"Ġappointment":4264,"enance":4265,"ACK":4266,"ĠSPE":4267,"ĠTX":4268,"ĠNeurology":4269,"Ġdestroy":4270,"125":4271,"Low":4272,"Ġster":4273,"DE":4274,"Ġstruct":4275,"chem":4276,"Ġthough":4277,"Ġduct":4278,"ĠMod":4279,"opro":4280,"ĠBen":4281,"romb":4282,"Ġinterval":4283,"Ġla":4284,"ĠOrdering":4285,"Ġscheduled":4286,"TEST":4287,"ĠAVE":4288,"Ġ86":4289,"ĠPar":4290,"Â°":4291,"Ġprotocol":4292,"ergency":4293,"ctor":4294,"ĠUpdated":4295,"dist":4296,"Ġpuff":4297,"Yes":4298,"ĠSat":4299,"ique":4300,"BUN":4301,"Ġmult":4302,"Ġut":4303,"Ġerythema":4304,"pos":4305,"Ġcatheter":4306,"Ind":4307,"Ġpack":4308,"rea":4309,"Ġinject":4310,"ĠSm":4311,"NY":4312,"Endocrine":4313,"Ġmel":4314,"ĠFACC":4315,"abap":4316,"ĠNAME":4317,"ĠComplete":4318,"OMY":4319,"Ġunit":4320,"Ġdiscomfort":4321,"Ġunc":4322,"Ġunderwent":4323,"ĠJanuary":4324,"anced":4325,"VERY":4326,"Ġsection":4327,"ATORY":4328,"Complet":4329,"Ġreferral":4330,"ĠPE":4331,"inop":4332,"Ġsame":4333,"Ġate":4334,"Ġbenign":4335,"Ġjsp":4336,"iculopathy":4337,"Ġnontender":4338,"Ġhemorrh":4339,"regular":4340,"Ġrecently":4341,"Ġfeeling":4342,"Pat":4343,"ĠJune":4344,"ĠRobert":4345,"Ġentity":4346,"cent":4347,"Ġapplicable":4348,"RT":4349,"ĠThroat":4350,"LV":4351,"Ġcounseling":4352,"Pl":4353,"ordination":4354,"Ġneeds":4355,"Ġgenerated":4356,"ĠMel":4357,"ĠTherapy":4358,"ĠCP":4359,"ĠREC":4360,"etic":4361,"Ġindicated":4362,"pathy":4363,"Ġhowever":4364,"Ġbruising":4365,"ĠPATIENT":4366,"uced":4367,"ĠGu":4368,"Ġareas":4369,"asp":4370,"Ġlimited":4371,"iversity":4372,"aterial":4373,"Ġ93":4374,"Ġ325":4375,"ĠMET":4376,"Ġmotor":4377,"utic":4378,"Ġreferred":4379,"ĠJuly":4380,"ĠAccession":4381,"ĠExt":4382,"Ġenhancement":4383,"OPH":4384,"Ġdim":4385,"Ġess":4386,"ĠSpecial":4387,"âĢĶ":4388,"ĠCount":4389,"ALT":4390,"urred":4391,"Att":4392,"istor":4393,"ĠSignature":4394,"lavicular":4395,"Ġnamed":4396,"esthesia":4397,"Ġpe":4398,"Ġmorning":4399,"INATION":4400,"verse":4401,"Ġupon":4402,"ĠSy":4403,"Ġ79":4404,"ms":4405,"Ġprostate":4406,"RBC":4407,"enza":4408,"ĠRad":4409,"arison":4410,"Ġelevated":4411,"Ġhealthcare":4412,"AMILY":4413,"jection":4414,"Abdominal":4415,"UG":4416,"Ġinvolving":4417,"astric":4418,"RED":4419,"going":4420,"ĠChrist":4421,"ca":4422,"INS":4423,"Ġexc":4424,"Ġmigrain":4425,"ĠImmun":4426,"011":4427,"Ġ140":4428,"earance":4429,"AH":4430,"Ġeffects":4431,"ATED":4432,"Ġfollowed":4433,"abapentin":4434,"ĠLY":4435,"urysm":4436,"Ġprogress":4437,"for":4438,"ĠSI":4439,"RAM":4440,"Ġinjury":4441,"Ġupdated":4442,"RENT":4443,"Ġabuse":4444,"Ġvia":4445,"ommend":4446,"ĠSIGN":4447,"Ġexhibits":4448,"Ġni":4449,"De":4450,"2010":4451,"ette":4452,"aine":4453,"eff":4454,"Ġcere":4455,"Ġpersonal":4456,"bably":4457,"Ġ82":4458,"Ġextension":4459,"Rel":4460,"rophy":4461,"ĠHCI":4462,"Ġhealthy":4463,"Therapy":4464,"FI":4465,"CD":4466,"tected":4467,"ĠReceived":4468,"ittal":4469,"ĠNorth":4470,"umin":4471,"Ġinvas":4472,"Ġ1000":4473,"Ġquadrant":4474,"aa":4475,"Ġosseous":4476,"rehensive":4477,"Your":4478,"Ġeas":4479,"PART":4480,"ĠSpecimen":4481,"Ġcontinues":4482,"Ġmalignant":4483,"Ġ94":4484,"Ġworsening":4485,"Ġcommunication":4486,"ĠPATH":4487,"vd":4488,"ECT":4489,"ĠPulmonary":4490,"Ġarth":4491,"Ġadministration":4492,"ĠCre":4493,"ĠAccount":4494,"ock":4495,"Accession":4496,"luenza":4497,"ĠMON":4498,"ov":4499,"PHYSICAL":4500,"Ġmembran":4501,"oseph":4502,"ĠColon":4503,"Out":4504,"ĠLI":4505,"Ġdiagnostic":4506,"raclavicular":4507,"ĠNPI":4508,"uscular":4509,"lenomegaly":4510,"rt":4511,"iiii":4512,"ĠPort":4513,"Ġdetermin":4514,"ALE":4515,"Ġseveral":4516,"Ġfoot":4517,"Summary":4518,"Ġmark":4519,"Ġfailure":4520,"unn":4521,"oids":4522,"isks":4523,"ĠSystem":4524,"ĠRisk":4525,"ogn":4526,"ats":4527,"Ġexternal":4528,"Pos":4529,"ĠBack":4530,"Ġoste":4531,"Ġredu":4532,"Ġain":4533,"Chronic":4534,"ĠTEST":4535,"ĠASS":4536,"ourse":4537,"Ġcert":4538,"ACT":4539,"ĠPhysical":4540,"abl":4541,"Ġspeech":4542,"hel":4543,"ĠFacility":4544,"ĠDes":4545,"off":4546,"onchi":4547,"ederal":4548,"IND":4549,"iaz":4550,"ĠDocumentation":4551,"Ġbase":4552,"GATIVE":4553,"ĠLaw":4554,"ĠNov":4555,"Ġrales":4556,"Ġgland":4557,"VIL":4558,"acral":4559,"Doc":4560,"Ġwhile":4561,"ĠHA":4562,"Ġpath":4563,"Ġpg":4564,"uterol":4565,"VAL":4566,"Ġcirc":4567,"ĠSur":4568,"ĠCardiology":4569,"ĠStandard":4570,"Ġaccess":4571,"orph":4572,"Id":4573,"affe":4574,"agittal":4575,"vanced":4576,"Ġdelayed":4577,"ommon":4578,"ibly":4579,"ĠPLAN":4580,"enied":4581,"Ġcontained":4582,"distended":4583,"alt":4584,"ĠLi":4585,"Ġhematuria":4586,"CULAR":4587,"Ġslightly":4588,"OHN":4589,"Ġsections":4590,"ellow":4591,"ĠMg":4592,"head":4593,"ances":4594,"ĠMark":4595,"Ġlegs":4596,"Ġultr":4597,"vention":4598,"GERD":4599,"buterol":4600,"Instructions":4601,"mental":4602,"itle":4603,"OLE":4604,"bladder":4605,"ĠeviCore":4606,"ĠWilliam":4607,"ĠSi":4608,"LOW":4609,"Ġmember":4610,"Ġcycle":4611,"criptions":4612,"di":4613,"LEASE":4614,"cessive":4615,"ĠAdmin":4616,"ford":4617,"Ġtelephone":4618,"Ġwal":4619,"vacy":4620,"ĠPathology":4621,"Ġfield":4622,"ĠSYSTEMS":4623,"Ġindex":4624,"ĠContinue":4625,"Ġfacility":4626,"HENT":4627,"ĠSeptember":4628,"Ġadult":4629,"Ġdet":4630,"Ġoverall":4631,"Ġfind":4632,"Ġbecause":4633,"Ġsitting":4634,"ĠRADIOLOGY":4635,"ĠBRAIN":4636,"LUNG":4637,"Ġsore":4638,"Ġri":4639,"ĠHTN":4640,"uinal":4641,"omach":4642,"aline":4643,"Ġobs":4644,"Ġ89":4645,"ccup":4646,"ĠProblem":4647,"ĠPAIN":4648,"BS":4649,"Ġtrem":4650,"nt":4651,"asone":4652,"Ġintolerance":4653,"ĠHFA":4654,"ceed":4655,"GU":4656,"ĠFDG":4657,"mittent":4658,"ĠROS":4659,"aginal":4660,"Il":4661,"ĠMemorial":4662,"Tr":4663,"RD":4664,"alignancy":4665,"Ġadrenal":4666,"Ġcav":4667,"Ġtablets":4668,"LEX":4669,"allbladder":4670,"Ġlocal":4671,"ĠACT":4672,"iliac":4673,"ESSMENT":4674,"Pres":4675,"Ġopac":4676,"ĠHg":4677,"Ġgreater":4678,"Ġphone":4679,"Ġauthorization":4680,"ned":4681,"ĠWBC":4682,"Ġrespons":4683,"reatic":4684,"ĠServer":4685,"Ġct":4686,"Ġcongestion":4687,"alog":4688,"ĠUNIT":4689,"Ġsolid":4690,"ixed":4691,"ĠCa":4692,"EXAM":4693,"ĠFebruary":4694,"800":4695,"Calc":4696,"Ġ2013":4697,"Ġwo":4698,"enic":4699,"Ġfour":4700,"NESS":4701,"ortic":4702,"ĠREVIEW":4703,"ĠMM":4704,"actice":4705,"325":4706,"uscles":4707,"aracter":4708,"Ġsyncope":4709,"Ġped":4710,"Ġknow":4711,"duction":4712,"Ġnodular":4713,"ump":4714,"ĠNovember":4715,"Ġneg":4716,"Ġrubs":4717,"hat":4718,"Ġdisturb":4719,"ĠLAD":4720,"Ġgen":4721,"Ġorgan":4722,"2011":4723,"ĠAssociates":4724,"scriber":4725,"Gl":4726,"Ġsn":4727,"Ġ91":4728,"atures":4729,"Ġincontinence":4730,"bumin":4731,"ĠALL":4732,"Ġms":4733,"Ġultrasound":4734,"ĠEvalu":4735,"Ġposition":4736,"Ġinferior":4737,"PIR":4738,"Ġ712":4739,"lowshe":4740,"ĠfL":4741,"Ġuntil":4742,"ored":4743,"ĠEOM":4744,"lasma":4745,"Ġconsent":4746,"Ġpartial":4747,"ĠPANEL":4748,"Ġmaterial":4749,"ĠEVERY":4750,"ĠCell":4751,"Attending":4752,"UMBAR":4753,"Ġproximal":4754,"Ġev":4755,"ĠSERV":4756,"ibility":4757,"https":4758,"Ġobstruction":4759,"Bas":4760,"VC":4761,"ants":4762,"Ġischem":4763,"ĠINTER":4764,"Ġinfiltr":4765,"ĠCOPD":4766,"ammogram":4767,"Ġapproved":4768,"ectal":4769,"ĠdL":4770,"ĠFAC":4771,"ĠDecember":4772,"400":4773,"Ġqual":4774,"Ġresolved":4775,"Ġperi":4776,"Treatment":4777,"ĠTreatment":4778,"Trans":4779,"Ġnt":4780,"erential":4781,"iber":4782,"ĠCAD":4783,"PARTMENT":4784,"Ġ83":4785,"Ġpathology":4786,"ĠSep":4787,"urrence":4788,"ĠMember":4789,"reci":4790,"âĸ":4791,"OUS":4792,"ĠBR":4793,"ĠAtt":4794,"Ġcannot":4795,"imated":4796,"Ġwhite":4797,"Ms":4798,"Ġpoor":4799,"Ġsuperior":4800,"con":4801,"Ġdysuria":4802,"Ġdeficiency":4803,"ĠHY":4804,"GL":4805,"specific":4806,"Ġlymphoma":4807,"Ġane":4808,"Ur":4809,"Ġcanal":4810,"ĠRA":4811,"aid":4812,"114":4813,"Ġflexion":4814,"bulatory":4815,"Ġpur":4816,"Component":4817,"ench":4818,"aniel":4819,"Ġfeel":4820,"ĠDon":4821,"Ġsupraclavicular":4822,"rid":4823,"ĠEN":4824,"Reference":4825,"Ġmic":4826,"Ġcolonoscopy":4827,"ĠUR":4828,"essation":4829,"Findings":4830,"ĠScore":4831,"Ġurine":4832,"etter":4833,"Ġmiddle":4834,"oli":4835,"Ġreason":4836,"ita":4837,"eth":4838,"Ġoccasional":4839,"Ġcount":4840,"Ġservices":4841,"ĠServices":4842,"Ġrd":4843,"Ġanswer":4844,"Ġmalignancy":4845,"FL":4846,"mploy":4847,"Ġantib":4848,"Code":4849,"MEMORIAL":4850,"ĠAf":4851,"STIC":4852,"Ġmes":4853,"affeine":4854,"Ġshort":4855,"Ġrhonchi":4856,"Ġpal":4857,"ĠDone":4858,"ĠPHYSICIAN":4859,"Ġaccomp":4860,"ĠHER":4861,"Ġcolor":4862,"ĠDiagnostic":4863,"Ġassessment":4864,"Department":4865,"Ġlet":4866,"ĠFOL":4867,"ĠIr":4868,"ransp":4869,"1957":4870,"ressed":4871,"ĠBas":4872,"ĠPerform":4873,"Ġappreci":4874,"Ed":4875,"Body":4876,"Ġlabeled":4877,"ĠSocial":4878,"ems":4879,"ĠNose":4880,"104":4881,"Rep":4882,"Ġath":4883,"Jo":4884,"ened":4885,"010":4886,"Ġunits":4887,"ides":4888,"Level":4889,"Val":4890,"PS":4891,"Abs":4892,"Ġvenous":4893,"utomated":4894,"After":4895,"ĠAng":4896,"Ġsecondary":4897,"ading":4898,"ĠTY":4899,"pport":4900,"function":4901,"ĠWork":4902,"Reg":4903,"moid":4904,"ĠMalignant":4905,"ky":4906,"Post":4907,"ITAMIN":4908,"ĠLLC":4909,"ĠONE":4910,"Ġprint":4911,"vertic":4912,"ĠNEW":4913,"Ġclo":4914,"ĠInspection":4915,"ilt":4916,"Ġbehavi":4917,"Ġpert":4918,"UTE":4919,"ĠUsed":4920,"veloped":4921,"ĠSpec":4922,"pro":4923,"Ġvein":4924,"ĠROM":4925,"Ġfactors":4926,"Ġscans":4927,"Ġmetastasis":4928,"Ġ112":4929,"117":4930,"Ġstent":4931,"Ġmetastases":4932,"Mr":4933,"Opt":4934,"ĠEXAMINATION":4935,"aker":4936,"ĠPast":4937,"1955":4938,"isinop":4939,"ĠRoute":4940,"ellar":4941,"ĠCARD":4942,"WBC":4943,"orb":4944,"Ġonset":4945,"Ġnd":4946,"PAST":4947,"Ġglands":4948,"SUR":4949,"Ġapnea":4950,"ĠSig":4951,"dend":4952,"ĠBar":4953,"Ġpersonally":4954,"Ġnarrow":4955,"REVIEW":4956,"Ġsheet":4957,"Rout":4958,"1956":4959,"Ġcondition":4960,"Ġarran":4961,"ĠInhal":4962,"igarettes":4963,"Ġmuch":4964,"Ġspray":4965,"ISS":4966,"burn":4967,"Ġquit":4968,"oo":4969,"ĠJames":4970,"xygen":4971,"Ġinfar":4972,"loor":4973,"Ġbreathing":4974,"ĠPRE":4975,"Ġeyes":4976,"HEM":4977,"Ġleast":4978,"Service":4979,"ittle":4980,"Ġwheezes":4981,"Ġvascular":4982,"Ġfrontal":4983,"ĠTHIS":4984,"Ġhilar":4985,"Ġmovement":4986,"hyd":4987,"rick":4988,"Ġassess":4989,"Verified":4990,"REAS":4991,"Ġbas":4992,"ranu":4993,"Ġremoved":4994,"Ġsmoke":4995,"Sens":4996,"Ġnecessary":4997,"gent":4998,"Ġevaluate":4999,"Part":5000,"PROCEDURE":5001,"omin":5002,"EC":5003,"Ġfem":5004,"Ġ108":5005,"ĠPharmacy":5006,"Ġ973":5007,"Ġcold":5008,"ĠNeg":5009,"ubin":5010,"ĠLateral":5011,"Ġot":5012,"Ġaneurysm":5013,"GB":5014,"ĠAbdominal":5015,"ĠChanges":5016,"Ġwr":5017,"ĠES":5018,"asant":5019,"Ġther":5020,"Ġunderstanding":5021,"Ġdemonstrated":5022,"Ġline":5023,"utroph":5024,"itral":5025,"isinopril":5026,"ocardiogram":5027,"024":5028,"Ġobstructive":5029,"ĠECG":5030,"ĠSOB":5031,"ĠWITHOUT":5032,"Ġgoing":5033,"Ġcre":5034,"ichard":5035,"Ġpericardial":5036,"MEDICAL":5037,"ĠXR":5038,"Ir":5039,"acer":5040,"agm":5041,"Ġevent":5042,"ĠDepression":5043,"LUNGS":5044,"acent":5045,"ĠSN":5046,"ĠPed":5047,"ĠPriority":5048,"Ġtend":5049,"ĠAnn":5050,"ĠPolicy":5051,"ĠConsult":5052,"ĠSL":5053,"Ġindic":5054,"Back":5055,"ĠSHE":5056,"ĠCONT":5057,"Ġmildly":5058,"Ġinguinal":5059,"ĠStage":5060,"oice":5061,"Ġsignal":5062,"Ġ109":5063,"ocyte":5064,"ĠBlvd":5065,"ĠMic":5066,"Ġmal":5067,"Ġoriginal":5068,"ĠAq":5069,"roidism":5070,"Ġfacial":5071,"LOR":5072,"ĠCV":5073,"isone":5074,"Ġsystolic":5075,"rill":5076,"erosol":5077,"Ġesophag":5078,"1959":5079,"ĠClass":5080,"Ġnerves":5081,"requency":5082,"ĠUser":5083,"isition":5084,"ĠSw":5085,"sided":5086,"eprazole":5087,"osin":5088,"usions":5089,"apse":5090,"Ġtreat":5091,"oppl":5092,"Ġgain":5093,"Signature":5094,"Ġmat":5095,"urgitation":5096,"Ġbal":5097,"Rx":5098,"ĠPhD":5099,"ĠHyperlipidemia":5100,"ĠHealthcare":5101,"ustom":5102,"177":5103,"Ġ87":5104,"thing":5105,"DocType":5106,"061":5107,"den":5108,"ĠAnxiety":5109,"Ġbenefits":5110,"yle":5111,"Ġroom":5112,"upro":5113,"1958":5114,"oprolol":5115,"ORMAL":5116,"ĠRadiologist":5117,"866":5118,"ote":5119,"rium":5120,"ĠCommun":5121,"aim":5122,"Ġinterpretation":5123,"ĠManagement":5124,"CN":5125,"Ġinfo":5126,"AV":5127,"egument":5128,"ISH":5129,"Print":5130,"oll":5131,"Ġrisks":5132,"Ġfevers":5133,"Ġreceive":5134,"Ġtouch":5135,"atigue":5136,"Ġthose":5137,"Associated":5138,"CIS":5139,"Ġunless":5140,"ording":5141,"ĠGender":5142,"Ġlif":5143,"Cardiac":5144,"roch":5145,"ĠGRO":5146,"optysis":5147,"Ġagree":5148,"ĠLEFT":5149,"ĠDIF":5150,"Mo":5151,"ĠOx":5152,"Ġinternal":5153,"augh":5154,"imum":5155,"ĠUnknown":5156,"ĠRIGHT":5157,"Fac":5158,"REEN":5159,"ocus":5160,"ĠBody":5161,"Ġcharacter":5162,"ger":5163,"Dec":5164,"Ġow":5165,"Ġviews":5166,"uprofen":5167,"TRE":5168,"rey":5169,"Over":5170,"Ġaspect":5171,"ĠOP":5172,"ĠGE":5173,"ĠEMR":5174,"rical":5175,"weight":5176,"ĠUniversity":5177,"vir":5178,"ĠROB":5179,"Ġlisted":5180,"Che":5181,"Ġtri":5182,"sc":5183,"300":5184,"ifications":5185,"ĠKe":5186,"ĠDL":5187,"ĠAuthorization":5188,"lit":5189,"esophageal":5190,"PCP":5191,"ĠEssential":5192,"ĠUl":5193,"arian":5194,"ĠRESULT":5195,"ĠIndex":5196,"Ġclin":5197,"ĠCAL":5198,"Ġask":5199,"Vitamin":5200,"Ġ160":5201,"Ġaspirin":5202,"ĠCST":5203,"Perform":5204,"developed":5205,"ped":5206,"ĠLUMBAR":5207,"xic":5208,"Immun":5209,"ocardial":5210,"ĠNormocephalic":5211,"ĠMr":5212,"izations":5213,"Ġpersistent":5214,"Ġimprovement":5215,"gression":5216,"enia":5217,"These":5218,"ĠPosition":5219,"ĠMICH":5220,"GERY":5221,"Ġgallops":5222,"Ġradiculopathy":5223,"Ġrestrict":5224,"Ġke":5225,"red":5226,"ĠMain":5227,"EG":5228,"ĠPATHOLOGY":5229,"TAKE":5230,"ĠSURGICAL":5231,"Ġinks":5232,"Gait":5233,"ises":5234,"agia":5235,"Ġmuscles":5236,"ences":5237,"Ġorthop":5238,"ĠMin":5239,"CHEST":5240,"verage":5241,"Breast":5242,"Ġattached":5243,"Ġfeet":5244,"118":5245,"ager":5246,"ĠNOTE":5247,"Ġ004":5248,"ĠReported":5249,"ĠInternal":5250,"Ġcycles":5251,"NOSTIC":5252,"Ġdecrease":5253,"ĠEp":5254,"tract":5255,"oppler":5256,"ilir":5257,"uvant":5258,"ĠSodium":5259,"Ġtan":5260,"Ġcontrolled":5261,"Ġfrequent":5262,"ela":5263,"ulin":5264,"Ġspent":5265,"eal":5266,"Ġset":5267,"Ġbruits":5268,"ĠWH":5269,"ĠTim":5270,"Ġasthma":5271,"ĠPlaced":5272,"Oral":5273,"emoglobin":5274,"vice":5275,"Ġthromb":5276,"Radiology":5277,"Ġservice":5278,"Ġ92":5279,"ĠTOTAL":5280,"arent":5281,"RAPH":5282,"ĠTIME":5283,"structed":5284,"onic":5285,"sey":5286,"rosc":5287,"ĠmE":5288,"1960":5289,"Ġcord":5290,"PAGE":5291,"Does":5292,"019":5293,"1954":5294,"Ġexamin":5295,"ĠTSH":5296,"inc":5297,"ĠAppearance":5298,"ĠMass":5299,"term":5300,"Ġrt":5301,"Taking":5302,"Previous":5303,"BL":5304,"iatic":5305,"OSCOP":5306,"ĠAmerican":5307,"ĠEducation":5308,"rr":5309,"igo":5310,"Ġmut":5311,"Ġ866":5312,"Ġconjunctiv":5313,"ĠStable":5314,"AEL":5315,"roper":5316,"ĠCollection":5317,"013":5318,"ĠPRES":5319,"ĠBI":5320,"ĠACCT":5321,"Narrative":5322,"ĠSS":5323,"ĠRespiratory":5324,"Ġmobiled":5325,"ĠRest":5326,"Cancer":5327,"ĠMultiple":5328,"Ġ117":5329,"Ġmedial":5330,"Ġeffort":5331,"bs":5332,"ĠYORK":5333,"esis":5334,"heum":5335,"ĠGU":5336,"ĠFIN":5337,"Ġintermittent":5338,"Ġom":5339,"ĠOFF":5340,"ria":5341,"yster":5342,"ĠVis":5343,"ALLERGIES":5344,"ĠeGFR":5345,"IAGNOSTIC":5346,"ameter":5347,"ĠAnt":5348,"Ġprop":5349,"Inf":5350,"ondy":5351,"ĠLO":5352,"Ġtry":5353,"Ġconsultation":5354,"artan":5355,"ĠCS":5356,"ĠBro":5357,"sequ":5358,"Ġsm":5359,"Ġevaluated":5360,"ĠEC":5361,"Onc":5362,"ĠCONFIDENTIAL":5363,"DR":5364,"reased":5365,"OMA":5366,"Ġresidual":5367,"Up":5368,"Ġdissem":5369,"Ġentered":5370,"Ġexperi":5371,"Work":5372,"rier":5373,"Inc":5374,"Ġbeg":5375,"Ġextra":5376,"Diff":5377,"Ġdysfunction":5378,"ĠCE":5379,"Man":5380,"Ġurg":5381,"Ġpot":5382,"ĠTW":5383,"ĠENT":5384,"ĠReports":5385,"ĠDischarge":5386,"ASSESSMENT":5387,"ĠLOW":5388,"Ġreflexes":5389,"ĠSUV":5390,"LECT":5391,"Ġ002":5392,"ĠDx":5393,"Completed":5394,"ycle":5395,"Ġminimal":5396,"016":5397,"Quest":5398,"achea":5399,"Ġhyperlipidemia":5400,"Ġregurgitation":5401,"ea":5402,"ĠLYMPH":5403,"RIST":5404,"Diabetes":5405,"ĠJOHN":5406,"ĠWI":5407,"Ġepisodes":5408,"ĠAbsolute":5409,"Ġ003":5410,"ĠAllergy":5411,"Ġwhere":5412,"NEUROLOG":5413,"Ġdensity":5414,"well":5415,"work":5416,"Ears":5417,"ĠThomas":5418,"OGRAPH":5419,"lod":5420,"Ġschedule":5421,"ĠOp":5422,"Ġrecurrence":5423,"Ġpregn":5424,"NL":5425,"OCIAL":5426,"Em":5427,"Ġrib":5428,"Ġatrial":5429,"Ġsocial":5430,"ICK":5431,"Ġ2012":5432,"Ġsk":5433,"Gy":5434,"och":5435,"ĠMouth":5436,"Ġvertebral":5437,"May":5438,"Ġhx":5439,"Ġ030":5440,"Ġintake":5441,"Ġpanel":5442,"Contact":5443,"Ġtt":5444,"ABDOMEN":5445,"RU":5446,"Ġtongue":5447,"ums":5448,"Member":5449,"Ġstomach":5450,"omnia":5451,"ĠAcute":5452,"ĠCI":5453,"OK":5454,"ĠTRAN":5455,"Cranial":5456,"Ġinhaler":5457,"Ġchart":5458,"lying":5459,"ĠOrient":5460,"ĠGen":5461,"ander":5462,"Ġ104":5463,"Ġspas":5464,"ĠEL":5465,"ILS":5466,"120":5467,"Ġsubcutaneous":5468,"ĠUL":5469,"Ġheard":5470,"ĠContinued":5471,"ĠMa":5472,"Objective":5473,"cm":5474,"Ġcontents":5475,"Ġpartic":5476,"Ġirregular":5477,"Ġscore":5478,"orvastatin":5479,"Res":5480,"itten":5481,"Ġblock":5482,"Ġvitamin":5483,"Ġparench":5484,"ĠOm":5485,"ILLI":5486,"1961":5487,"ĠSTATEMENT":5488,"MUN":5489,"Ġspecific":5490,"duct":5491,"Ġrequested":5492,"ĠLoc":5493,"Ġanswered":5494,"ĠDEPARTMENT":5495,"atest":5496,"RADI":5497,"Requested":5498,"Ġarrange":5499,"lab":5500,"ĠNA":5501,"ropharynx":5502,"ONES":5503,"Ġsensory":5504,"iate":5505,"Ġuter":5506,"Ro":5507,"ursing":5508,"Ġib":5509,"Ġdeep":5510,"EY":5511,"Ġgetting":5512,"ham":5513,"Ġnarrowing":5514,"Ġswal":5515,"Met":5516,"ribut":5517,"ypical":5518,"Ġrequire":5519,"Ġassist":5520,"Ġanemia":5521,"Ġdemonstrates":5522,"ĠSTATUS":5523,"ilirubin":5524,"ĠNS":5525,"INA":5526,"Tel":5527,"Study":5528,"tremity":5529,"ĠAppointment":5530,"arp":5531,"Ġrelief":5532,"ĠPAR":5533,"ĠReferral":5534,"500":5535,"ĠOne":5536,"isf":5537,"MCV":5538,"Sig":5539,"Ġsimilar":5540,"Ġspleen":5541,"Ġdiffuse":5542,"Ġxml":5543,"Ġdated":5544,"Ġfelt":5545,"Ġpromin":5546,"ires":5547,"COLOGY":5548,"Ġmedic":5549,"ĠScale":5550,"Referral":5551,"View":5552,"Ġinsurance":5553,"ĠStress":5554,"CM":5555,"ĠNOR":5556,"hagia":5557,"Ġactuation":5558,"ĠSouth":5559,"ophil":5560,"ĠFNP":5561,"Ġspecial":5562,"Ġseizure":5563,"Ġ180":5564,"Ġamount":5565,"Discussed":5566,"CONFIDENTIAL":5567,"ĠDOS":5568,"etry":5569,"Auth":5570,"ĠMat":5571,"Ġsolution":5572,"Ġprovide":5573,"Ġproceed":5574,"Ġexon":5575,"BSA":5576,"Never":5577,"OWN":5578,"017":5579,"rican":5580,"ani":5581,"Labs":5582,"losed":5583,"vin":5584,"MAR":5585,"ĠMid":5586,"gr":5587,"othyroidism":5588,"ĠTw":5589,"Ġextended":5590,"ministered":5591,"COR":5592,"Ġthem":5593,"141":5594,"geon":5595,"Ġaff":5596,"Ġaction":5597,"berg":5598,"Ġlarg":5599,"ĠCervical":5600,"Diag":5601,"romegaly":5602,"Ġ908":5603,"ĠGERD":5604,"agnes":5605,"Ġ005":5606,"antity":5607,"Ġnear":5608,"ĠArter":5609,"BER":5610,"ertification":5611,"Ġlevels":5612,"Ġsagittal":5613,"empt":5614,"ĠILL":5615,"cr":5616,"Ġobtain":5617,"Ġvar":5618,"Ġexcessive":5619,"asting":5620,"mits":5621,"Ġguid":5622,"Ġcourse":5623,"TI":5624,"levant":5625,"lt":5626,"ĠEff":5627,"Ġenlargement":5628,"hale":5629,"Ġ00000":5630,"dendum":5631,"abits":5632,"ĠPHONE":5633,"ĠEM":5634,"Ġneuropathy":5635,"Op":5636,"ĠStudy":5637,"ĠOTHER":5638,"Ġprogression":5639,"Ill":5640,"ten":5641,"ĠAdult":5642,"atIon":5643,"ning":5644,"Ġformal":5645,"ANS":5646,"ween":5647,"ĠMult":5648,"Subjective":5649,"Ġrectal":5650,"Ġepisode":5651,"Ġadjacent":5652,"112":5653,"uous":5654,"1962":5655,"ĠCalcium":5656,"III":5657,"Ġpattern":5658,"INIC":5659,"ciled":5660,"SPE":5661,"Ġdeformity":5662,"thalm":5663,"ĠModerate":5664,"epend":5665,"ĠEar":5666,"roub":5667,"cribe":5668,"glish":5669,"Ġ354":5670,"ILE":5671,"ĠREG":5672,"STER":5673,"Ġtra":5674,"egumentary":5675,"Ġthigh":5676,"Hypertension":5677,"Ġdiaph":5678,"ety":5679,"iated":5680,"Stable":5681,"Conf":5682,"My":5683,"OTHER":5684,"ino":5685,"equ":5686,"attered":5687,"udit":5688,"Ġ114":5689,"ĠMary":5690,"Ġincludes":5691,"ĠNODES":5692,"Ġtoo":5693,"Ġmast":5694,"ĠStrength":5695,"Abnormal":5696,"Thyroid":5697,"her":5698,"icteric":5699,"Ġ102":5700,"2000":5701,"ysterectomy":5702,"ĠCough":5703,"ĠPsych":5704,"Techn":5705,"ORDER":5706,"ĠSource":5707,"ĠJoseph":5708,"ĠCMS":5709,"udg":5710,"ĠBilling":5711,"lapse":5712,"ĠAction":5713,"ĠTopics":5714,"bo":5715,"Ġdefin":5716,"Ġbel":5717,"ĠMetabolic":5718,"ĠDIAGNOSIS":5719,"Ġadd":5720,"Ġdispl":5721,"Ġankle":5722,"RIPT":5723,"bor":5724,"Ġsed":5725,"stitute":5726,"aud":5727,"Ġchild":5728,"ivity":5729,"ĠCap":5730,"Ġfacet":5731,"nn":5732,"ĠMaint":5733,"Lumbar":5734,"ĠFe":5735,"Secondary":5736,"ĠDist":5737,"ĠImages":5738,"iii":5739,"Ġwalse":5740,"ĠNEED":5741,"SKIN":5742,"ĠTHOR":5743,"ationship":5744,"oper":5745,"Ġ10065":5746,"See":5747,"ella":5748,"Ġresponsible":5749,"ls":5750,"Ġillness":5751,"ermet":5752,"quired":5753,"Ġoptions":5754,"ĠCONS":5755,"RS":5756,"Examination":5757,"Ġstarting":5758,"alysis":5759,"REL":5760,"ĠPRESENT":5761,"Ġpancreas":5762,"Ġdos":5763,"ĠMST":5764,"Female":5765,"PN":5766,"anoma":5767,"Ġdissemination":5768,"Ġsep":5769,"ennifer":5770,"acranial":5771,"THE":5772,"ĠDOM":5773,"ĠRECORD":5774,"ĠSmokeless":5775,"TEN":5776,"lim":5777,"ĠLine":5778,"ĠIND":5779,"SO":5780,"bable":5781,"Ġ106":5782,"ĠUrine":5783,"Ġrepair":5784,"ĠScreen":5785,"igned":5786,"OCY":5787,"ĠSerum":5788,"stant":5789,"Ġ113":5790,"ĠAZ":5791,"Ġsingle":5792,"ĠAuto":5793,"Ġdeficits":5794,"PLAN":5795,"Ġhemoptysis":5796,"ylen":5797,"ĠOUT":5798,"Ġ006":5799,"ophils":5800,"ring":5801,"Ġsubject":5802,"oe":5803,"Ġmeds":5804,"iter":5805,"ways":5806,"oar":5807,"ĠCoronary":5808,"External":5809,"ĠSymptoms":5810,"Ġroutine":5811,"ĠDetailed":5812,"vey":5813,"Ġrule":5814,"Glucose":5815,"ĠSever":5816,"ĠNEGATIVE":5817,"Ġlocation":5818,"LD":5819,"Multiple":5820,"atation":5821,"ardia":5822,"ĠConsultation":5823,"NS":5824,"Ġwhat":5825,"ĠBLOOD":5826,"Ġpass":5827,"ĠJoint":5828,"iffness":5829,"Ġdeceased":5830,"1963":5831,"Ġlength":5832,"ĠPoss":5833,"Ġthyromegaly":5834,"author":5835,"HS":5836,"RAY":5837,"ĠCOVER":5838,"rouble":5839,"Ġrefer":5840,"Ġstructures":5841,"ĠBreath":5842,"Ġforam":5843,"018":5844,"ĠCardiovascular":5845,"ympanic":5846,"VILLE":5847,"OMED":5848,"REE":5849,"Ġ205":5850,"ĠTE":5851,"OSCOPY":5852,"Ġascites":5853,"VASCULAR":5854,"Ġaddressed":5855,"Ġbetween":5856,"Ġ103":5857,"Ġ609":5858,"Hospital":5859,"148":5860,"Range":5861,"Ġjust":5862,"Ġtube":5863,"ĠVer":5864,"ither":5865,"ĠOFFICE":5866,"dl":5867,"Ġcomplications":5868,"rolog":5869,"Ġlob":5870,"113":5871,"ĠFE":5872,"Ġemb":5873,"Ġ11111":5874,"Us":5875,"ĠDES":5876,"aque":5877,"Ġmake":5878,"atitis":5879,"ĠSam":5880,"ocular":5881,"ĠALT":5882,"Ġconfirm":5883,"ĠmEq":5884,"Mem":5885,"eness":5886,"Ġpresented":5887,"ritical":5888,"utum":5889,"ĠRoom":5890,"Ġpancreatic":5891,"ĠFindings":5892,"ĠProtein":5893,"Ġsch":5894,"ENN":5895,"Ġpleasant":5896,"Group":5897,"ĠInclud":5898,"ATA":5899,"Ġainage":5900,"iri":5901,"olecyst":5902,"Ġprotected":5903,"NAME":5904,"ĠDM":5905,"Ġwom":5906,"Ġears":5907,"Ġabsent":5908,"116":5909,"ĠHIP":5910,"Ġox":5911,"PET":5912,"fer":5913,"Ġheight":5914,"ĠCity":5915,"Ġ705":5916,"though":5917,"Ġreduction":5918,"Ġrepl":5919,"osacral":5920,"Ġutil":5921,"ĠPI":5922,"CU":5923,"ka":5924,"ĠBUN":5925,"ĠPSA":5926,"Diagnostic":5927,"Ġappend":5928,"nourished":5929,"Ġiliac":5930,"ĠFormer":5931,"unctional":5932,"Ġ}":5933,"Ġsodium":5934,"DO":5935,"arcoma":5936,"Ġpall":5937,"Ġagent":5938,"115":5939,"Ġdoctor":5940,"ends":5941,"ĠKY":5942,"ĠIntact":5943,"Ġcontains":5944,"ĠIntr":5945,"Ġorders":5946,"109":5947,"ĠmcL":5948,"Ġsurface":5949,"ĠEch":5950,"ĠGlucose":5951,"Ġmembranes":5952,"Ġhypert":5953,"ht":5954,"QUEST":5955,"Ġinstructions":5956,"ĠGastro":5957,"ditions":5958,"ARM":5959,"Ġarteries":5960,"ĠAPRN":5961,"Ġfinger":5962,"istry":5963,"Str":5964,"Ġdegrees":5965,"Options":5966,"ĠSleep":5967,"Ġpulse":5968,"Ġsaw":5969,"Ġdecision":5970,"Ġdiscussion":5971,"Ġoutside":5972,"opl":5973,"WAY":5974,"Ġmar":5975,"214":5976,"ĠGFR":5977,"ĠRatio":5978,"Ġrot":5979,"ĠHematology":5980,"ĠSoftware":5981,"arant":5982,"Ġtight":5983,"Ġvert":5984,"1964":5985,"Marital":5986,"ĠAST":5987,"ĠSupple":5988,"gia":5989,"NECK":5990,"ĠCMP":5991,"Ġappreciated":5992,"ĠBC":5993,"ĠYOU":5994,"102":5995,"ĠInv":5996,"ĠVIEW":5997,"Ġexpl":5998,"agnesium":5999,"issa":6000,"date":6001,"ĠLo":6002,"Ġemploy":6003,"Ġcircum":6004,"ĠHer":6005,"ĠAct":6006,"LYMPH":6007,"atives":6008,"ROID":6009,"ĠDaniel":6010,"Ġly":6011,"ĠSHEET":6012,"Ġunknown":6013,"umbosacral":6014,"Te":6015,"ĠThyroid":6016,"za":6017,"ĠHem":6018,"Ġgastro":6019,"MM":6020,"ADD":6021,"Ġparticip":6022,"Ġsit":6023,"Ġpneumonia":6024,"ĠRash":6025,"Ġ105":6026,"Problems":6027,"adol":6028,"ulations":6029,"Ġspace":6030,"ĠHyd":6031,"ocaine":6032,"ĠPERR":6033,"VT":6034,"Ġappro":6035,"ĠIT":6036,"Reported":6037,"Ġmobiledoc":6038,"Ġhow":6039,"Ġpotential":6040,"vertebral":6041,"ĠProf":6042,"Ġvaginal":6043,"Ġurination":6044,"Ġmajor":6045,"FROM":6046,"raphic":6047,"SM":6048,"Ġcompression":6049,"014":6050,"ĠHI":6051,"ĠFirst":6052,"ĠCOR":6053,"edness":6054,"ĠSURGERY":6055,"rav":6056,"ĠJer":6057,"Ġure":6058,"Ġfil":6059,"ĠNI":6060,"ĠNEURO":6061,"Ġdefect":6062,"Ht":6063,"ipt":6064,"Ġic":6065,"Ġsac":6066,"ĠGROUP":6067,"Ġma":6068,"Wt":6069,"reen":6070,"Ġcardi":6071,"Recommend":6072,"Ġdilatation":6073,"ĠVER":6074,"ymptomatic":6075,"Ag":6076,"ĠNational":6077,"Ġâ":6078,"Ġtolerated":6079,"Ġanother":6080,"SYCH":6081,"Ġinflammatory":6082,"oscopic":6083,"ĠADD":6084,"Ġbehavior":6085,"Ġatelect":6086,"STE":6087,"PHONE":6088,"ida":6089,"Ġson":6090,"Ġearly":6091,"HY":6092,"ĠMaintenance":6093,"rauma":6094,"AI":6095,"Gu":6096,"High":6097,"uses":6098,"rog":6099,"ĠCalculated":6100,"ĠIMPRESSION":6101,"ĠHep":6102,"Ġchanged":6103,"ACE":6104,"Ġjoints":6105,"106":6106,"Ġnormocephalic":6107,"Ġactivities":6108,"ĠLL":6109,"neys":6110,"Interval":6111,"ACH":6112,"Ġfinding":6113,"ĠLower":6114,"Ġinhalation":6115,"103":6116,"SULE":6117,"ĠSM":6118,"Ġapparent":6119,"Ġperiod":6120,"aise":6121,"Ġarthritis":6122,"Ġ2010":6123,"OGRAPHY":6124,"Motor":6125,"Ġmain":6126,"ĠMIN":6127,"Ġ107":6128,"Ġintra":6129,"ĠCreate":6130,"ĠMedicare":6131,"Ġpa":6132,"Ġsix":6133,"ĠGe":6134,"ams":6135,"URA":6136,"Ġconsolid":6137,"ANY":6138,"phthalm":6139,"Ġsciatic":6140,"ĠVI":6141,"Ġol":6142,"abeth":6143,"ĠCustom":6144,"IEF":6145,"ĠPol":6146,"Ġ2011":6147,"Ġdiameter":6148,"ĠBo":6149,"ington":6150,"oster":6151,"Ġnonspecific":6152,"eds":6153,"isa":6154,"ird":6155,"ĠCK":6156,"Ġretroper":6157,"ĠChart":6158,"Ġ920":6159,"yspnea":6160,"Ġpink":6161,"ĠSize":6162,"Ġpap":6163,"Ġadministered":6164,"ĠAsp":6165,"150":6166,"IVER":6167,"Ġhrs":6168,"Ġdepend":6169,"ĠRiver":6170,"ĠSexual":6171,"Ġdeliver":6172,"ĠDept":6173,"Ġdivertic":6174,"MCHC":6175,"Ġpending":6176,"AMES":6177,"rew":6178,"Ġann":6179,"ituitary":6180,"Ġpatch":6181,"LAND":6182,"Ġ008":6183,"ĠNausea":6184,"Ġgabapentin":6185,"ĠSW":6186,"Ġrr":6187,"ĠActiv":6188,"Ins":6189,"ĠCOMPLA":6190,"ĠNext":6191,"Ġulcer":6192,"nal":6193,"Ġ518":6194,"ĠAV":6195,"IME":6196,"IAC":6197,"ulfate":6198,"Ġcode":6199,"RDW":6200,"ĠTABS":6201,"Ġelect":6202,"ift":6203,"Ġheat":6204,"Ġdetermined":6205,"ĠNurse":6206,"charg":6207,"ĠArm":6208,"nisone":6209,"Ġtold":6210,"veill":6211,"EKG":6212,"Ġappearing":6213,"Scre":6214,"Ġclinically":6215,"geal":6216,"889":6217,"ĠRequired":6218,"ĠGA":6219,"ĠROAD":6220,"Ġexamined":6221,"Ġcaliber":6222,"ouble":6223,"Ġlaboratory":6224,"rown":6225,"ĠInitial":6226,"VENUE":6227,"asing":6228,"Ġeasy":6229,"ULL":6230,"ĠDispense":6231,"REET":6232,"inate":6233,"idneys":6234,"Ġ1111":6235,"Bowel":6236,"HA":6237,"Nose":6238,"authorized":6239,"ĠTumor":6240,"Ġ{":6241,"Ġgallbladder":6242,"Ġsig":6243,"Ġrhin":6244,"Ġherni":6245,"Colon":6246,"ĠAdditional":6247,"ulitis":6248,"Calcium":6249,"Ġportion":6250,"ominant":6251,"Ġ135":6252,"Suite":6253,"Ġ401":6254,"veillance":6255,"RIS":6256,"ners":6257,"ĠOnly":6258,"MSK":6259,"Ġhepatosp":6260,"They":6261,"istant":6262,"ĠEnglish":6263,"Ġbid":6264,"asurements":6265,"preted":6266,"140":6267,"Ġ119":6268,"ĠBlue":6269,"Ġimpair":6270,"imeter":6271,"ĠHol":6272,"ĠTR":6273,"earch":6274,"ĠPerc":6275,"Ġorthopnea":6276,"ĠHeadache":6277,"ervation":6278,"EP":6279,"sh":6280,"Ġswallowing":6281,"Commun":6282,"ĠIA":6283,"Ġfocus":6284,"Ġcoronal":6285,"ĠShortness":6286,"Ġunable":6287,"roxine":6288,"ochem":6289,"Ġcommon":6290,"Ġphys":6291,"ĠPages":6292,"Ġcatalog":6293,"Ġfollowup":6294,"Occup":6295,"read":6296,"Ġmeals":6297,"Ġincluded":6298,"lectomy":6299,"108":6300,"ĠILLNESS":6301,"Ġpresence":6302,"ĠPhys":6303,"ĠTel":6304,"Ġlanguage":6305,"liance":6306,"Ġpsych":6307,"Ġsoon":6308,"eech":6309,"Exercise":6310,"Positive":6311,"Ġvessel":6312,"Ġ136":6313,"izabeth":6314,"Ġsmoked":6315,"CR":6316,"Ġonc":6317,"Liver":6318,"Ġ606":6319,"1965":6320,"ano":6321,"Ġhypermet":6322,"Pe":6323,"Ġsequ":6324,"Well":6325,"cious":6326,"CAL":6327,"ĠHEM":6328,"ĠAVENUE":6329,"So":6330,"ĠMeds":6331,"armac":6332,"axis":6333,"ĠCLINICAL":6334,"vantage":6335,"Auscultation":6336,"Today":6337,"ĠCAPSULE":6338,"ĠRichard":6339,"Ġhemorrhage":6340,"ĠPrescriptions":6341,"ĠPlasma":6342,"rillation":6343,"iliary":6344,"Policy":6345,"Bl":6346,"aughter":6347,"107":6348,"cheduling":6349,"ĠMICHAEL":6350,"IX":6351,"Ġea":6352,"ĠWithin":6353,"ĠBAS":6354,"inating":6355,"arin":6356,"SOL":6357,"try":6358,"ĠSteph":6359,"Ġprobably":6360,"ĠJr":6361,"Gr":6362,"Ġvers":6363,"One":6364,"Ġattention":6365,"vix":6366,"ĠConfirmed":6367,"iciency":6368,"However":6369,"Ġvolume":6370,"ĠSG":6371,"gi":6372,"ĠUnchanged":6373,"Ġ724":6374,"ĠCOMPLAINT":6375,"Ġip":6376,"ques":6377,"Ġcomplex":6378,"Ġpertinent":6379,"oring":6380,"Ġvaccine":6381,"ĠCLINIC":6382,"Ġintracranial":6383,"Record":6384,"IMAGING":6385,"ĠWhite":6386,"PV":6387,"ĠPROCEDURE":6388,"Ġdemonstrate":6389,"ABOLIC":6390,"surgery":6391,"ĠIR":6392,"ĠJO":6393,"ĠNeeded":6394,"inum":6395,"MUS":6396,"130":6397,"alf":6398,"ĠChar":6399,"Oncology":6400,"Ġna":6401,"Ġstiffness":6402,"eria":6403,"ĠNON":6404,"lined":6405,"inanc":6406,"Ġperformance":6407,"Ġcause":6408,"ĠCuff":6409,"ĠFood":6410,"ĠPalpation":6411,"ĠORDER":6412,"Ġsex":6413,"Ġbran":6414,"Ct":6415,"ĠOS":6416,"father":6417,"Ġconsists":6418,"ĠReferring":6419,"Ġspondy":6420,"TREMIT":6421,"ILLIAM":6422,"Hematology":6423,"LETE":6424,"Ġconcerning":6425,"Ġalbuterol":6426,"Ġfather":6427,"Ġhepatosplenomegaly":6428,"015":6429,"Ġile":6430,"Ġtabs":6431,"oud":6432,"105":6433,"Mental":6434,"fr":6435,"ĠOT":6436,"Collected":6437,"utr":6438,"Ġmany":6439,"RAD":6440,"HR":6441,"ĠHEALTHCARE":6442,"ĠmGy":6443,"iculty":6444,"DRO":6445,"igital":6446,"ACS":6447,"onald":6448,"Ġ585":6449,"ChartOptions":6450,"Ġenhancing":6451,"ĠAGE":6452,"Ġ716":6453,"Ġtechnique":6454,"Da":6455,"Ġeti":6456,"cern":6457,"TREMITIES":6458,"Ġrights":6459,"MEDICATIONS":6460,"Est":6461,"Ġconsult":6462,"Ġaltern":6463,"Ġfemoral":6464,"ĠCLIA":6465,"JECT":6466,"ĠIg":6467,"enuation":6468,"rivacy":6469,"Ġsaf":6470,"Laboratory":6471,"Ġ639":6472,"heumat":6473,"inancial":6474,"lastic":6475,"aryngeal":6476,"ATERAL":6477,"Ġpi":6478,"Integumentary":6479,"field":6480,"umab":6481,"Creatinine":6482,"leased":6483,"Ġdisturbance":6484,"ĠToday":6485,"ĠEffort":6486,"ĠHour":6487,"ĠStop":6488,"Ġatelectasis":6489,"Small":6490,"Ġ007":6491,"Ġalive":6492,"Ġradiologist":6493,"derately":6494,"ĠAuth":6495,"Ġcereb":6496,"Ġadjust":6497,"ĠCardiac":6498,"TY":6499,"1953":6500,"ago":6501,"Procedures":6502,"rie":6503,"ĠTM":6504,"Pupils":6505,"ephrosis":6506,"John":6507,"ĠDoppler":6508,"CIUM":6509,"ĠHIGH":6510,"Ġsqu":6511,"Ġmen":6512,"apai":6513,"Ġcop":6514,"ted":6515,"Ġheal":6516,"LETAL":6517,"Ġgram":6518,"212":6519,"Ġgm":6520,"ĠBIL":6521,"astatic":6522,"ĠJeff":6523,"uel":6524,"othorax":6525,"ĠInhalation":6526,"Ġoften":6527,"ua":6528,"erry":6529,"Ġimplant":6530,"cers":6531,"204":6532,"Collection":6533,"144":6534,"ollen":6535,"actic":6536,"ower":6537,"ENMT":6538,"ows":6539,"ĠDOSE":6540,"Disp":6541,"illa":6542,"Ġheartburn":6543,"Ġchemo":6544,"ĠSNOMED":6545,"Ġ845":6546,"SOCIAL":6547,"ona":6548,"ĠDef":6549,"cending":6550,"Ġexud":6551,"Click":6552,"ativ":6553,"Ġpam":6554,"Electronic":6555,"ICA":6556,"Ġach":6557,"Ġwent":6558,"Spec":6559,"ĠSTREET":6560,"ugular":6561,"ĠROBERT":6562,"Ġ889":6563,"ĠASSOC":6564,"Ġformalin":6565,"Ġ145":6566,"Ġneedle":6567,"ĠMethod":6568,"ĠUnitedHealthcare":6569,"ĠVITAMIN":6570,"Ġglucose":6571,"ĠKar":6572,"ĠVAL":6573,"istorical":6574,"ĠExtremity":6575,"lec":6576,"ector":6577,"1966":6578,"ĠJVD":6579,"005":6580,"Employ":6581,"Ġcavity":6582,"apeutic":6583,"Ġtopical":6584,"ĠIncre":6585,"ĠAU":6586,"Jan":6587,"FAMILY":6588,"ĠSER":6589,"STIN":6590,"ĠUnit":6591,"ĠJE":6592,"ANI":6593,"ĠUrgent":6594,"ĠLymphatic":6595,"Ġprol":6596,"Depression":6597,"havioral":6598,"Ġnr":6599,"acks":6600,"arring":6601,"edic":6602,"eeth":6603,"ĠMY":6604,"olar":6605,"Ġtric":6606,"ĠWee":6607,"administered":6608,"ĠGrade":6609,"SI":6610,"Ġbony":6611,"etwork":6612,"Ġreserved":6613,"ĠSolution":6614,"Bilateral":6615,"Sodium":6616,"Ġ631":6617,"ĠOpt":6618,"Ġgrow":6619,"irt":6620,"clerotic":6621,"usiness":6622,"ĠCase":6623,"ĠTax":6624,"ClinicalWorks":6625,"Ġconsidered":6626,"ĠFull":6627,"eli":6628,"ĠCopy":6629,"Ġbalance":6630,"ĠTerm":6631,"ĠLee":6632,"orbid":6633,"ĠSecondary":6634,"Ġpet":6635,"ĠEs":6636,"Priority":6637,"ĠReferred":6638,"ĠChange":6639,"iazide":6640,"Ġfollows":6641,"Ġsister":6642,"IOVASCULAR":6643,"ĠWE":6644,"02406":6645,"Ġprominent":6646,"achy":6647,"ACY":6648,"ARA":6649,"Ġimprove":6650,"OPSY":6651,"urning":6652,"Medic":6653,"ĠHow":6654,"aund":6655,"REATIN":6656,"Ġcessation":6657,"Screening":6658,"ĠIU":6659,"ĠLIP":6660,"RIPTION":6661,"icit":6662,"Male":6663,"Ġtrig":6664,"idine":6665,"hr":6666,"oy":6667,"Ġdetail":6668,"ĠExercise":6669,"ĠLEV":6670,"Min":6671,"Ġpossibly":6672,"ĠInterval":6673,"HEART":6674,"rip":6675,"Fl":6676,"ytes":6677,"AZ":6678,"BR":6679,"ĠDifferential":6680,"INTER":6681,"Ġtissues":6682,"Also":6683,"opharynx":6684,"Ġtin":6685,"rong":6686,"resp":6687,"540":6688,"ĠSERVICE":6689,"NAL":6690,"ĠCodes":6691,"junctivae":6692,"bound":6693,"ĠPlace":6694,"Ġcram":6695,"ĠRed":6696,"203":6697,"ĠLDL":6698,"Ġlev":6699,"rogen":6700,"Ġmigraine":6701,"Ġmarrow":6702,"ĠCat":6703,"Ġroot":6704,"ĠDays":6705,"ĠInstitute":6706,"GH":6707,"ĠOver":6708,"Ġ126":6709,"ĠEND":6710,"Ġthin":6711,"ymmet":6712,"Ġdenied":6713,"Ġcholesterol":6714,"ĠMs":6715,"Ġ146":6716,"ĠHCL":6717,"COL":6718,"ien":6719,"ups":6720,"ĠTOM":6721,"Ġelectronically":6722,"Ġattest":6723,"888":6724,"Ġ141":6725,"ĠLeg":6726,"ertinent":6727,"City":6728,"Ġ118":6729,"OGRAM":6730,"ionn":6731,"ĠTHAT":6732,"Ġcollection":6733,"213":6734,"Ġconfirmed":6735,"Ġplacement":6736,"opher":6737,"Since":6738,"ĠVaccine":6739,"ĠTYPE":6740,"ĠWNL":6741,"charged":6742,"ayer":6743,"Ġreconciled":6744,"ĠMC":6745,"Ġexerc":6746,"idal":6747,"Ġart":6748,"ĠAx":6749,"Ġcranial":6750,"Ġsputum":6751,"MIN":6752,"ĠNor":6753,"ĠAsthma":6754,"Ġstroke":6755,"Palpation":6756,"Ġverbal":6757,"iy":6758,"ng":6759,"ĠAfrican":6760,"PSYCH":6761,"Tumor":6762,"REATININE":6763,"Ġanti":6764,"IIII":6765,"Pa":6766,"Discharge":6767,"080":6768,"Ġrecommendations":6769,"Ġdeficit":6770,"Ġsom":6771,"OV":6772,"ylenol":6773,"iced":6774,"CIN":6775,"WI":6776,"amine":6777,"ĠBRE":6778,"rected":6779,"ĠSA":6780,"Entered":6781,"ĠEF":6782,"Ġtremor":6783,"Potassium":6784,"ohist":6785,"ASTRO":6786,"ANGE":6787,"Ġagre":6788,"ĠLOC":6789,"Ġsclerosis":6790,"ĠUSE":6791,"ns":6792,"Ġobvious":6793,"ĠAv":6794,"ĠReturn":6795,"ĠTaken":6796,"ĠPractice":6797,"osal":6798,"ĠARE":6799,"ĠHand":6800,"Ġangina":6801,"uspid":6802,"ĠCAT":6803,"Ġhydron":6804,"Ġobesity":6805,"Ġcorrel":6806,"arantor":6807,"Units":6808,"Ġgrand":6809,"Ġlot":6810,"Ġnuclear":6811,"ENC":6812,"Ġ011":6813,"Ġprof":6814,"ĠMETABOLIC":6815,"ĠEvery":6816,"Form":6817,"Sever":6818,"Ġstopped":6819,"ĠFlu":6820,"ĠMarried":6821,"ĠCreatinine":6822,"DIAGNOSIS":6823,"Ci":6824,"omog":6825,"ĠLN":6826,"hysema":6827,"viron":6828,"ĠJennifer":6829,"openia":6830,"Ġabd":6831,"ELD":6832,"UCOSE":6833,"Ġregimen":6834,"icle":6835,"Ġneph":6836,"Ġfibrillation":6837,"Ġreference":6838,"Use":6839,"omic":6840,"ULMON":6841,"ĠOcc":6842,"Ġ615":6843,"Hep":6844,"ĠDocuments":6845,"2009":6846,"5402406":6847,"ĠABD":6848,"ĠNodes":6849,"anda":6850,"Ġself":6851,"lank":6852,"Ġwant":6853,"305":6854,"Expiration":6855,"Ġconcent":6856,"roscopic":6857,"Ġconsolidation":6858,"contrast":6859,"HEALTH":6860,"Allergic":6861,"espiration":6862,"585":6863,"Ġiron":6864,"ĠNC":6865,"utrition":6866,"oliosis":6867,"ccess":6868,"Ġht":6869,"ila":6870,"ounseled":6871,"Ġschool":6872,"Ġpages":6873,"idated":6874,"Ġsurveillance":6875,"ĠLabs":6876,"Ġpneumothorax":6877,"1967":6878,"Ġguarding":6879,"Ġimport":6880,"ised":6881,"KELETAL":6882,"Ġitching":6883,"Fe":6884,"Ġlig":6885,"ĠKim":6886,"Ġinvasive":6887,"ĠKnow":6888,"ĠRouting":6889,"Ġtrial":6890,"Br":6891,"olt":6892,"Ġmitral":6893,"Ġ009":6894,"ĠOK":6895,"ZA":6896,"Ġcalcified":6897,"othyroxine":6898,"Ġsciatica":6899,"clerosis":6900,"ĠMAN":6901,"ĠAcct":6902,"Ġacid":6903,"Cr":6904,"Oct":6905,"ouraged":6906,"Ġground":6907,"Vis":6908,"Ġhands":6909,"ĠUnited":6910,"illin":6911,"Ġdocumentation":6912,"ells":6913,"Ġeither":6914,"surgical":6915,"aundice":6916,"ĠLaterality":6917,"Ġappropri":6918,"innitus":6919,"Ġecho":6920,"Preferred":6921,"ĠSmith":6922,"wood":6923,"Corp":6924,"lobul":6925,"136":6926,"Ġclass":6927,"bon":6928,"ama":6929,"algia":6930,"Hematologic":6931,"Assess":6932,"CULOS":6933,"lycer":6934,"ĠBenign":6935,"Ġstanding":6936,"elines":6937,"Ġlegally":6938,"UA":6939,"Ġambul":6940,"205":6941,"Ġmammogram":6942,"ĠMEDICINE":6943,"aus":6944,"URRENT":6945,"ifi":6946,"ICT":6947,"Inspection":6948,"Ġci":6949,"ĠJAMES":6950,"Ġcomplains":6951,"rian":6952,"amous":6953,"headedness":6954,"aces":6955,"PLE":6956,"Ġaccording":6957,"abetic":6958,"Ġho":6959,"Ġinfarction":6960,"With":6961,"Ġappt":6962,"Ġentirely":6963,"ACIC":6964,"ĠBIOPSY":6965,"ĠGo":6966,"Ġavid":6967,"Ġneural":6968,"ĠPaul":6969,"br":6970,"Ġtons":6971,"here":6972,"ĠCOUNT":6973,"thesis":6974,"ĠRet":6975,"ĠThoracic":6976,"Ext":6977,"Ġreaction":6978,"LEEN":6979,"ĠVe":6980,"ĠBRO":6981,"306":6982,"ĠMuscle":6983,"Ġter":6984,"Ġyr":6985,"Ġpuffs":6986,"MER":6987,"ELVIC":6988,"Ġ115":6989,"131":6990,"Ġhypermetabolic":6991,"ĠTeam":6992,"enteric":6993,"ORATORY":6994,"Ġterms":6995,"Ġ134":6996,"Ġscarring":6997,"Ġremains":6998,"ĠMarital":6999,"apar":7000,"Ġinterest":7001,"Allergy":7002,"OTH":7003,"Ġcore":7004,"Ġreconstruction":7005,"ĠMart":7006,"Ġretroperitoneal":7007,"121":7008,"Ġendomet":7009,"Ġquality":7010,"ĠPLEASE":7011,"Ġfrag":7012,"Ġhtt":7013,"Received":7014,"ĠIl":7015,"thew":7016,"146":7017,"Ġsymmetrical":7018,"ĠMAT":7019,"ĠPerson":7020,"ĠEG":7021,"ĠLanguage":7022,"ymal":7023,"Ġperc":7024,"Ġcalcium":7025,"ohistochem":7026,"ĠCentral":7027,"Ġcalcifications":7028,"ĠMAIN":7029,"Ġdimension":7030,"Special":7031,"ĠCritical":7032,"ĠFA":7033,"Comparison":7034,"uality":7035,"olecystectomy":7036,"ĠAF":7037,"Birth":7038,"Ġductal":7039,"heez":7040,"ori":7041,"Diagnoses":7042,"054":7043,"ĠFact":7044,"met":7045,"roz":7046,"riers":7047,"Ġsharp":7048,"Ġfinal":7049,"ĠPath":7050,"Ġhydronephrosis":7051,"Ġrefill":7052,"Ġstandard":7053,"ĠRI":7054,"Ġischemia":7055,"aper":7056,"Ġaccompany":7057,"Ġaffected":7058,"ĠSCH":7059,"ANK":7060,"hab":7061,"Ġnor":7062,"Ġalthough":7063,"MENTS":7064,"Ġtemporal":7065,"ynec":7066,"Ġauthorized":7067,"ĠPupils":7068,"Ġ646":7069,"Confidential":7070,"ĠONCOLOGY":7071,"Jul":7072,"Ġsubsequ":7073,"Ġmetabolic":7074,"Ġ914":7075,"ĠDelayed":7076,"ĠAdvantage":7077,"Ġnn":7078,"ĠRBC":7079,"Staff":7080,"ĠDuration":7081,"ĠYour":7082,"ĠFall":7083,"Ġvs":7084,"Alk":7085,"ĠCTA":7086,"terol":7087,"ĠProcedures":7088,"Albumin":7089,"Dx":7090,"ĠDeb":7091,"ĠMonth":7092,"ĠCVA":7093,"han":7094,"loan":7095,"004":7096,"Ġremain":7097,"Ġadjuvant":7098,"Ġtrachea":7099,"Ġreliance":7100,"likely":7101,"Ġtit":7102,"ĠLoss":7103,"Ġbreak":7104,"Ġmye":7105,"Ġovarian":7106,"Ġvoice":7107,"Ġvessels":7108,"ĠPediatric":7109,"Ġulcers":7110,"nes":7111,"Ġtract":7112,"ĠDAVID":7113,"Ġsam":7114,"Ġcalcification":7115,"Ġcur":7116,"Ġmelanoma":7117,"Ġwritten":7118,"EXTREMITIES":7119,"Ġtakes":7120,"210":7121,"ĠND":7122,"CULOSKELETAL":7123,"Ġexperienc":7124,"Ġslow":7125,"Par":7126,"raft":7127,"Ġadequ":7128,"Ġthink":7129,"Ġtrouble":7130,"250":7131,"ĠSystolic":7132,"ĠSelf":7133,"ASH":7134,"VENT":7135,"Ġspecified":7136,"ctomy":7137,"Ġcorn":7138,"ĠNa":7139,"ping":7140,"Ġbruit":7141,"ght":7142,"ermat":7143,"ĠEll":7144,"labored":7145,"ĠReactions":7146,"ĠHas":7147,"ĠSOFT":7148,"Ġtrauma":7149,"ANA":7150,"Ġparasp":7151,"ĠeClinicalWorks":7152,"NPI":7153,"Ġreturns":7154,"story":7155,"Ġta":7156,"Ġbrother":7157,"imens":7158,"Ġinflammation":7159,"ĠNAD":7160,"azine":7161,"Hem":7162,"ĠWA":7163,"Ġdetails":7164,"ococ":7165,"ĠOH":7166,"mia":7167,"Ġatheros":7168,"Ġwoman":7169,"ĠRequisition":7170,"Ġdestru":7171,"rough":7172,"Ġ138":7173,"OF":7174,"ĠCommunity":7175,"alpitations":7176,"712":7177,"ĠDEL":7178,"ĠLim":7179,"Ġcream":7180,"ĠREFER":7181,"BE":7182,"1968":7183,"Authorization":7184,"Ġovary":7185,"ĠCONSULT":7186,"160":7187,"Ġey":7188,"ĠFree":7189,"ĠOrthop":7190,"ĠCertification":7191,"ĠAnth":7192,"008":7193,"Subject":7194,"TSH":7195,"ciousness":7196,"uck":7197,"icial":7198,"efined":7199,"lexion":7200,"Recent":7201,"ĠMCH":7202,"ĠCY":7203,"ript":7204,"ĠRRR":7205,"089":7206,"Ġmill":7207,"Ġscattered":7208,"ĠPP":7209,"Li":7210,"Ġheav":7211,"RING":7212,"Ine":7213,"OGL":7214,"UAL":7215,"Ġdouble":7216,"rology":7217,"Ġeat":7218,"ĠOriented":7219,"ANE":7220,"Ġ144":7221,"iotics":7222,"ĠÂ®":7223,"Ġpub":7224,"OY":7225,"Ġfields":7226,"ĠNT":7227,"Ġseeing":7228,"ĠAuthorized":7229,"right":7230,"ĠANC":7231,"ĠDisorder":7232,"Hx":7233,"Ġtried":7234,"âĸł":7235,"Aug":7236,"Ġforaminal":7237,"ĠLPN":7238,"ĠCompany":7239,"Ġventricle":7240,"oarthritis":7241,"ĠINST":7242,"ĠRECE":7243,"lyc":7244,"Ġsinuses":7245,"ĠMill":7246,"Ġ2000":7247,"acerb":7248,"Ġlos":7249,"Ġmust":7250,"Ġ116":7251,"ĠFloor":7252,"Ġaccompanying":7253,"Mouth":7254,"Any":7255,"Susp":7256,"ĠEOMI":7257,"locytes":7258,"ĠMot":7259,"losis":7260,"Ġhabits":7261,"cholester":7262,"gy":7263,"UnitedHealthcare":7264,"NOT":7265,"ĠFlowshe":7266,"Ġvertigo":7267,"ĠFatigue":7268,"ively":7269,"Ġhy":7270,"1969":7271,"Ġcysts":7272,"Ġ210":7273,"Ġexclud":7274,"Ġdissection":7275,"LEAR":7276,"SOLUTE":7277,"Ġemergency":7278,"burg":7279,"ĠSCAN":7280,"Ġessential":7281,"ĠSIGNS":7282,"ectious":7283,"trasound":7284,"ettering":7285,"ĠLake":7286,"ĠSCREEN":7287,"Ġbenefit":7288,"nic":7289,"Ġlittle":7290,"gan":7291,"Ġbaseline":7292,"OME":7293,"Ġfraction":7294,"ĠSar":7295,"Ġ202":7296,"Be":7297,"Ġ211":7298,"ULMONARY":7299,"Ġsided":7300,"ĠLT":7301,"HCT":7302,"Ġ301":7303,"Cardiology":7304,"Ġprogram":7305,"Ġprep":7306,"lobulin":7307,"ĠBone":7308,"Ġmaintain":7309,"Ġreader":7310,"ĠFlag":7311,"Ġinvasion":7312,"IMARY":7313,"THOR":7314,"ĠRem":7315,"Ġnondistended":7316,"ĠET":7317,"ora":7318,"Ġmargins":7319,"Ġetiology":7320,"ĠDiastolic":7321,"129":7322,"Ġconditions":7323,"Ġnoct":7324,"ĠWILLIAM":7325,"IDNE":7326,"RECT":7327,"Ġcystic":7328,"RIT":7329,"ĠPARK":7330,"Ġthr":7331,"ĠMax":7332,"Lower":7333,"hold":7334,"Ġhydro":7335,"ĠSTRESS":7336,"hood":7337,"1952":7338,"ablished":7339,"Ġversus":7340,"Ġlife":7341,"Chloride":7342,"ĠUA":7343,"ĠMal":7344,"rep":7345,"ces":7346,"Ġhair":7347,"ameth":7348,"cribes":7349,"ails":7350,"ĠJersey":7351,"Ġsigmoid":7352,"ĠUpper":7353,"Ġsatisf":7354,"Ġagg":7355,"Ġcran":7356,"ĠREQUEST":7357,"azep":7358,"ĠOutside":7359,"ieved":7360,"oi":7361,"Ġappl":7362,"Ġworking":7363,"Ġmom":7364,"Ġblurred":7365,"Ġrebound":7366,"Ġongoing":7367,"anied":7368,"126":7369,"odies":7370,"Ox":7371,"Recorded":7372,"Ġaddition":7373,"Pathology":7374,"ĠBox":7375,"Ġcass":7376,"Ġregard":7377,"fi":7378,"smok":7379,"Ġinvolvement":7380,"Ġadvanced":7381,"ransplant":7382,"ALB":7383,"atal":7384,"Ġok":7385,"Ġkeep":7386,"lyn":7387,"rum":7388,"ILI":7389,"lete":7390,"ĠAp":7391,"ĠIF":7392,"Ġthings":7393,"Scan":7394,"xx":7395,"Ġcigarettes":7396,"aire":7397,"umer":7398,"asonal":7399,"ully":7400,"1970":7401,"ĠNic":7402,"Ġ124":7403,"BAS":7404,"Ġatorvastatin":7405,"lon":7406,"Rest":7407,"012":7408,"ĠNORMAL":7409,"ĠValve":7410,"ĠHX":7411,"Ġlip":7412,"ulosis":7413,"agnostics":7414,"ĠCall":7415,"imate":7416,"olism":7417,"How":7418,"Ġ540":7419,"ĠFAMILY":7420,"Ġlook":7421,"ĠAMB":7422,"Ġsays":7423,"ITED":7424,"Ġatrophy":7425,"Ġsignificantly":7426,"Ġexplained":7427,"Ġurgency":7428,"raight":7429,"ĠFDA":7430,"444":7431,"iops":7432,"Symptoms":7433,"Frequency":7434,"ĠGait":7435,"ĠONCE":7436,"Ġtightness":7437,"Ġlisinopril":7438,"Ġdifferentiated":7439,"ATIONS":7440,"ĠNEEDED":7441,"ĠImm":7442,"ĠPrevious":7443,"Appointment":7444,"ĠREF":7445,"health":7446,"Ġibuprofen":7447,"Ġcooperative":7448,"ĠRecon":7449,"YL":7450,"Ġwater":7451,"ARL":7452,"ĠHILL":7453,"ĠLU":7454,"ĠMelissa":7455,"IVED":7456,"ĠNECK":7457,"IVERS":7458,"Ġ305":7459,"Ġhot":7460,"ĠOste":7461,"egr":7462,"Ġreplacement":7463,"UTED":7464,"Apr":7465,"Ġgastric":7466,"Neurology":7467,"COD":7468,"Ġworkup":7469,"Ġ128":7470,"Clinic":7471,"Ġasymmet":7472,"Ġaf":7473,"ĠElizabeth":7474,"itin":7475,"ĠDu":7476,"Ġmorph":7477,"estyle":7478,"elly":7479,"eneous":7480,"apid":7481,"itivity":7482,"Ġhi":7483,"Eye":7484,"ĠSn":7485,"ĠBAR":7486,"Ġmarked":7487,"ĠQuantity":7488,"Ġhold":7489,"Ġminute":7490,"Given":7491,"Ġsole":7492,"ĠSTUD":7493,"BONES":7494,"ĠQuestions":7495,"USION":7496,"ĠLiver":7497,"Ġdysphagia":7498,"hyl":7499,"ĠDIFF":7500,"Ġdilated":7501,"oor":7502,"Ġportal":7503,"uticasone":7504,"Ġdelay":7505,"Ġdaughter":7506,"ibial":7507,"Ġnature":7508,"Ġfalls":7509,"Ġhard":7510,"ĠWithout":7511,"lasia":7512,"KA":7513,"Ġeating":7514,"rim":7515,"STAT":7516,"ENSIVE":7517,"Ġradiog":7518,"Ġinstructed":7519,"anset":7520,"IFY":7521,"Ġcomes":7522,"ĠArea":7523,"ĠUnspecified":7524,"327":7525,"Ġ203":7526,"rank":7527,"Ġmonitoring":7528,"ĠSup":7529,"Ġmil":7530,"Ġreflex":7531,"ĠWil":7532,"ĠDizziness":7533,"USE":7534,"Ġhes":7535,"CTIONS":7536,"ĠPHARM":7537,"ypes":7538,"riteria":7539,"ĠYou":7540,"ĠCholesterol":7541,"iques":7542,"UMOR":7543,"espirations":7544,"ĠHEAD":7545,"Ġnative":7546,"atively":7547,"12018":7548,"ĠSmall":7549,"009":7550,"Ġlonger":7551,"Ġcardiovascular":7552,"ĠONLY":7553,"ĠStud":7554,"ansetron":7555,"North":7556,"ĠPotassium":7557,"terog":7558,"rays":7559,"Ġwish":7560,"Ġmaking":7561,"ĠAbd":7562,"ometimes":7563,"Ġtemperature":7564,"Ġreduced":7565,"Ġdied":7566,"irr":7567,"IATES":7568,"ui":7569,"mg":7570,"Enc":7571,"mal":7572,"Ġmesenteric":7573,"ipine":7574,"OGLOB":7575,"Ġappropriately":7576,"Ġprescription":7577,"Subscriber":7578,"Ġveins":7579,"rex":7580,"Ġ142":7581,"ĠJOSE":7582,"usan":7583,"ĠSPECT":7584,"Ġetc":7585,"006":7586,"ependent":7587,"icterus":7588,"ĠEvaluate":7589,"asured":7590,"ĠGrandmother":7591,"ĠHAR":7592,"Ġce":7593,"Ot":7594,"Ġmatter":7595,"orge":7596,"anie":7597,"ĠSl":7598,"accines":7599,"ĠHyper":7600,"Latest":7601,"ĠTher":7602,"ĠRelation":7603,"entimeter":7604,"Ben":7605,"ĠVolume":7606,"Authored":7607,"Ġspasm":7608,"rochlor":7609,"Ġspeak":7610,"ĠMEDICATIONS":7611,"Ġbi":7612,"MUSCULOSKELETAL":7613,"ĠEP":7614,"valuation":7615,"TES":7616,"ergy":7617,"Ġcircumf":7618,"idocaine":7619,"ĠPAGES":7620,"weighted":7621,"NOTE":7622,"Ġmyocardial":7623,"ĠSens":7624,"Ġprn":7625,"AU":7626,"Ġpoly":7627,"ĠSinus":7628,"ĠMCV":7629,"ĠComprehensive":7630,"acheal":7631,"Ġlead":7632,"ĠSent":7633,"Platelet":7634,"ĠHIV":7635,"Ġmethod":7636,"Ġdistention":7637,"ĠCELL":7638,"IOR":7639,"ĠNOTICE":7640,"ĠHDL":7641,"ococcal":7642,"Ġextensive":7643,"ĠSim":7644,"Ġcou":7645,"2406":7646,"Ġnightly":7647,"OMAS":7648,"ĠTIS":7649,"127":7650,"ĠLungs":7651,"ĠMotor":7652,"PIRATORY":7653,"Ġlum":7654,"Ġpituitary":7655,"Ġrig":7656,"Ġlit":7657,"HGB":7658,"Ġevening":7659,"315":7660,"ĠMen":7661,"Ġpounds":7662,"ĠEEG":7663,"ston":7664,"Ther":7665,"Have":7666,"Ġqd":7667,"Ġelig":7668,"Ġthought":7669,"ĠTID":7670,"Ġavoid":7671,"respond":7672,"Ġanesthesia":7673,"ĠINJ":7674,"Ġfuture":7675,"ĠMU":7676,"ĠAgency":7677,"PREH":7678,"ĠEr":7679,"Source":7680,"cell":7681,"452":7682,"CARDIOVASCULAR":7683,"OLOGIC":7684,"First":7685,"Substance":7686,"Ġlocated":7687,"ALK":7688,"Ġorganomegaly":7689,"Ġawake":7690,"8061":7691,"levated":7692,"1951":7693,"ao":7694,"Orient":7695,"Ġjaundice":7696,"Ġcut":7697,"Ġsepar":7698,"OBLE":7699,"ICAN":7700,"Ġredness":7701,"ĠPeripheral":7702,"udgment":7703,"Ġarthral":7704,"ĠTitle":7705,"rochloroth":7706,"ĠInterpretation":7707,"Moderate":7708,"ĠINCL":7709,"ini":7710,"ĠAA":7711,"Ġdors":7712,"issue":7713,"ICES":7714,"IRTH":7715,"Ġcompletely":7716,"ĠSloan":7717,"Ġsleeping":7718,"ĠCOLON":7719,"ĠIss":7720,"igraine":7721,"DIS":7722,"Ġmetoprolol":7723,"EYES":7724,"ĠFederal":7725,"Maternal":7726,"ytic":7727,"Ġcort":7728,"arget":7729,"opathy":7730,"ĠCOMPLETE":7731,"ĠLind":7732,"Flowshe":7733,"Unchanged":7734,"Outpatient":7735,"RELATION":7736,"ĠAPN":7737,"utrophils":7738,"Ġomeprazole":7739,"Ġever":7740,"Ġoc":7741,"RIN":7742,"Ġprednisone":7743,"Ġaccur":7744,"pose":7745,"Ġ303":7746,"nl":7747,"ĠEvaluation":7748,"ĠBM":7749,"Performing":7750,"da":7751,"pi":7752,"Ġtechnical":7753,"Ġportions":7754,"ĠHearing":7755,"Ġanicteric":7756,"ĠAUT":7757,"ĠScott":7758,"Ġamp":7759,"Ġ423":7760,"osphat":7761,"ĠRob":7762,"ĠMaternal":7763,"astic":7764,"ius":7765,"Ġintervention":7766,"ĠSubscriber":7767,"using":7768,"Initial":7769,"ĠTWICE":7770,"omed":7771,"RENAL":7772,"Ġdescribes":7773,"Ġcer":7774,"ĠCan":7775,"wal":7776,"ĠPred":7777,"Ġinspection":7778,"ĠMULT":7779,"rod":7780,"Lymphatic":7781,"ĠOld":7782,"DD":7783,"Ġuses":7784,"Ġesophagus":7785,"003":7786,"ĠKnee":7787,"Ġmoderately":7788,"ĠDIAGNOSTIC":7789,"CRIPTION":7790,"rat":7791,"Generated":7792,"ackson":7793,"128":7794,"304":7795,"anging":7796,"Ġconjunctiva":7797,"145":7798,"RENCE":7799,"ola":7800,"ĠPal":7801,"ĠNerves":7802,"INDICATION":7803,"124":7804,"Ġpallor":7805,"ĠHC":7806,"Ġwife":7807,"Ġtechniques":7808,"ĠWed":7809,"Less":7810,"NM":7811,"ĠSince":7812,"Ġprocedures":7813,"iral":7814,"Ġmeasured":7815,"NER":7816,"otine":7817,"Ġdifferential":7818,"ĠKidney":7819,"Ġwalsea":7820,"ognition":7821,"ĠFINAL":7822,"209":7823,"Ġleuk":7824,"Ġinsulin":7825,"CHO":7826,"Ġextr":7827,"ODIUM":7828,"Urine":7829,"urt":7830,"une":7831,"ĠSK":7832,"ĠMt":7833,"Ġsurg":7834,"Ġmedicine":7835,"Anxiety":7836,"ALD":7837,"Ġallergy":7838,"ĠNasal":7839,"Ġtoe":7840,"ĠBowel":7841,"vance":7842,"ucas":7843,"ĠArthritis":7844,"psy":7845,"ĠPneum":7846,"Ġparticipate":7847,"essional":7848,"ĠGood":7849,"VITAL":7850,"ĠVascular":7851,"ITONE":7852,"ĠOB":7853,"band":7854,"ĠDOC":7855,"ĠExtremities":7856,"Ġratio":7857,"poses":7858,"ĠOL":7859,"ĠWELL":7860,"ered":7861,"Ġinsuff":7862,"ĠMusculoskeletal":7863,"Ġstools":7864,"Mic":7865,"ĠDeg":7866,"ĠSPEC":7867,"123":7868,"OND":7869,"Ġ137":7870,"ĠProtocol":7871,"Ġconsciousness":7872,"Ġprotein":7873,"nex":7874,"com":7875,"ĠEV":7876,"ĠDyspnea":7877,"ĠBehavioral":7878,"Ġsuggestive":7879,"ĠHill":7880,"Ġpay":7881,"ĠTRANS":7882,"Ġscale":7883,"Ġ215":7884,"Ġauto":7885,"215":7886,"ĠDOE":7887,"Ġgroin":7888,"ĠRhythm":7889,"ĠSpecific":7890,"ĠBru":7891,"ĠOM":7892,"Ġparaspinal":7893,"Ġaccident":7894,"oprazole":7895,"ĠPle":7896,"iferol":7897,"1111111111111111":7898,"ĠCollapse":7899,"What":7900,"ĠTests":7901,"Ġunauthorized":7902,"MPV":7903,"estation":7904,"Data":7905,"isp":7906,"Ġfoci":7907,"Ġexacerb":7908,"ĠHOUR":7909,"Ġinjections":7910,"hep":7911,"Cervical":7912,"orderline":7913,"YROID":7914,"Ul":7915,"Temperature":7916,"ĠEye":7917,"Value":7918,"Ġmr":7919,"andra":7920,"Ġgranu":7921,"cont":7922,"Ġgets":7923,"ĠTOMOGRAPHY":7924,"Ġbest":7925,"Ech":7926,"SUES":7927,"Ġdent":7928,"ĠLyn":7929,"Ġcomparison":7930,"ĠMeasurements":7931,"Ġremoval":7932,"ML":7933,"Ġdeformities":7934,"Ġcoordination":7935,"xious":7936,"207":7937,"ĠHCT":7938,"king":7939,"When":7940,"1971":7941,"Ġ139":7942,"Ġshowing":7943,"ĠDLP":7944,"emaker":7945,"ĠDATA":7946,"ging":7947,"self":7948,"smoker":7949,"1950":7950,"TIME":7951,"Ġreading":7952,"ĠDiv":7953,"opor":7954,"ĠChildren":7955,"Ġeven":7956,"BA":7957,"ĠHar":7958,"ĠFever":7959,"heezing":7960,"Ġcerebral":7961,"Ġicterus":7962,"Mid":7963,"Off":7964,"Ġnoticed":7965,"Dist":7966,"ĠAlex":7967,"Ġcrack":7968,"ĠEdit":7969,"with":7970,"Ġphot":7971,"206":7972,"achyc":7973,"ABLE":7974,"alciferol":7975,"hen":7976,"cholesterole":7977,"Ġunderlying":7978,"PREHENSIVE":7979,"MITT":7980,"Refills":7981,"Ġhypertrophy":7982,"yan":7983,"ycin":7984,"Onset":7985,"Ġechocardiogram":7986,"inished":7987,"eta":7988,"ĠCENT":7989,"ĠFM":7990,"WN":7991,"Ġapply":7992,"Ġepid":7993,"Reflexes":7994,"ĠTIMES":7995,"atous":7996,"Ġseconds":7997,"ĠQty":7998,"Ġjunction":7999,"0001":8000,"Ġclaud":8001,"Day":8002,"OGLOBIN":8003,"ĠCN":8004,"Ġiv":8005,"ĠSupport":8006,"ĠWEST":8007,"ĠNotice":8008,"oz":8009,"2020":8010,"ICS":8011,"Ġbegan":8012,"ĠAbsent":8013,"bow":8014,"Ġtendon":8015,"Ġsi":8016,"Visual":8017,"fe":8018,"pped":8019,"REG":8020,"ĠAfter":8021,"igarette":8022,"Ġ079":8023,"Ġconstant":8024,"Ġmaximum":8025,"kins":8026,"Ste":8027,"Ġsecure":8028,"ARS":8029,"ognitive":8030,"Ġopacity":8031,"ormone":8032,"Ġmeasure":8033,"Ġpurposes":8034,"ĠFOLLOW":8035,"Ġlargest":8036,"Ġrectum":8037,"Ġweekly":8038,"Feb":8039,"Ġnal":8040,"Mc":8041,"Ġsure":8042,"Are":8043,"Ġhalf":8044,"Ġfederal":8045,"istics":8046,"aL":8047,"ĠProbable":8048,"itoneum":8049,"ĠRos":8050,"helle":8051,"HAM":8052,"ĠRead":8053,"ĠCover":8054,"ĠBrother":8055,"Ġincreasing":8056,"ĠReply":8057,"owder":8058,"ductive":8059,"CHLOR":8060,"IATRIC":8061,"Kn":8062,"Ġ856":8063,"ĠAudit":8064,"Sat":8065,"Coordination":8066,"ĠCarotid":8067,"ĠOff":8068,"138":8069,"ONG":8070,"ATIO":8071,"Ġestimated":8072,"ĠHip":8073,"Mod":8074,"ĠCHRIST":8075,"Ġexcision":8076,"ioma":8077,"gu":8078,"Sm":8079,"Ġhysterectomy":8080,"asses":8081,"ĠCal":8082,"enterology":8083,"ado":8084,"Ġcalcul":8085,"lofen":8086,"Ġradiology":8087,"Ġallergic":8088,"Ġresolution":8089,"ARGE":8090,"RR":8091,"Ġ122":8092,"alluc":8093,"ĠMore":8094,"ĠCarrier":8095,"135":8096,"ĠEnc":8097,"WE":8098,"Acct":8099,"Gross":8100,"Ġreco":8101,"Ġgive":8102,"Ġcontaining":8103,"State":8104,"Ġoutpatient":8105,"FIR":8106,"ĠPHYSICAL":8107,"Ġintensity":8108,"PRET":8109,"ĠAbuse":8110,"cor":8111,"Ġbiliary":8112,"Ġskull":8113,"226":8114,"Ġinitially":8115,"HEAD":8116,"osphatase":8117,"ragm":8118,"Absolute":8119,"ĠArtery":8120,"Ġaxis":8121,"ĠReaction":8122,"Ġden":8123,"ROSS":8124,"emb":8125,"Ġmaintenance":8126,"Coronary":8127,"ĠTwice":8128,"ĠRegional":8129,"lege":8130,"ucle":8131,"ĠTISSUES":8132,"NJ":8133,"Ġaerosol":8134,"Authorizing":8135,"Ġbusiness":8136,"Ġtinnitus":8137,"enne":8138,"Sensation":8139,"Privacy":8140,"Ġfi":8141,"ĠActivity":8142,"ĠAir":8143,"Ġ607":8144,"ANG":8145,"ĠCarol":8146,"ausal":8147,"Ġswollen":8148,"Dose":8149,"ĠPhysicians":8150,"Peripheral":8151,"ointments":8152,"ĠpT":8153,"Ġlives":8154,"NEW":8155,"Ġ148":8156,"ĠFINDINGS":8157,"Ġsubcentimeter":8158,"Ġdetailed":8159,"ĠFLA":8160,"ĠBOX":8161,"050":8162,"UMENT":8163,"Reports":8164,"ipital":8165,"yma":8166,"ĠdI":8167,"Ġuterus":8168,"Ġfusion":8169,"http":8170,"ĠLong":8171,"Ġgoal":8172,"Ġsedation":8173,"Ġmeth":8174,"Call":8175,"Ġdescending":8176,"Ġextending":8177,"IZATION":8178,"La":8179,"Oropharynx":8180,"Ġclaudication":8181,"Lo":8182,"ĠConstitutional":8183,"heck":8184,"CONFIDENTIALITY":8185,"Ġforward":8186,"ĠMN":8187,"orrhea":8188,"ĠINH":8189,"ĠBS":8190,"ĠVIEWS":8191,"ĠINV":8192,"ĠColor":8193,"glass":8194,"Ġinterpreted":8195,"Added":8196,"Ġeffusions":8197,"Ġnyst":8198,"ĠOrd":8199,"SSN":8200,"Neg":8201,"ĠAmbulatory":8202,"Comprehensive":8203,"Strength":8204,"Ġpains":8205,"Ġ407":8206,"CISION":8207,"cholesterolemia":8208,"enopausal":8209,"ĠPS":8210,"Ġ1800":8211,"Ia":8212,"Ġvari":8213,"Ġasked":8214,"athan":8215,"enhanc":8216,"Ġejection":8217,"GYN":8218,"Ġ877":8219,"Ġinfections":8220,"TENDING":8221,"ĠMarg":8222,"OMS":8223,"TS":8224,"ĠCla":8225,"NEUROLOGIC":8226,"Ġlump":8227,"Some":8228,"ĠAuscultation":8229,"ĠLD":8230,"Ġgrowth":8231,"OPER":8232,"Ġelectronic":8233,"ĠLUNG":8234,"002":8235,"Ġburning":8236,"actition":8237,"Ġcoughing":8238,"Ġ786":8239,"ĠCEA":8240,"eneration":8241,"ĠMOR":8242,"704":8243,"Ġrepresentative":8244,"ask":8245,"Ġkidneys":8246,"ĠAutomated":8247,"Ġperfusion":8248,"139":8249,"orta":8250,"Ith":8251,"ĠProstate":8252,"Ġacetaminophen":8253,"Dear":8254,"Ġepile":8255,"Ġcaps":8256,"Pertinent":8257,"VED":8258,"ressive":8259,"Ġneurological":8260,"ĠSister":8261,"ĠRadiation":8262,"ulo":8263,"Ġdepressed":8264,"1947":8265,"ĠLex":8266,"arseness":8267,"aron":8268,"Ġcyt":8269,"Phys":8270,"Ġadmitted":8271,"Ġwound":8272,"ĠSheet":8273,"Addendum":8274,"usband":8275,"oag":8276,"Ġaches":8277,"Ġmucous":8278,"formin":8279,"ĠLu":8280,"Present":8281,"ĠDise":8282,"enzap":8283,"amuscular":8284,"rc":8285,"ĠMatthew":8286,"Ġ207":8287,"Ġnebul":8288,"Ġran":8289,"Imm":8290,"Ġpercent":8291,"Ġcriteria":8292,"ĠChristopher":8293,"ĠAppt":8294,"ĠJohnson":8295,"ulture":8296,"ĠConcern":8297,"309":8298,"Hemoglobin":8299,"Ġ901":8300,"Ġ888":8301,"Muscle":8302,"ĠCOD":8303,"Ġattempt":8304,"Ġwrist":8305,"hs":8306,"ĠProbably":8307,"imm":8308,"oporosis":8309,"Ġpleasure":8310,"Ray":8311,"kt":8312,"Ġcomment":8313,"NG":8314,"Allergen":8315,"BB":8316,"ĠHemoglobin":8317,"WO":8318,"ĠPap":8319,"ĠSteven":8320,"Ġantic":8321,"IVERSITY":8322,"ĠMor":8323,"Ġcomponent":8324,"FH":8325,"Ġ121":8326,"Ġpen":8327,"ignment":8328,"obia":8329,"Ġreflect":8330,"Ġpamapai":8331,"ĠDys":8332,"Ġischemic":8333,"Ġpulm":8334,"ervous":8335,"Soft":8336,"ĠPHARMACY":8337,"hi":8338,"Ġ217":8339,"Ġemphysema":8340,"onin":8341,"ĠPatel":8342,"202":8343,"ĠBase":8344,"wo":8345,"Resulting":8346,"Currently":8347,"Ġletter":8348,"ĠFlowsheet":8349,"Ġpac":8350,"Guarantor":8351,"DOS":8352,"viation":8353,"ato":8354,"VIS":8355,"ĠCounseling":8356,"icidal":8357,"ĠDue":8358,"rochlorothiazide":8359,"ĠPending":8360,"Ġthickness":8361,"OFF":8362,"Ġirrit":8363,"OUND":8364,"ĠTerms":8365,"ĠFactors":8366,"Ġverified":8367,"ĠAG":8368,"locks":8369,"ĠATTEST":8370,"Ġstr":8371,"LOD":8372,"ĠSingle":8373,"lasty":8374,"BUR":8375,"aylor":8376,"OCYTES":8377,"Ġcontract":8378,"ĠHIPAA":8379,"ĠLt":8380,"2008":8381,"ĠBREAST":8382,"Ġ010":8383,"Ġhypo":8384,"APP":8385,"1949":8386,"ĠConjunctivae":8387,"ĠJac":8388,"pre":8389,"ĠAndrew":8390,"ĠIntended":8391,"oplastic":8392,"ricia":8393,"Ġconvey":8394,"ycodone":8395,"NING":8396,"Consistent":8397,"Ġbranch":8398,"Ġhouse":8399,"ĠVA":8400,"uber":8401,"Ġdelivering":8402,"ĠGYN":8403,"411":8404,"mill":8405,"ready":8406,"Ġfar":8407,"'d":8408,"ĠAspirin":8409,"UMIN":8410,"arb":8411,"Carotid":8412,"ĠMajor":8413,"ĠEdward":8414,"SUM":8415,"ĠStudies":8416,"lobenzap":8417,"iC":8418,"Ġcontent":8419,"ĠAsh":8420,"Ġfeatures":8421,"Ġ2009":8422,"Ġpolyps":8423,"Ġnit":8424,"ĠRESULTS":8425,"get":8426,"road":8427,"ĠScheduled":8428,"esa":8429,"ventive":8430,"ainty":8431,"TA":8432,"Ġdiastolic":8433,"COMPUTED":8434,"ĠOD":8435,"Ġpoorly":8436,"Suspicious":8437,"ĠRenal":8438,"ocrit":8439,"Ġcomplication":8440,"ero":8441,"Ġdegree":8442,"ĠHel":8443,"rectomy":8444,"ĠIP":8445,"ĠTesting":8446,"BY":8447,"isthesis":8448,"ĠprintChartOptions":8449,"inations":8450,"Ġascending":8451,"ĠDiseases":8452,"CAR":8453,"Ġcomfort":8454,"IASTIN":8455,"Ġmelena":8456,"mog":8457,"oxysm":8458,"134":8459,"achycardia":8460,"Ġevents":8461,"724":8462,"168":8463,"ĠColonoscopy":8464,"Ġinst":8465,"iae":8466,"Ġsituation":8467,"Spine":8468,"Flowsheets":8469,"ln":8470,"ĠPF":8471,"actitioner":8472,"ĠFlor":8473,"ĠAssistant":8474,"ODY":8475,"208":8476,"Ġprogressive":8477,"ĠSpecialty":8478,"Ġdetected":8479,"IED":8480,"eno":8481,"Ġ412":8482,"ĠSol":8483,"TIN":8484,"Ġpin":8485,"ĠHP":8486,"Ġtip":8487,"Ġchloride":8488,"Ġobserved":8489,"Cough":8490,"onn":8491,"gias":8492,"LDL":8493,"Ġattenuation":8494,"600":8495,"Ġadequate":8496,"ĠNit":8497,"rob":8498,"iscell":8499,"Ġpetech":8500,"ĠPager":8501,"IMEN":8502,"CHIEF":8503,"Ġsurround":8504,"ĠMil":8505,"ĠVital":8506,"eptum":8507,"Ġ170":8508,"ĠASSOCIATES":8509,"viCore":8510,"ares":8511,"ĠObesity":8512,"ĠExtended":8513,"atible":8514,"ECOG":8515,"ĠAssess":8516,"Mood":8517,"agmus":8518,"Ġpregnancy":8519,"SPEC":8520,"oresis":8521,"ĠAuthorizing":8522,"ĠGEN":8523,"WOOD":8524,"Ġjugular":8525,"ewhat":8526,"And":8527,"oxysmal":8528,"FERENT":8529,"Ġfatty":8530,"ILD":8531,"ĠDRUG":8532,"lean":8533,"1948":8534,"ĠDVT":8535,"ĠALLERGIES":8536,"ĠFinancial":8537,"IASTINUM":8538,"Ġgeneralized":8539,"ĠProviders":8540,"OWEL":8541,"ĠIdent":8542,"ibular":8543,"ynth":8544,"Ġcertainty":8545,"Was":8546,"Ġblack":8547,"ĠDX":8548,"Ġnipple":8549,"ĠBiopsy":8550,"FORD":8551,"entricular":8552,"ey":8553,"OCK":8554,"Ġprivacy":8555,"itz":8556,"Ġtremors":8557,"ĠDigital":8558,"333":8559,"Ep":8560,"Poss":8561,"etric":8562,"ĠSCI":8563,"Ġbases":8564,"antoprazole":8565,"nees":8566,"ĠMARK":8567,"XX":8568,"ĠSUITE":8569,"Ġlog":8570,"Ġ74177":8571,"Flu":8572,"Ġmental":8573,"grade":8574,"Ġmarried":8575,"401":8576,"iana":8577,"Ġanxious":8578,"liminary":8579,"ĠAerosol":8580,"Ġdisorders":8581,"ĠBIRTH":8582,"Ca":8583,"ament":8584,"icient":8585,"Rem":8586,"Ġmutation":8587,"Prescription":8588,"Ġ240":8589,"ĠValley":8590,"Ġ719":8591,"Fr":8592,"bopl":8593,"ĠVomiting":8594,"acetaminophen":8595,"Ġtreatments":8596,"ivitamin":8597,"exas":8598,"defined":8599,"ANDS":8600,"ĠSounds":8601,"ĠDT":8602,"anasal":8603,"isting":8604,"ĠGap":8605,"PB":8606,"Mean":8607,"ĠPossibly":8608,"Ġyet":8609,"KDA":8610,"ĠOUTPATIENT":8611,"atr":8612,"Ġwhom":8613,"Caffeine":8614,"RESPIRATORY":8615,"ĠTra":8616,"ĠEmergency":8617,"Ġcrackles":8618,"traocular":8619,"1972":8620,"ĠComponent":8621,"OVE":8622,"idge":8623,"ĠSurgeon":8624,"ĠSpouse":8625,"urring":8626,"Ġoccur":8627,"ulature":8628,"Ġstrong":8629,"OLD":8630,"aries":8631,"Sensory":8632,"Ġstraight":8633,"Michael":8634,"ĠMAY":8635,"Ġemployee":8636,"Ġparenchymal":8637,"iceps":8638,"ĠBou":8639,"Ġalready":8640,"azole":8641,"303":8642,"Ġsites":8643,"ICHARD":8644,"Routine":8645,"ICRO":8646,"LODIP":8647,"ĠEyes":8648,"Ġdefined":8649,"mitting":8650,"Ġradiating":8651,"Ġlumbosacral":8652,"ransport":8653,"Ġlaws":8654,"Question":8655,"Ġinsomnia":8656,"dy":8657,"lobenzaprine":8658,"ĠCharles":8659,"iscellaneous":8660,"Ġprotr":8661,"ĠMad":8662,"Ġneurologic":8663,"Ġbiops":8664,"occ":8665,"ĠNuclear":8666,"oden":8667,"Ġgrad":8668,"atories":8669,"utrophil":8670,"Ġinsufficiency":8671,"Ġencouraged":8672,"atI":8673,"Pel":8674,"ĠLC":8675,"atherine":8676,"ATURE":8677,"ĠWay":8678,"Ġalone":8679,"ophy":8680,"Ġtitle":8681,"Ġarms":8682,"Ġfasc":8683,"Ġsclera":8684,"Ġconfusion":8685,"ĠPlatelet":8686,"Ġgums":8687,"ĠVi":8688,"rocodone":8689,"308":8690,"INO":8691,"ĠINT":8692,"Ġperitoneal":8693,"Ġsores":8694,"ĠDiet":8695,"Ġoxygen":8696,"122":8697,"Ġscar":8698,"Ġtrace":8699,"PC":8700,"ieve":8701,"Ġdiffusion":8702,"Ġ414":8703,"Ġbo":8704,"007":8705,"ĠBEN":8706,"Ġtransverse":8707,"Ġparenchyma":8708,"Ann":8709,"David":8710,"Contrast":8711,"Upper":8712,"ĠDen":8713,"Bilirubin":8714,"Ġrhinitis":8715,"ĠCt":8716,"ROL":8717,"Ġcompatible":8718,"era":8719,"disc":8720,"ĠSERUM":8721,"Ġabscess":8722,"Ġrare":8723,"ĠEdema":8724,"Main":8725,"lodipine":8726,"Ġaware":8727,"Nursing":8728,"ĠImage":8729,"ĠTB":8730,"amethasone":8731,"ADRENAL":8732,"ĠBCBS":8733,"Ġ350":8734,"boplatin":8735,"ĠGastrointestinal":8736,"hepatic":8737,"Ġ131":8738,"LEV":8739,"stitial":8740,"otomy":8741,"Risk":8742,"Ġatypical":8743,"sured":8744,"ĠQD":8745,"Ġ717":8746,"Ġinking":8747,"Ġindicates":8748,"Ġopacities":8749,"ROM":8750,"inter":8751,"Overall":8752,"Ġ220":8753,"Ġhapp":8754,"Ġdevice":8755,"ENDED":8756,"OLOGIST":8757,"Center":8758,"Show":8759,"APY":8760,"705":8761,"apt":8762,"TOTAL":8763,"Ġ411":8764,"ĠInterface":8765,"Ġss":8766,"isl":8767,"ĠAre":8768,"Ġide":8769,"Ġproduct":8770,"Ġnormally":8771,"Ġliving":8772,"Ġring":8773,"uted":8774,"Ġmight":8775,"VP":8776,"etine":8777,"ĠHAVE":8778,"CENT":8779,"ĠBed":8780,"HL":8781,"Employer":8782,"Most":8783,"ETA":8784,"Ġduration":8785,"ITONEUM":8786,"raphics":8787,"Ġste":8788,"osed":8789,"ĠCamp":8790,"Ġfair":8791,"lig":8792,"ATELET":8793,"chester":8794,"Ġaspx":8795,"Diet":8796,"ietal":8797,"ĠMont":8798,"Ġcalf":8799,"ĠPOS":8800,"ĠINC":8801,"REFER":8802,"iography":8803,"amil":8804,"Ġattack":8805,"GA":8806,"ELY":8807,"ĠLes":8808,"vI":8809,"ĠCross":8810,"ervative":8811,"Ġinvolved":8812,"ANN":8813,"hosis":8814,"ĠLy":8815,"aiting":8816,"Ġlost":8817,"Technique":8818,"ĠFormula":8819,"Ġclose":8820,"resh":8821,"Ġopen":8822,"ĠBLVD":8823,"ledge":8824,"cin":8825,"ĠMID":8826,"Ped":8827,"Ġhypod":8828,"iologic":8829,"Sleep":8830,"ocet":8831,"Ġ405":8832,"ivery":8833,"REASON":8834,"Ġsplen":8835,"Ġbulk":8836,"ourt":8837,"ĠJess":8838,"Ġlater":8839,"ĠPHQ":8840,"Ġinformed":8841,"airs":8842,"By":8843,"ĠPla":8844,"PACS":8845,"awn":8846,"ries":8847,"Ġesp":8848,"rival":8849,"227":8850,"ĠDecreased":8851,"Had":8852,"ĠPharmac":8853,"ĠRECEIVED":8854,"ENCE":8855,"Ġdistended":8856,"Ġ133":8857,"Ġsymptom":8858,"Ġpossibility":8859,"ĠEGD":8860,"Ġuser":8861,"anna":8862,"Unlikely":8863,"ĠWood":8864,"MARY":8865,"Ġect":8866,"Ġfund":8867,"Ġns":8868,"oung":8869,"Stage":8870,"REATMENT":8871,"143":8872,"Colonoscopy":8873,"Internal":8874,"ude":8875,"ĠSR":8876,"HI":8877,"ĠChloride":8878,"olo":8879,"Ġond":8880,"ĠUT":8881,"Occupation":8882,"lem":8883,"Ġpp":8884,"erman":8885,"ĠDoes":8886,"ĠCU":8887,"ked":8888,"Ġmention":8889,"ĠAntib":8890,"11111":8891,"Link":8892,"Ġmeet":8893,"Ġ299":8894,"ĠPD":8895,"Ġiniti":8896,"eries":8897,"Ġinlet":8898,"ateg":8899,"LOGY":8900,"Ġantibiotics":8901,"ĠCranial":8902,"Ġ129":8903,"Of":8904,"Ġcis":8905,"ĠAPP":8906,"CORRELATION":8907,"Ġreceiv":8908,"Ġbasis":8909,"Ġhist":8910,"Ġinfusion":8911,"Ġ132":8912,"ĠGrandfather":8913,"ĠORG":8914,"ĠCareCore":8915,"ĠJeffrey":8916,"level":8917,"odg":8918,"ĠPERRLA":8919,"FOL":8920,"onged":8921,"ropathy":8922,"uity":8923,"Ġsymp":8924,"ĠBu":8925,"Ġdefinite":8926,"ventional":8927,"ucasian":8928,"ĠAmb":8929,"Ġaverage":8930,"Ġassistance":8931,"algias":8932,"ĠCheck":8933,"Ġgraft":8934,"Hyperlipidemia":8935,"Ġhusband":8936,"Ve":8937,"301":8938,"ĠCASE":8939,"mL":8940,"Sister":8941,"Ġapex":8942,"Ġgastroesophageal":8943,"ĠMob":8944,"Ġsquamous":8945,"Check":8946,"ĠCHOLE":8947,"Ġcost":8948,"Ġhesit":8949,"Ġureter":8950,"ala":8951,"ĠHGB":8952,"Ġion":8953,"Otherwise":8954,"ĠSeiz":8955,"JECTIVE":8956,"1973":8957,"Ġteeth":8958,"Ġpupils":8959,"ĠOccup":8960,"ustin":8961,"Ġflank":8962,"OTT":8963,"ico":8964,"ĠConfidential":8965,"Ġstation":8966,"jsp":8967,"ĠAnemia":8968,"IU":8969,"ĠRecommend":8970,"Ġeval":8971,"ĠTUMOR":8972,"Transcribed":8973,"ĠâĢľ":8974,"Ġvisible":8975,"Acute":8976,"ERN":8977,"COMM":8978,"Ġsometimes":8979,"mail":8980,"Ġsignature":8981,"ĠGiven":8982,"Ġpathologic":8983,"1000":8984,"cerely":8985,"Ġorigin":8986,"iscan":8987,"Ġrotation":8988,"Ġusual":8989,"iform":8990,"Ġseems":8991,"ĠJOSEPH":8992,"ITOR":8993,"lanar":8994,"hez":8995,"ĠTHOMAS":8996,"IDNEYS":8997,"lc":8998,"ĠSusan":8999,"Details":9000,"ULAR":9001,"Ġmembers":9002,"ean":9003,"Ġflat":9004,"STIT":9005,"Ġcalled":9006,"ĠELECT":9007,"ĠMetastatic":9008,"235":9009,"ĠCOMMUN":9010,"Ġorb":9011,"PANC":9012,"urity":9013,"Ġexercises":9014,"Protein":9015,"1946":9016,"ĠGranu":9017,"Ġdependence":9018,"Ġothers":9019,"âĢŀ":9020,"atch":9021,"ASON":9022,"AID":9023,"olin":9024,"Ġreform":9025,"Ġ227":9026,"Ġ520":9027,"Ġquestion":9028,"Ġarthralgias":9029,"ju":9030,"inous":9031,"ĠGrp":9032,"ĠMARY":9033,"Ġsafe":9034,"Ġclearance":9035,"Asp":9036,"ze":9037,"ots":9038,"ĠConstipation":9039,"PRA":9040,"ĠBED":9041,"icted":9042,"ĠUHC":9043,"Eosin":9044,"ĠIncreased":9045,"CINOMA":9046,"Speech":9047,"ĠTHER":9048,"ashes":9049,"readmill":9050,"Ġbirth":9051,"CURRENT":9052,"Ġformer":9053,"ĠRU":9054,"ĠVisual":9055,"ABDOM":9056,"ĠTechn":9057,"GENT":9058,"Ġinfarct":9059,"ĠWall":9060,"Si":9061,"CODONE":9062,"Refill":9063,"Ġnc":9064,"Ġvalue":9065,"ĠWal":9066,"aying":9067,"Billing":9068,"Ġsend":9069,"Ġpainful":9070,"estig":9071,"ĠARNP":9072,"ĠImmunologic":9073,"Ġexudate":9074,"ĠOt":9075,"Ġincision":9076,"rup":9077,"Ġfloor":9078,"ewhere":9079,"do":9080,"Pak":9081,"Ġdisturbances":9082,"âĸª":9083,"Ical":9084,"oration":9085,"Ġ206":9086,"Ġworsen":9087,"Ġarterial":9088,"SUB":9089,"307":9090,"ĠBlock":9091,"BOR":9092,"Ġnecessity":9093,"REPORT":9094,"Ġpartially":9095,"tho":9096,"____":9097,"ĠPeter":9098,"rous":9099,"rhythm":9100,"rection":9101,"ĠMuc":9102,"Ġcleared":9103,"Ġsomewhat":9104,"Ġvitals":9105,"ĠHo":9106,"ĠTi":9107,"ĠLou":9108,"Red":9109,"Ġscoliosis":9110,"Ġkind":9111,"Ġ704":9112,"Ġchem":9113,"Ġdistension":9114,"ĠPFT":9115,"ĠÂ£":9116,"exp":9117,"Ġ312":9118,"ĠDet":9119,"NORMAL":9120,"Orientation":9121,"Air":9122,"ccinate":9123,"149":9124,"gg":9125,"ĠSusp":9126,"Ġhalluc":9127,"RIL":9128,"ĠHOURS":9129,"ĠSERVICES":9130,"ĠStroke":9131,"Ġsteroid":9132,"Ġcenter":9133,"ĠTI":9134,"ĠProvid":9135,"nip":9136,"Ġdischarged":9137,"ĠSend":9138,"RIGHT":9139,"ĠAw":9140,"irus":9141,"ATIC":9142,"Ġeligible":9143,"Ġff":9144,"Reading":9145,"Ġsuggested":9146,"asion":9147,"ĠNeurosurgery":9148,"ZI":9149,"142":9150,"appearing":9151,"Ġdestruction":9152,"Ġ601":9153,"ĠSUM":9154,"Ġremote":9155,"Ġtoes":9156,"Ġassay":9157,"Fall":9158,"Ġoropharynx":9159,"Ġheterog":9160,"Authorized":9161,"ĠREFERRAL":9162,"ĠMOD":9163,"DIAGNOSTIC":9164,"rot":9165,"OTASS":9166,"ionnaire":9167,"Ġ404":9168,"Ġmi":9169,"Ġcontr":9170,"Ġbronchi":9171,"1974":9172,"IDES":9173,"antar":9174,"311":9175,"221":9176,"Ġsteroids":9177,"Discontinued":9178,"ĠRADI":9179,"Brother":9180,"via":9181,"Due":9182,"ĠKath":9183,"pass":9184,"Ġ480":9185,"che":9186,"Af":9187,"moglobin":9188,"ifact":9189,"Port":9190,"Hearing":9191,"Ġod":9192,"Ġnet":9193,"AMINATION":9194,"mittal":9195,"Ġ8080":9196,"ĠReleased":9197,"Ġsuff":9198,"PANCREAS":9199,"ĠNG":9200,"ĠRam":9201,"Ġregions":9202,"Ġpurs":9203,"Ġhelical":9204,"olone":9205,"ĠWarm":9206,"ĠFunction":9207,"ĠAPPE":9208,"Influenza":9209,"levard":9210,"ĠTemperature":9211,"ISSION":9212,"Ġsurrounding":9213,"ATOR":9214,"137":9215,"NOWN":9216,"iogram":9217,"AMM":9218,"ĠGLANDS":9219,"Os":9220,"Ġfront":9221,"vices":9222,"WELL":9223,"ĠOl":9224,"ĠWT":9225,"SPLEEN":9226,"Ġrelevant":9227,"Ġtransplant":9228,"ĠSurface":9229,"ĠPi":9230,"half":9231,"ocrin":9232,"Ġgreatest":9233,"ĠSun":9234,"Ġobservation":9235,"Ġlate":9236,"Ġsummary":9237,"SL":9238,"ĠKrist":9239,"ailure":9240,"but":9241,"Ġpercussion":9242,"Ġlightheadedness":9243,"ĠSevere":9244,"ĠLIN":9245,"Ġhop":9246,"ĠPlans":9247,"Future":9248,"244":9249,"Ġ088":9250,"axial":9251,"Ġmening":9252,"Ġappeal":9253,"Ġpara":9254,"ANIEL":9255,"asive":9256,"ba":9257,"ĠSal":9258,"IOGRAM":9259,"ĠDiagnostics":9260,"608":9261,"Ġsuper":9262,"ĠOropharynx":9263,"Ord":9264,"1975":9265,"enderness":9266,"ĠStat":9267,"ĠDiarrhea":9268,"Ġnystagmus":9269,"ogram":9270,"Ġwed":9271,"SAID":9272,"Ġwhole":9273,"ĠRV":9274,"ira":9275,"133":9276,"tle":9277,"Ġspondylosis":9278,"Ġregulations":9279,"ENCES":9280,"Ġadded":9281,"Bone":9282,"Ġgent":9283,"Ġoccasionally":9284,"Gastro":9285,"ĠDeceased":9286,"emographics":9287,"ĠLisa":9288,"ĠFib":9289,"ĠDESCRIPTION":9290,"Pages":9291,"ĠEric":9292,"Sent":9293,"aprox":9294,"ĠRATIO":9295,"PLEURA":9296,"ĠInject":9297,"ĠEcho":9298,"Malignant":9299,"ĠMarc":9300,"ĠMonitor":9301,"Ġ734":9302,"ĠEmploy":9303,"PMH":9304,"Sincerely":9305,"Ġpole":9306,"ĠÂ©":9307,"Ġdoses":9308,"ĠBoulevard":9309,"Ġimproving":9310,"KIDNEYS":9311,"ĠCent":9312,"MAD":9313,"ĠSk":9314,"arning":9315,"Relationship":9316,"MES":9317,"Ġ013":9318,"PP":9319,"Ġcollect":9320,"ĠAdministration":9321,"Ġai":9322,"OTASSIUM":9323,"EZ":9324,"Ġ850":9325,"RAS":9326,"inalysis":9327,"ĠPalpitations":9328,"Es":9329,"Ġimpairment":9330,"Counseling":9331,"ĠHMO":9332,"Ġlack":9333,"Ġ512":9334,"176":9335,"EXAMINATION":9336,"Ġfine":9337,"IMM":9338,"eld":9339,"Ġanal":9340,"ĠPND":9341,"ront":9342,"Essential":9343,"HEPAT":9344,"ĠFace":9345,"Ġheel":9346,"inv":9347,"REY":9348,"ĠMaria":9349,"Ġgenetic":9350,"Ġwhether":9351,"ĠLev":9352,"Ġcouple":9353,"Ser":9354,"Expand":9355,"adine":9356,"ĠCPAP":9357,"Ġtom":9358,"Ġhyperint":9359,"Ġyellow":9360,"Ġoptic":9361,"Referred":9362,"Direct":9363,"Ġsource":9364,"ĠSaturation":9365,"Ġepidural":9366,"Ġknees":9367,"Ġvaric":9368,"Ġmediastinum":9369,"ernia":9370,"Ġsetting":9371,"HDL":9372,"zing":9373,"ĠBrook":9374,"Ġvisits":9375,"ĠCard":9376,"ĠLS":9377,"ĠSIGNED":9378,"ĠTympanic":9379,"Ġarc":9380,"loma":9381,"Possible":9382,"Ġstones":9383,"Ġsx":9384,"ĠSignatures":9385,"180":9386,"Ġscreen":9387,"CareCore":9388,"Ġutilized":9389,"Hyd":9390,"211":9391,"Ġcassette":9392,"Ġparty":9393,"Ġheavy":9394,"ĠBrian":9395,"Ġtor":9396,"Ġrun":9397,"ĠTRA":9398,"LEFT":9399,"Ġseverity":9400,"Ĥ¬":9401,"ĠSan":9402,"Ġ2008":9403,"ĠDale":9404,"1275":9405,"Spleen":9406,"ronx":9407,"rozen":9408,"UDING":9409,"ĠTri":9410,"Ġtricuspid":9411,"Path":9412,"TT":9413,"yr":9414,"RUCTIONS":9415,"12019":9416,"ĠLabCorp":9417,"Ġbar":9418,"Ple":9419,"Ver":9420,"Ġpostoperative":9421,"Ġclos":9422,"CONTRAST":9423,"ĠNORTH":9424,"BRA":9425,"BIL":9426,"inson":9427,"UCLEAR":9428,"ĠDiscussed":9429,"Telephone":9430,"Ear":9431,"aproxen":9432,"oke":9433,"240":9434,"mon":9435,"Ġfunctional":9436,"Ġtable":9437,"ĠCorn":9438,"Ġpermitted":9439,"ĠCHE":9440,"RADIATION":9441,"2926":9442,"ĠInj":9443,"ĠZip":9444,"Ġcarry":9445,"AIR":9446,"iliation":9447,"Ġ127":9448,"ectoris":9449,"van":9450,"Ġiii":9451,"Ġdifficulties":9452,"ffective":9453,"orts":9454,"Ġsooner":9455,"ĠQU":9456,"osterone":9457,"owa":9458,"Ġoccl":9459,"tha":9460,"Ġprec":9461,"ĠABOVE":9462,"ĠmA":9463,"Ġinfectious":9464,"rint":9465,"SURGICAL":9466,"actory":9467,"ĠCorp":9468,"ĠDU":9469,"pal":9470,"Ġ270":9471,"hl":9472,"lee":9473,"vironmental":9474,"Ġrestriction":9475,"Ġway":9476,"iring":9477,"oug":9478,"Vascular":9479,"Ġ014":9480,"ĠEncounters":9481,"has":9482,"FORMIN":9483,"lox":9484,"ĠRen":9485,"ĠGRA":9486,"Ġconcentration":9487,"AGN":9488,"zine":9489,"ume":9490,"ĠERX":9491,"ĠHarr":9492,"mooth":9493,"Ġaccompanied":9494,"ĠMedicaid":9495,"ĠTHORAX":9496,"ĠCKD":9497,"ĠInfluenza":9498,"oratories":9499,"Ġdetermination":9500,"Ġ900":9501,"Ġnervous":9502,"Ġ225":9503,"ĠJR":9504,"ĠRecent":9505,"ada":9506,"Ġcertain":9507,"adient":9508,"theros":9509,"ĠSSN":9510,"ioid":9511,"ifying":9512,"version":9513,"ĠGross":9514,"HEMAT":9515,"MEDIASTINUM":9516,"United":9517,"ĠRCA":9518,"Ġshift":9519,"ĠTylenol":9520,"ultiplanar":9521,"amic":9522,"imally":9523,"Ġll":9524,"azepam":9525,"Systolic":9526,"ĠComm":9527,"LO":9528,"Ġtiny":9529,"Ġtn":9530,"errals":9531,"Ġbuttoc":9532,"ĠNeurological":9533,"Ġcorrespond":9534,"Ġ304":9535,"Ġchew":9536,"ESSION":9537,"ĠPsychiatric":9538,"ICARD":9539,"2007":9540,"Ġ330":9541,"Ret":9542,"Manual":9543,"Ġtim":9544,"ophobia":9545,"Ġbypass":9546,"IFIED":9547,"ĠMAL":9548,"liant":9549,"uts":9550,"lation":9551,"ĠALB":9552,"Ġprem":9553,"ĠIG":9554,"Ġcreatinine":9555,"Admit":9556,"Ġcomb":9557,"Ġanalysis":9558,"Ġtired":9559,"ĠWalk":9560,"ĠKE":9561,"ĠFLAIR":9562,"derson":9563,"Ig":9564,"ĠSed":9565,"ĠDC":9566,"Ma":9567,"ĠTissue":9568,"Ġaway":9569,"Go":9570,"Ġig":9571,"170":9572,"ĠEt":9573,"ĠDIFFERENT":9574,"Ġrunn":9575,"lie":9576,"mi":9577,"esthesias":9578,"ĠNW":9579,"VO":9580,"XII":9581,"ĠCaucasian":9582,"Ġinches":9583,"Ke":9584,"ĠElectronic":9585,"HIB":9586,"locity":9587,"Ġresident":9588,"Ġmigraines":9589,"228":9590,"Ġfiss":9591,"LIP":9592,"¿½":9593,"ï¿½":9594,"izumab":9595,"ĠGuid":9596,"Ġmastectomy":9597,"oses":9598,"KS":9599,"Ġcerebellar":9600,"ĠEvent":9601,"Ġlevothyroxine":9602,"Ġ302":9603,"ĠRand":9604,"Ġcompliance":9605,"Ġoper":9606,"229":9607,"Ġconcerned":9608,"artrate":9609,"ĠPEL":9610,"Ġ347":9611,"Ġsplenomegaly":9612,"icks":9613,"Panc":9614,"Ġfaint":9615,"Ġacquired":9616,"RESULT":9617,"Assessments":9618,"cn":9619,"Ġdip":9620,"Ġmyalgias":9621,"Ġ149":9622,"Ġcomments":9623,"ĠTT":9624,"Ġeasily":9625,"hes":9626,"Ġherniation":9627,"Ġ71260":9628,"Ġinsert":9629,"RICT":9630,"ective":9631,"Ġword":9632,"Ġinfiltrate":9633,"ereb":9634,"Ġaxilla":9635,"Ġpregnant":9636,"RADIOLOGY":9637,"PHQ":9638,"Ġdon":9639,"Ġimmunohistochem":9640,"ources":9641,"Ġum":9642,"199":9643,"ĠCALCIUM":9644,"rocardiogram":9645,"graphy":9646,"ĠApply":9647,"UFF":9648,"arry":9649,"Ġmucosal":9650,"ĠFORM":9651,"ĠCe":9652,"Ġpubic":9653,"Ġ334":9654,"Ġdeterm":9655,"Ġallowing":9656,"ropr":9657,"Ġbulge":9658,"Once":9659,"1944":9660,"Ġapical":9661,"Ġmanner":9662,"ĠUltrasound":9663,"iasis":9664,"Ġry":9665,"igen":9666,"Ġens":9667,"1977":9668,"ĠViews":9669,"Ġsclerotic":9670,"877":9671,"dr":9672,"Ġfa":9673,"uct":9674,"Ġposit":9675,"Ġ256":9676,"ĠRa":9677,"ĠKaren":9678,"thnic":9679,"Ġwit":9680,"uros":9681,"izer":9682,"ARANCE":9683,"ONS":9684,"ĠHistorical":9685,"Ġ616":9686,"PERITONEUM":9687,"Ġadmits":9688,"222":9689,"ITIONAL":9690,"DM":9691,"Ġmembrane":9692,"ĠJon":9693,"Ġatrium":9694,"ĠAlb":9695,"ĠINCLUDING":9696,"iatal":9697,"stomy":9698,"YE":9699,"osh":9700,"IPLE":9701,"YSIS":9702,"Ġpectoris":9703,"INU":9704,"ĠAnswer":9705,"heumatoid":9706,"Estimated":9707,"ochester":9708,"nr":9709,"ĠMeasured":9710,"Ġcreated":9711,"tl":9712,"ĠMental":9713,"Ġpalate":9714,"ronchial":9715,"ydips":9716,"Ġappendix":9717,"focal":9718,"ORTH":9719,"ĠGreg":9720,"Ġawn":9721,"Ġ213":9722,"Ġanat":9723,"Ġexperiencing":9724,"Ġbil":9725,"ramadol":9726,"examethasone":9727,"Ġcounseled":9728,"Duration":9729,"ĠApproved":9730,"Ġadenoma":9731,"Ġfaxed":9732,"ĠSCIENCES":9733,"Ġfri":9734,"178":9735,"Ġstrain":9736,"Ġrapid":9737,"Ġcramps":9738,"ĠGR":9739,"STEROL":9740,"Paternal":9741,"Ġenergy":9742,"ĠCirc":9743,"Ġpetechiae":9744,"Ġclon":9745,"Max":9746,"ĠOX":9747,"1976":9748,"hysis":9749,"ĠMood":9750,"Ġ309":9751,"ffee":9752,"su":9753,"ĠNetwork":9754,"Ġhemoglobin":9755,"LIN":9756,"Ġplatelet":9757,"Aortic":9758,"ĠwIth":9759,"ĠBACK":9760,"ĠDifficulty":9761,"718":9762,"Ġhoarseness":9763,"ĠOpen":9764,"var":9765,"ĠZO":9766,"Ġsystemic":9767,"ĠRh":9768,"HD":9769,"Ġexpans":9770,"ĠFrequency":9771,"raw":9772,"Ġgast":9773,"Radiation":9774,"nipaque":9775,"PAR":9776,"inf":9777,"2001":9778,"ogen":9779,"ĠFISH":9780,"ĠTHORACIC":9781,"Ġtalk":9782,"wh":9783,"1945":9784,"Ġrender":9785,"ĠMT":9786,"Ġstaging":9787,"Ġcaffeine":9788,"Ġnostr":9789,"Shortness":9790,"Ġdull":9791,"Ġondansetron":9792,"ĠTexas":9793,"Ġ214":9794,"ĠPractitioner":9795,"romy":9796,"Ġcausing":9797,"ERVICAL":9798,"Anion":9799,"Ġsem":9800,"ĠÂ±":9801,"171":9802,"Ġsuicidal":9803,"Ġnic":9804,"acin":9805,"ĠVision":9806,"Dispense":9807,"omography":9808,"Ġast":9809,"Ġaccessory":9810,"ĠDav":9811,"Education":9812,"unnel":9813,"atosis":9814,"ĠScheduling":9815,"PRETATION":9816,"Ient":9817,"Ġquite":9818,"omplete":9819,"ecl":9820,"Ġsensitive":9821,"Ġloop":9822,"Ġww":9823,"olus":9824,"ged":9825,"ydipsia":9826,"Ġgroundglass":9827,"ĠINS":9828,"ĠMRA":9829,"Ġesophagitis":9830,"ĠHypothyroidism":9831,"acity":9832,"ĠRay":9833,"Unremarkable":9834,"olam":9835,"ĠRICHARD":9836,"Ġcharacteristics":9837,"Ġblo":9838,"Ġfractures":9839,"ĠINDICATION":9840,"ADDER":9841,"bi":9842,"Facility":9843,"udden":9844,"ĠIncluding":9845,"FIELD":9846,"Mult":9847,"ELIS":9848,"ĠPaternal":9849,"Ġ123":9850,"enneth":9851,"ĠSUB":9852,"wy":9853,"052":9854,"Ġdepartment":9855,"Ġremaining":9856,"ĠâĤ¬":9857,"Ġextent":9858,"ĠOccasional":9859,"cutaneous":9860,"Ġmalaise":9861,"LEN":9862,"Ġtibial":9863,"Ġophthalm":9864,"Ġ175":9865,"ĠDiscontinued":9866,"Ġ71250":9867,"ACCT":9868,"Interpretation":9869,"Ġgentle":9870,"lier":9871,"based":9872,"Ġworks":9873,"ĠSOL":9874,"Stress":9875,"ĠSOUTH":9876,"Ġlosartan":9877,"itan":9878,"abine":9879,"Ġtext":9880,"Ġie":9881,"Ġ352":9882,"1101":9883,"emide":9884,"Ġdevelopment":9885,"ISE":9886,"Person":9887,"Nov":9888,"Ġexpected":9889,"256":9890,"Pneum":9891,"EOS":9892,"Ġdetermine":9893,"ĠDON":9894,"ĠRTC":9895,"nesday":9896,"Clear":9897,"Ġfibrosis":9898,"William":9899,"STON":9900,"Ġpresenting":9901,"ĠIsland":9902,"ĠFrank":9903,"Ġcand":9904,"ket":9905,"like":9906,"astom":9907,"Ġty":9908,"ĠImpression":9909,"Ol":9910,"ĠCigarettes":9911,"ĠImpro":9912,"hylaxis":9913,"Consult":9914,"WS":9915,"athic":9916,"ogenic":9917,"nar":9918,"ĠVERIFY":9919,"dis":9920,"ĠFlex":9921,"Ġlying":9922,"ĠVENT":9923,"Ġproduction":9924,"Ġmiss":9925,"utomatic":9926,"Ġthrombosis":9927,"ĠClin":9928,"MV":9929,"Ġtolerating":9930,"Ġmac":9931,"imer":9932,"Sep":9933,"stein":9934,"Ġflush":9935,"Ġele":9936,"ĠStephen":9937,"orah":9938,"ĠCycle":9939,"ĠANN":9940,"LOC":9941,"ĠSubject":9942,"ĠYES":9943,"ĠORGANS":9944,"Ġaz":9945,"Ġ204":9946,"Ġgot":9947,"ĠWeeks":9948,"Ġling":9949,"Ġreturned":9950,"mt":9951,"Ġhigher":9952,"oxic":9953,"899":9954,"ĠURINE":9955,"Alkaline":9956,"Ġwa":9957,"Ġstaining":9958,"ertensive":9959,"ĠNKDA":9960,"rief":9961,"ĠLawu":9962,"ROPH":9963,"ĠADDRESS":9964,"ĠAnthony":9965,"Ġtolerance":9966,"ĠPAC":9967,"Ġwi":9968,"ccessful":9969,"ĠGenitourinary":9970,"Ġsmaller":9971,"ĠPack":9972,"ĠCurrently":9973,"Ġ272":9974,"Ġgas":9975,"1979":9976,"Ġ904":9977,"WW":9978,"Ġuterine":9979,"Ġxl":9980,"illectomy":9981,"LODIPine":9982,"ĠTranscribed":9983,"2926089":9984,"ĠFile":9985,"ositis":9986,"Ġcoverage":9987,"Ġstim":9988,"Thoracic":9989,"Ġtoxic":9990,"leb":9991,"234":9992,"ISA":9993,"Ġfav":9994,"System":9995,"Fatigue":9996,"ios":9997,"VIN":9998,"ETH":9999,"Robert":10000,"Ġnotice":10001,"chym":10002,"Ġerrors":10003,"ĠGreen":10004,"vicore":10005,"1978":10006,"Ġvalues":10007,"ĠÂ»":10008,"1942":10009,"Ġdig":10010,"itr":10011,"Ġclaim":10012,"ersion":10013,"TESTINAL":10014,"MOUTH":10015,"ground":10016,"pleural":10017,"ĠCath":10018,"terminate":10019,"Protocol":10020,"ĠSUS":10021,"Ġmail":10022,"ilevel":10023,"IDGE":10024,"450":10025,"ĠPatricia":10026,"Ġagrees":10027,"Ġability":10028,"Ġscl":10029,"ECTOMY":10030,"lobal":10031,"Ġ444":10032,"ĠProtected":10033,"1980":10034,"NEGATIVE":10035,"Admin":10036,"Indication":10037,"ĠPATR":10038,"junctiva":10039,"Ġconfidentiality":10040,"Ġreduce":10041,"Ġbad":10042,"AKING":10043,"ĠNat":10044,"ncillary":10045,"Ġcatheterization":10046,"Ġguidelines":10047,"oon":10048,"INOP":10049,"ĠPROHIB":10050,"American":10051,"ĠSCREENING":10052,"epp":10053,"ĠAcid":10054,"Ġ0000":10055,"eating":10056,"ĠValidated":10057,"ĠMigraine":10058,"909":10059,"ĠXL":10060,"355":10061,"Ġcame":10062,"Ġnorm":10063,"Ġpunct":10064,"DS":10065,"Ax":10066,"ĠSa":10067,"ĠMichelle":10068,"Ġagreement":10069,"ĠVV":10070,"Diastolic":10071,"ĠUNITED":10072,"Ġio":10073,"eding":10074,"ĠPen":10075,"Former":10076,"Ġparticular":10077,"Ġfragments":10078,"Ġbit":10079,"Can":10080,"ĠHist":10081,"ATT":10082,"lipidemia":10083,"ILITY":10084,"SCOP":10085,"cephalus":10086,"ĠRt":10087,"Ġ311":10088,"ĠAden":10089,"Ġapproval":10090,"Ġradiograph":10091,"Ġcomplaining":10092,"147":10093,"uf":10094,"ĠJackson":10095,"Ġsnoring":10096,"ĠMixed":10097,"roxy":10098,"ISC":10099,"Ġteam":10100,"Ġparietal":10101,"si":10102,"ĠTHYROID":10103,"ĠLipid":10104,"ĠPAUL":10105,"STITUT":10106,"Ġalignment":10107,"ĠEosin":10108,"esterday":10109,"umbil":10110,"Ġtat":10111,"Ġsulfate":10112,"Ġusually":10113,"arth":10114,"Ġ410":10115,"UK":10116,"Ġspasms":10117,"related":10118,"hor":10119,"Good":10120,"anne":10121,"ITT":10122,"ople":10123,"ny":10124,"Ġserum":10125,"Joseph":10126,"ĠINSTRUCTIONS":10127,"Ġexample":10128,"HOL":10129,"ĠHold":10130,"pping":10131,"Plasma":10132,"Disease":10133,"Ġarch":10134,"Ġ277":10135,"ontaneous":10136,"ĠImplant":10137,"1943":10138,"Ġ__":10139,"Ġpict":10140,"ĠTOP":10141,"246":10142,"191":10143,"Ġcome":10144,"mentation":10145,"Ġ1046":10146,"ĠHEART":10147,"Immunizations":10148,"oints":10149,"ĠInjection":10150,"OBLEM":10151,"Ġprevent":10152,"Ġobese":10153,"AF":10154,"leeding":10155,"Ġlytic":10156,"ĠModify":10157,"Ġlapar":10158,"ĠHYDRO":10159,"oks":10160,"HER":10161,"065":10162,"Ġ165":10163,"het":10164,"ĠEAST":10165,"Ġlipid":10166,"Further":10167,"asy":10168,"ardium":10169,"Ity":10170,"espite":10171,"ĠProfile":10172,"ĠBilirubin":10173,"ĠFlow":10174,"onance":10175,"traum":10176,"stances":10177,"Ġcomm":10178,"ĠBLUE":10179,"ĠMDT":10180,"039":10181,"ategory":10182,"ĠElect":10183,"Ġasymmetry":10184,"ĠReflex":10185,"Ġreferring":10186,"Ġdye":10187,"ĠMarie":10188,"Ġcorrelation":10189,"Ġoncology":10190,"Ġtarget":10191,"ĠJU":10192,"ecurity":10193,"Ġchecked":10194,"ceipt":10195,"Class":10196,"ĠOV":10197,"Asthma":10198,"ĠSchedule":10199,"Ġpotassium":10200,"gressive":10201,"ĠSAM":10202,"195":10203,"PELVIC":10204,"ĠConn":10205,"ĠGM":10206,"Ġdiabetic":10207,"ĠUrinary":10208,"utions":10209,"Ġtachycardia":10210,"Ġcontour":10211,"Headache":10212,"Memory":10213,"Ġinsight":10214,"ĠBeg":10215,"INARY":10216,"ĠANT":10217,"Ġpron":10218,"Ġbile":10219,"Des":10220,"Ġinjected":10221,"Ġallow":10222,"ursday":10223,"Oxford":10224,"aryng":10225,"ciliation":10226,"ĠREVIEWED":10227,"Ġadverse":10228,"Ġsuspected":10229,"Ġprolonged":10230,"ĠBur":10231,"Ġhepatomegaly":10232,"ECG":10233,"lopia":10234,"Ġnf":10235,"ĠAIR":10236,"Ġdiaphoresis":10237,"Ġinterstitial":10238,"5852926089":10239,"Ġsmooth":10240,"Ġpolyuria":10241,"Ġpedal":10242,"245":10243,"ĠProv":10244,"ĠTrail":10245,"ĠChief":10246,"juvant":10247,"PLT":10248,"239":10249,"ĠMES":10250,"ĠPharmacies":10251,"Ġlobes":10252,"ĠCITY":10253,"ĠEqu":10254,"TEL":10255,"igan":10256,"ĠCREATININE":10257,"ĠREST":10258,"ĠABSOLUTE":10259,"ĠLip":10260,"rective":10261,"arges":10262,"Ġoccipital":10263,"ULIN":10264,"ĠArth":10265,"ĠShoulder":10266,"ĠNSAID":10267,"Ġwave":10268,"ĠAdvanced":10269,"FORMED":10270,"Copy":10271,"Mark":10272,"inning":10273,"ĠWeb":10274,"ĠANY":10275,"ĠSIG":10276,"ĠHEIGHT":10277,"Ġsubsequent":10278,"uesday":10279,"243":10280,"Ġembolism":10281,"Ġdx":10282,"Ġplanned":10283,"urnal":10284,"Ġinked":10285,"ĠIntravenous":10286,"083":10287,"Ġreceiving":10288,"ĠMonths":10289,"ĠAllergic":10290,"Ġadjustment":10291,"igastric":10292,"requent":10293,"Ġfluticasone":10294,"Route":10295,"axia":10296,"ĠPG":10297,"Ġstret":10298,"155":10299,"Ġsal":10300,"Ġparents":10301,"ASTROIN":10302,"Ġtopically":10303,"166":10304,"isions":10305,"Standing":10306,"Ġbu":10307,"Ġurinating":10308,"Ġimportance":10309,"Ġ2406":10310,"ĠNorm":10311,"ĠALK":10312,"ĠMEDICAID":10313,"ĠSEX":10314,"Ġ859":10315,"175":10316,"ILIARY":10317,"ystal":10318,"Ġmobility":10319,"omal":10320,"itch":10321,"Ġattachments":10322,"Ġaid":10323,"ĠAUTO":10324,"ELLE":10325,"ĠBal":10326,"Unit":10327,"Ġpan":10328,"ICARDIUM":10329,"ROW":10330,"ĠOxygen":10331,"Ġadmission":10332,"ĠPri":10333,"ĠAmy":10334,"Ġautomated":10335,"Ġelevation":10336,"UO":10337,"Ġ012":10338,"Confidentiality":10339,"amb":10340,"States":10341,"ĠStation":10342,"Ġcard":10343,"Ġintervertebral":10344,"Ġanytime":10345,"ATHER":10346,"Ġlimb":10347,"ĠMER":10348,"ĠPERSON":10349,"atted":10350,"Ġdiscontinued":10351,"ws":10352,"ĠCMA":10353,"ransportation":10354,"Ġinfluenza":10355,"Ġbending":10356,"ĠMac":10357,"Ġmeal":10358,"Ġmixed":10359,"Ġlor":10360,"Ġmean":10361,"Ġcounts":10362,"otional":10363,"Ġsugar":10364,"ĠWeakness":10365,"Ġ337":10366,"ĠPCI":10367,"Ġ077":10368,"Ġ865":10369,"Repeat":10370,"Perc":10371,"FOX":10372,"Ġ147":10373,"Ġabsence":10374,"ĠEars":10375,"allopian":10376,"ĠCXR":10377,"Ġcorrect":10378,"Ġradiates":10379,"ĠAdv":10380,"Evaluation":10381,"osition":10382,"ĠIowa":10383,"olecalciferol":10384,"ĠGastroenterology":10385,"unk":10386,"Ġunderstands":10387,"loxic":10388,"ITIS":10389,"Ġbehalf":10390,"ĠELI":10391,"ĠWheezing":10392,"Ġsil":10393,"ĠHgb":10394,"tn":10395,"Brain":10396,"CARDIAC":10397,"Ġbronchitis":10398,"berly":10399,"Ġadnex":10400,"Ġ2007":10401,"kn":10402,"Ġimmediate":10403,"ĠWilliams":10404,"Ġthird":10405,"ĠPhos":10406,"ĠPERRL":10407,"Ġissue":10408,"ĠPossible":10409,"RTC":10410,"ĠEMG":10411,"ĠSIN":10412,"Ġbeats":10413,"999":10414,"Ġay":10415,"ifiers":10416,"rated":10417,"Company":10418,"ocl":10419,"ĠDISEASE":10420,"ĠPORT":10421,"Ġfactor":10422,"Ġlidocaine":10423,"Ġverbalized":10424,"usual":10425,"ĠNi":10426,"Ambulatory":10427,"Ġscleral":10428,"Ġsexual":10429,"ĠKelly":10430,"INGTON":10431,"Ġsymphysis":10432,"CAP":10433,"Ġecchym":10434,"Ġiterative":10435,"bre":10436,"LYN":10437,"umed":10438,"orris":10439,"ceptor":10440,"RIB":10441,"ASTROINTESTINAL":10442,"ĠROU":10443,"Ġrelax":10444,"ĠSGPT":10445,"ĠFoot":10446,"iropr":10447,"ĠLMP":10448,"Ġinstability":10449,"OCARD":10450,"Pay":10451,"549":10452,"Ġseptum":10453,"156":10454,"Ġpop":10455,"Ġsuspension":10456,"illes":10457,"Ġcuff":10458,"Ġlat":10459,"Ġsoftware":10460,"ĠGeorge":10461,"loxicam":10462,"Ġdesign":10463,"urgor":10464,"Rate":10465,"Ġseem":10466,"Ġatherosclerotic":10467,"ĠSumm":10468,"891":10469,"ĠDoc":10470,"Ġradial":10471,"ĠHS":10472,"Ġ727":10473,"ACEMENT":10474,"niS":10475,"lot":10476,"2006":10477,"WH":10478,"Requ":10479,"lains":10480,"Ġstand":10481,"Ġtested":10482,"Ġder":10483,"iday":10484,"237":10485,"ablish":10486,"Ġï¿½":10487,"ĠCARDIOLOGY":10488,"ĠBrown":10489,"ek":10490,"mouth":10491,"Complete":10492,"ementia":10493,"Ġmit":10494,"ORS":10495,"cs":10496,"traumatic":10497,"ĠTer":10498,"ĠBarb":10499,"ĠEndocrine":10500,"Ġcauses":10501,"318":10502,"gnancy":10503,"Ġcent":10504,"Sch":10505,"Ġmets":10506,"Ġartifact":10507,"ICALLY":10508,"255":10509,"ĠIron":10510,"Tim":10511,"Ġregularly":10512,"ras":10513,"stetric":10514,"Ġdental":10515,"Ġcervix":10516,"ĠAPPEARANCE":10517,"More":10518,"ĠPRA":10519,"Ġdeviation":10520,"ORAL":10521,"ĠTub":10522,"ĠMEDICARE":10523,"Ġyesterday":10524,"ENSION":10525,"901":10526,"440":10527,"Ġcholecystectomy":10528,"ĠSEE":10529,"Qty":10530,"ĠRecords":10531,"LER":10532,"ĠMonday":10533,"ibl":10534,"Ġ171":10535,"ĠMASS":10536,"bec":10537,"alis":10538,"ĠMotion":10539,"Ġ929":10540,"COMMEND":10541,"Ġfing":10542,"Ġrequests":10543,"Ġ143":10544,"Ġnostril":10545,"ĠResident":10546,"gs":10547,"Const":10548,"ecially":10549,"Ġ018":10550,"ĠIbs":10551,"ĠCorrected":10552,"MB":10553,"ĠPhosphatase":10554,"Ġdeclined":10555,"ĠAccess":10556,"HTN":10557,"ĠOmnipaque":10558,"ĠSpecialists":10559,"ĠSubstance":10560,"Ġ515":10561,"idate":10562,"Ġgentleman":10563,"ĠNumbness":10564,"Ġtravel":10565,"Ġhyperp":10566,"ival":10567,"ĠStatement":10568,"Av":10569,"OPHILS":10570,"ĠPLT":10571,"ANCY":10572,"GLUCOSE":10573,"ĠMartin":10574,"ĠTemporal":10575,"IMILE":10576,"ĠCop":10577,"ĠSulf":10578,"Ġheterogeneous":10579,"ossa":10580,"ĠRod":10581,"JU":10582,"Ġasymptomatic":10583,"ĠSpO":10584,"put":10585,"2004":10586,"POS":10587,"ĠIndication":10588,"ĠOW":10589,"Ġthirst":10590,"Urinary":10591,"ANO":10592,"ĠmCi":10593,"oxetine":10594,"Ġinvestig":10595,"ithiasis":10596,"ĠLog":10597,"ĠSulfate":10598,"ĠMemory":10599,"STATE":10600,"Ġ017":10601,"ĠBrun":10602,"ĠLIST":10603,"Ġintract":10604,"ouglas":10605,"Auto":10606,"ĠâĢĿ":10607,"ĠCessation":10608,"ĠProgram":10609,"EF":10610,"Requesting":10611,"Chem":10612,"Ġbiopsies":10613,"UBIN":10614,"Attention":10615,"rof":10616,"HP":10617,"Monocytes":10618,"wards":10619,"acing":10620,"ĠWM":10621,"CAD":10622,"Ġsitu":10623,"Ib":10624,"WY":10625,"ĠLEVEL":10626,"Ġ336":10627,"ĠCAB":10628,"ĠPenic":10629,"Nausea":10630,"aze":10631,"opram":10632,"ĠVisible":10633,"Ġassessed":10634,"erson":10635,"ithel":10636,"ĠSide":10637,"iles":10638,"change":10639,"ĠQUE":10640,"ATIONAL":10641,"ĠThree":10642,"men":10643,"0002":10644,"Ġpy":10645,"ĠPEN":10646,"'ll":10647,"Ġdominant":10648,"Ġsinusitis":10649,"Ġespecially":10650,"Ġtook":10651,"ĠPartners":10652,"iology":10653,"161":10654,"riceps":10655,"rence":10656,"Scler":10657,"ĠHAS":10658,"lott":10659,"ofran":10660,"1981":10661,"ĠJessica":10662,"ISSUE":10663,"Stop":10664,"urry":10665,"666":10666,"don":10667,"RECTED":10668,"WEST":10669,"ĠOv":10670,"ĠCRNP":10671,"ĠSarah":10672,"ĠRectal":10673,"ĠLat":10674,"arks":10675,"fast":10676,"ĠLIM":10677,"amina":10678,"load":10679,"Ġpowder":10680,"ĠMer":10681,"ĠAllied":10682,"Ġseasonal":10683,"Ġ172":10684,"Ġweak":10685,"STITUTIONAL":10686,"Ġannual":10687,"898":10688,"Ġmaintained":10689,"223":10690,"niSONE":10691,"lauc":10692,"VEF":10693,"ycl":10694,"Ġexcluded":10695,"infl":10696,"rett":10697,"ĠPercent":10698,"Ġstab":10699,"Ġ450":10700,"ĠNeeds":10701,"ĠFri":10702,"Ġsubs":10703,"ĠFranc":10704,"Ce":10705,"Ġpeak":10706,"Ġliqu":10707,"inel":10708,"337":10709,"eterminate":10710,"iative":10711,"ĠUM":10712,"Ġanticoag":10713,"Ġhallucinations":10714,"amide":10715,"ĠAlk":10716,"ONY":10717,"Ġ911":10718,"Regular":10719,"Ġphase":10720,"Ġfasting":10721,"Ġ750":10722,"ĠANDRE":10723,"itic":10724,"irg":10725,"Ġaer":10726,"ĠInhale":10727,"ĠINR":10728,"179":10729,"241":10730,"ption":10731,"Ġput":10732,"Ġice":10733,"Ġts":10734,"Ġ239":10735,"Ġ192":10736,"DX":10737,"Ġillicit":10738,"ĠDANIEL":10739,"Ġstern":10740,"ĠBOWEL":10741,"ĠEOS":10742,"ĠFar":10743,"odgkin":10744,"Ġ711":10745,"ĠPERICARDIUM":10746,"RONIC":10747,"essin":10748,"Ġnu":10749,"ĠPOC":10750,"Ġpreferred":10751,"ipose":10752,"ĠPROHIBITED":10753,"urosemide":10754,"Ġnl":10755,"ega":10756,"Ġrecall":10757,"ĠAdmission":10758,"Ġ402":10759,"ĠLATERAL":10760,"ichol":10761,"ĠCAM":10762,"Intr":10763,"ĠLaboratories":10764,"ĠFREE":10765,"ĠVent":10766,"NOD":10767,"Lipid":10768,"Ġbother":10769,"LABORATORY":10770,"Bo":10771,"ITA":10772,"Ġstairs":10773,"Ġretr":10774,"Admission":10775,"Ġ18005402406":10776,"Ġ0001":10777,"Ġfin":10778,"Ġhypothyroidism":10779,"266":10780,"Ġ72148":10781,"ault":10782,"Ġplaque":10783,"Ġincident":10784,"Ġdeath":10785,"Ġnephrectomy":10786,"ĠNoted":10787,"ĠRom":10788,"Ġaura":10789,"Ġguidance":10790,"Ġpredominant":10791,"Ġpicture":10792,"iL":10793,"Ġaccept":10794,"Ġraise":10795,"Ġthorac":10796,"Ġnurse":10797,"ĠSil":10798,"ĠPULMONARY":10799,"Mel":10800,"ashington":10801,"SD":10802,"aster":10803,"mond":10804,"Ġeg":10805,"Ġfresh":10806,"Ġlin":10807,"ĠPhil":10808,"Ġsubpleural":10809,"Ġgoes":10810,"ĠSTRICT":10811,"Ġ1300":10812,"inated":10813,"ĠCODE":10814,"asia":10815,"ĠGold":10816,"Ġsmear":10817,"Ġ602":10818,"ictation":10819,"Ġfoods":10820,"ĠDistress":10821,"omen":10822,"pportun":10823,"ĠJu":10824,"itabine":10825,"Ġda":10826,"tan":10827,"ĠExposure":10828,"andem":10829,"555":10830,"Indications":10831,"Ġpartner":10832,"Ġ321":10833,"Ġift":10834,"lingual":10835,"Ġathena":10836,"iotomy":10837,"ĠPatrick":10838,"erent":10839,"ĠHO":10840,"Immature":10841,"ĠDRIVE":10842,"Ġcurv":10843,"Ġequation":10844,"laucoma":10845,"302":10846,"ORGE":10847,"Ġpolydipsia":10848,"emonstr":10849,"Sw":10850,"istaxis":10851,"ĠNEG":10852,"ĠPrec":10853,"ITS":10854,"ĠRIS":10855,"Ġ503":10856,"Ġflashes":10857,"ĠLinda":10858,"onz":10859,"ĠDemographics":10860,"ĠJones":10861,"Ġworsened":10862,"ĠFlorida":10863,"SEX":10864,"ĠOs":10865,"Ġwid":10866,"uing":10867,"Relevant":10868,"ĠCardi":10869,"132":10870,"236":10871,"Alert":10872,"ĠTHERAPY":10873,"ovascular":10874,"Ġsterile":10875,"Ġintractable":10876,"ĠSchool":10877,"amber":10878,"Leg":10879,"FLU":10880,"Ġpharmacy":10881,"Ġfrozen":10882,"ĠExpiration":10883,"anned":10884,"Ġanastom":10885,"Ġnodularity":10886,"ĠSing":10887,"Ġoxy":10888,"ya":10889,"eezing":10890,"ĠStarted":10891,"ĠPulses":10892,"Ġdirectly":10893,"ĠBrad":10894,"ĠRecycle":10895,"most":10896,"Ġoccurs":10897,"Ġcolonic":10898,"ĠSubmitted":10899,"Ġhives":10900,"Ġresearch":10901,"Ġconvers":10902,"ĠKevin":10903,"bc":10904,"Partners":10905,"oles":10906,"Ġbring":10907,"IFICATION":10908,"Om":10909,"ĠElevated":10910,"esh":10911,"rook":10912,"ĠSon":10913,"Ġnonc":10914,"THIS":10915,"isted":10916,"Ġsensitivity":10917,"islice":10918,"Ġdiaphragm":10919,"ĠkV":10920,"Ġexpansion":10921,"Ġhepatitis":10922,"ĠULTR":10923,"eng":10924,"ĠGLUCOSE":10925,"ĠMiller":10926,"DU":10927,"Hist":10928,"BM":10929,"eek":10930,"Ġinn":10931,"ds":10932,"ito":10933,"INUED":10934,"ĠXII":10935,"WARD":10936,"Ġgene":10937,"axel":10938,"larged":10939,"echan":10940,"italopram":10941,"Sup":10942,"ĠIVPB":10943,"ĠQuality":10944,"545":10945,"irs":10946,"vision":10947,"Ġfossa":10948,"Sy":10949,"Ġalways":10950,"ĠSr":10951,"ĠBER":10952,"FOLLOW":10953,"platin":10954,"Ġtherap":10955,"Ġ713":10956,"Pulm":10957,"ĠJEFF":10958,"Ġprur":10959,"ĠLAW":10960,"ĠSTRICTLY":10961,"157":10962,"point":10963,"Unknown":10964,"Ġseparate":10965,"ĠEGFR":10966,"ĠCENTRAL":10967,"CALCIUM":10968,"oad":10969,"James":10970,"ĠRestrict":10971,"PATH":10972,"ĠAlbumin":10973,"Ġecw":10974,"yme":10975,"ĠDenied":10976,"ially":10977,"ABS":10978,"wa":10979,"romycin":10980,"IFER":10981,"ĠCreateCase":10982,"iN":10983,"Children":10984,"ĠMyocardial":10985,"HYDRO":10986,"Ġpeople":10987,"Ġ314":10988,"PLEASE":10989,"Ġcalculated":10990,"Ġcopies":10991,"Ġthorax":10992,"Answer":10993,"Ġ618":10994,"ĠLDH":10995,"Medicare":10996,"AW":10997,"FERENCE":10998,"1982":10999,"ĠHEIGHTS":11000,"bleeds":11001,"Ġtunnel":11002,"ĠControl":11003,"Ang":11004,"Ġproper":11005,"idity":11006,"404":11007,"CREATININE":11008,"iod":11009,"actin":11010,"ĠMean":11011,"ĠAdmit":11012,"hand":11013,"Ġ162":11014,"Ġunlabored":11015,"uditory":11016,"360":11017,"Ġdestroyed":11018,"Pal":11019,"back":11020,"Ġwt":11021,"Tablet":11022,"Ġscreens":11023,"OBILIARY":11024,"ĠFVC":11025,"Ġendometrial":11026,"juana":11027,"Occ":11028,"ĠNerve":11029,"ĠUnc":11030,"Ġsubm":11031,"ĠAnkle":11032,"Ġturgor":11033,"ĠJason":11034,"xia":11035,"ĠMULTIPLE":11036,"udes":11037,"Ġprost":11038,"ertain":11039,"RV":11040,"Ġoccurred":11041,"ICIA":11042,"ENTERY":11043,"ĠMOT":11044,"ĠHa":11045,"Adm":11046,"Ġcardiology":11047,"Ġopportun":11048,"andibular":11049,"Ġmaxillary":11050,"Ġown":11051,"Ġ918":11052,"opharyngeal":11053,"ĠPessin":11054,"Ġexpression":11055,"ality":11056,"Ġdoesn":11057,"Ġstability":11058,"Ġsq":11059,"Ġreach":11060,"position":11061,"Ġnecrosis":11062,"MOK":11063,"Ġundergo":11064,"ho":11065,"ĠGran":11066,"umar":11067,"auge":11068,"olate":11069,"odation":11070,"VV":11071,"Ġcognitive":11072,"PRN":11073,"SKI":11074,"Ġperf":11075,"ĠPan":11076,"ĠMPI":11077,"ipl":11078,"Ġwind":11079,"ĠDIFFERENTIAL":11080,"ACTIVE":11081,"Ġminor":11082,"Ġels":11083,"ĠOw":11084,"ĠYear":11085,"AREN":11086,"ologically":11087,"ĠSTEPH":11088,"Ġ168":11089,"ĠDETA":11090,"ĠEXT":11091,"Ġdiverticulitis":11092,"ĠAmount":11093,"Oste":11094,"ei":11095,"Christ":11096,"Ġneu":11097,"ĠLaura":11098,"ryl":11099,"Ġcoffee":11100,"vl":11101,"osarcoma":11102,"ĠResolved":11103,"Ġindependent":11104,"kg":11105,"ties":11106,"ko":11107,"ensities":11108,"Ġattending":11109,"ĠMyChart":11110,"uz":11111,"mc":11112,"Ġevident":11113,"Did":11114,"ĠAppropriate":11115,"Ġ0000000":11116,"Ġlocalized":11117,"izes":11118,"THRO":11119,"OO":11120,"ĠVit":11121,"Ġ019":11122,"159":11123,"Ġiving":11124,"ĠDOCUMENT":11125,"yline":11126,"Cardio":11127,"Ġaud":11128,"Ġlifting":11129,"174":11130,"BI":11131,"ĠWALL":11132,"Ġunusual":11133,"disclosure":11134,"Ll":11135,"Ġregional":11136,"Ġligament":11137,"Ġ650":11138,"ĠCOLONOSCOPY":11139,"Ġstone":11140,"Na":11141,"2003":11142,"Ġ501":11143,"IONS":11144,"Ġmentioned":11145,"ĠMit":11146,"Ġei":11147,"Ġmt":11148,"ĠDetail":11149,"Ġaggressive":11150,"ĠOTC":11151,"Ġrespond":11152,"roiliac":11153,"Ġtrigger":11154,"Years":11155,"Ġnegatives":11156,"ĠLor":11157,"Ight":11158,"MET":11159,"illins":11160,"Ġrequiring":11161,"ĠOrientation":11162,"cher":11163,"romyalgia":11164,"Language":11165,"Ġten":11166,"Ġhelped":11167,"ĠHives":11168,"irl":11169,"ĠDIAM":11170,"odenum":11171,"238":11172,"ĠFa":11173,"Ġdiv":11174,"ĠGabapentin":11175,"ĠGENERAL":11176,"Ġbasal":11177,"Ġ241":11178,"ĠLAT":11179,"ficial":11180,"Ġhealed":11181,"ĠMCC":11182,"Sitting":11183,"Ġparesthesias":11184,"Ġcarcin":11185,"yel":11186,"Er":11187,"ochez":11188,"Prostate":11189,"ITIVE":11190,"win":11191,"247":11192,"osities":11193,"Cell":11194,"Ġstatin":11195,"Ġesophageal":11196,"ĠRDW":11197,"ĠPerforming":11198,"Knee":11199,"EGFR":11200,"ecal":11201,"rought":11202,"asm":11203,"idi":11204,"ĠMessage":11205,"ception":11206,"Ġ1275":11207,"eviCore":11208,"Ġepilepsy":11209,"1941":11210,"025":11211,"Ġdisability":11212,"Ġairways":11213,"Ġsampl":11214,"ĠPam":11215,"Ġairway":11216,"Ġhealing":11217,"Ġmaterials":11218,"Ġborderline":11219,"SURANCE":11220,"Ġtyp":11221,"Ip":11222,"ĠPROTEIN":11223,"Ġmicro":11224,"Ġ70553":11225,"ĠAdd":11226,"Next":11227,"mad":11228,"licated":11229,"Ġ248":11230,"Ġplans":11231,"169":11232,"375":11233,"601":11234,"Discussion":11235,"ĠMAKING":11236,"Ġ177":11237,"225":11238,"111111":11239,"ectasis":11240,"ĠVan":11241,"ĠCAPS":11242,"EOM":11243,"ĠAa":11244,"Ġprot":11245,"ilit":11246,"elle":11247,"Ġsudden":11248,"Ġtl":11249,"ĠEntry":11250,"ĠROUTE":11251,"Ġ313":11252,"ĠEchocardiogram":11253,"Ġ209":11254,"Ġfissure":11255,"Ġrestricted":11256,"rete":11257,"ABETH":11258,"PRIMARY":11259,"ĠVAS":11260,"ĠNursing":11261,"Ġsubstance":11262,"ashion":11263,"Ġmostly":11264,"249":11265,"ĠHT":11266,"losing":11267,"COPD":11268,"aden":11269,"ALBUMIN":11270,"uns":11271,"ĠAssociated":11272,"ĠCreat":11273,"Lim":11274,"ĠCi":11275,"Ġshot":11276,"Hospitalization":11277,"NIS":11278,"aving":11279,"ipolar":11280,"Ġaddressee":11281,"Ġbones":11282,"Ġhydrocephalus":11283,"port":11284,"Ġtherefore":11285,"ĠAnderson":11286,"Previously":11287,"ĠAdded":11288,"ĠSV":11289,"Ġrestaging":11290,"Types":11291,"SW":11292,"bic":11293,"Done":11294,"CTOMY":11295,"Surgery":11296,"ĠHy":11297,"ĠCOU":11298,"Ġscalp":11299,"ĠTEL":11300,"ĠInhaler":11301,"Ġviol":11302,"Ġfallopian":11303,"ĠOSA":11304,"Ġagreed":11305,"Ġstains":11306,"ĠFriday":11307,"becca":11308,"loon":11309,"Memorial":11310,"Ġrepresenting":11311,"istories":11312,"Ġ015":11313,"acter":11314,"rometry":11315,"Ġneurology":11316,"ercy":11317,"Ġ2006":11318,"Jun":11319,"Ġsplenic":11320,"ĠTen":11321,"Ġlinear":11322,"Ġ157":11323,"QUI":11324,"407":11325,"ĠManual":11326,"CLOS":11327,"Ġwants":11328,"Ġhelpful":11329,"ĠLocal":11330,"come":11331,"ĠECHO":11332,"Ġimpaired":11333,"Ġabsolute":11334,"ĠCERVICAL":11335,"ĠEnter":11336,"ĠMultislice":11337,"Ġmastoid":11338,"ĠINTERVAL":11339,"ĠANA":11340,"Ġvacc":11341,"Read":11342,"ĠJAN":11343,"Ġded":11344,"ĠDictated":11345,"Ġ706":11346,"IRUBIN":11347,"Ġ379":11348,"JE":11349,"Ġ278":11350,"Ġfashion":11351,"Kettering":11352,"Ġlarger":11353,"WAL":11354,"ĠSTUDY":11355,"035":11356,"NODES":11357,"ĠINSURANCE":11358,"ĠNONE":11359,"rench":11360,"ĠSpeech":11361,"alcified":11362,"Ġ322":11363,"ĠFEV":11364,"Testing":11365,"OPERATIVE":11366,"Ġproducts":11367,"ĠQuestion":11368,"etan":11369,"Ġbronchus":11370,"riptyline":11371,"alo":11372,"Ġcath":11373,"Ġmuscular":11374,"Ġbrought":11375,"ocrinology":11376,"Ġrepresents":11377,"ĠKettering":11378,"ĠAffect":11379,"Ġwedge":11380,"Ġshunt":11381,"ĠDEN":11382,"domet":11383,"Ġ320":11384,"FIC":11385,"Ġsaid":11386,"ĠDivision":11387,"ERICAN":11388,"ĠCHF":11389,"ĠNeurologic":11390,"ĠCALL":11391,"umerous":11392,"Color":11393,"Ġslides":11394,"Ġcharacterize":11395,"ĠTranscription":11396,"Continued":11397,"Ġ226":11398,"Ġhttps":11399,"ĠSwelling":11400,"Richard":11401,"Ġcompletion":11402,"ĠDoctor":11403,"ĠIMG":11404,"Ġ151":11405,"Urgent":11406,"029":11407,"ĠWILL":11408,"ĠChild":11409,"ĠEnded":11410,"ochezia":11411,"727":11412,"inski":11413,"ĠRan":11414,"Ġmaternal":11415,"Ġunderstand":11416,"Ġge":11417,"Ġgranulom":11418,"Ġsr":11419,"DICT":11420,"Ġhips":11421,"onology":11422,"ADDRESS":11423,"mat":11424,"Ġinfiltration":11425,"OSS":11426,"ĠDECISION":11427,"Ġ231":11428,"rease":11429,"164":11430,"Ġcircumflex":11431,"Ġinh":11432,"248":11433,"ĠUNIVERSITY":11434,"yer":11435,"BRO":11436,"ĠCHARL":11437,"ĠHi":11438,"Ġosteoarthritis":11439,"Ġ773":11440,"icago":11441,"Ġpreserved":11442,"stitution":11443,"ĠPanc":11444,"ĠPHOS":11445,"Interpret":11446,"ĠCy":11447,"LS":11448,"ENDER":11449,"Ġexacerbation":11450,"rig":11451,"Submit":11452,"ellent":11453,"ĠRidge":11454,"ĠWd":11455,"575":11456,"Ġtympanic":11457,"SAGE":11458,"Ġank":11459,"par":11460,"ĠMeg":11461,"Pulses":11462,"pe":11463,"ads":11464,"Ġdictated":11465,"ometric":11466,"Ial":11467,"Ġdiminished":11468,"Ġbreakfast":11469,"acking":11470,"Ġfluor":11471,"Ġunclear":11472,"ighbor":11473,"Ġconn":11474,"151":11475,"Ġstaff":11476,"328":11477,"Ġcarboplatin":11478,"aste":11479,"Ġtx":11480,"Ġdise":11481,"org":11482,"Ġspontaneous":11483,"ĠCOMPREHENSIVE":11484,"ĠCFR":11485,"Ġdespite":11486,"PSA":11487,"ĠTimothy":11488,"ERIAL":11489,"ived":11490,"ĠMEDICATION":11491,"CASE":11492,"Ġopportunity":11493,"ĠROUT":11494,"Ġ406":11495,"Personal":11496,"NEUROLOGICAL":11497,"Daily":11498,"Ġprofile":11499,"Ġ307":11500,"Ġnosebleeds":11501,"ĠMCHC":11502,"ĠPo":11503,"Ġtreadmill":11504,"ĠFalls":11505,"ĠLEE":11506,"orexia":11507,"Ġparoxysmal":11508,"Ġolder":11509,"Ġthrush":11510,"334":11511,"Ġdegeneration":11512,"CONSTITUTIONAL":11513,"Ġbloating":11514,"ĠIssued":11515,"ĠBladder":11516,"896":11517,"197":11518,"ĠAcquired":11519,"HCC":11520,"Ġresol":11521,"HEPATOBILIARY":11522,"Ġscars":11523,"thy":11524,"omyopathy":11525,"coren":11526,"ĠCro":11527,"Ġ360":11528,"ĠNODE":11529,"Ġcooper":11530,"Ġ016":11531,"ĠLew":11532,"ĠSIM":11533,"Ġplantar":11534,"Hematological":11535,"547":11536,"PEN":11537,"Ġ154":11538,"CLE":11539,"341":11540,"1983":11541,"ĠATTESTATION":11542,"Ġaggrav":11543,"Ġram":11544,"ĠAI":11545,"Ġexempt":11546,"ĠLatest":11547,"Ġ604":11548,"plained":11549,"fa":11550,"ĠthIs":11551,"rically":11552,"arel":11553,"utter":11554,"UTROPH":11555,"ĠLynn":11556,"Ġstain":11557,"ĠGenerated":11558,"Ġrecognition":11559,"White":11560,"ĠParkway":11561,"cp":11562,"Ġclosed":11563,"eppra":11564,"Ġmagnesium":11565,"riz":11566,"Ġbrach":11567,"ĠFLU":11568,"Abd":11569,"Ġmedically":11570,"oria":11571,"ĠLit":11572,"Open":11573,"ĠPMI":11574,"158":11575,"441":11576,"Ġantibody":11577,"190":11578,"ĠTISSUE":11579,"198":11580,"Difficulty":11581,"Preventive":11582,"ĠNEUROLOGY":11583,"2005":11584,"Ġ708":11585,"MH":11586,"Ġ2005":11587,"Wed":11588,"ĠWar":11589,"ĠAh":11590,"ĠPeak":11591,"Ġ208":11592,"ĠWAL":11593,"Ġglasses":11594,"ĠARTER":11595,"AJ":11596,"ĠShah":11597,"Ġpalpated":11598,"Benign":11599,"Ġarid":11600,"RONICALLY":11601,"ĠRP":11602,"ĠSING":11603,"tablet":11604,"Ġtax":11605,"ĠVentric":11606,"chlor":11607,"Ġoil":11608,"259":11609,"Ġanything":11610,"Ġ167":11611,"IDS":11612,"ĠAPPRO":11613,"ĠAortic":11614,"non":11615,"ĠPRIMARY":11616,"oming":11617,"Ġmultivitamin":11618,"PSYCHIATRIC":11619,"Ġvag":11620,"udgement":11621,"ATTENDING":11622,"oul":11623,"Ġcortical":11624,"ISTR":11625,"rug":11626,"beat":11627,"oriz":11628,"Community":11629,"Ġnocturia":11630,"ĠMART":11631,"ĠStephanie":11632,"ĠFH":11633,"ĠMILL":11634,"DES":11635,"orse":11636,"Ġau":11637,"ĠLisinopril":11638,"Ġfo":11639,"radi":11640,"ĠGregory":11641,"Ġef":11642,"coid":11643,"ĠPulm":11644,"Ġreass":11645,"Ġutilizing":11646,"Ġfluent":11647,"Ġ155":11648,"Ġmoving":11649,"Ġ847":11650,"Ġremainder":11651,"inion":11652,"GRESS":11653,"ĠAPT":11654,"racuse":11655,"ĠLin":11656,"Ġexcellent":11657,"ommended":11658,"165":11659,"Ġagainst":11660,"Ġslowly":11661,"Deg":11662,"Ġindicate":11663,"igest":11664,"ĠINF":11665,"ĠNIT":11666,"ĠKenneth":11667,"Dizziness":11668,"ici":11669,"ĠLaur":11670,"ĠProp":11671,"avi":11672,"ĠFOLFOX":11673,"Full":11674,"strual":11675,"ĠInpatient":11676,"Ġdiplopia":11677,"Ġreally":11678,"ersistent":11679,"lycemia":11680,"ĠDevice":11681,"ĠSGOT":11682,"Quality":11683,"tes":11684,"ris":11685,"GEND":11686,"resentative":11687,"OFFICE":11688,"ĠNum":11689,"ĠJUL":11690,"ĠUPPER":11691,"Neutrophils":11692,"ĠShow":11693,"enda":11694,"menopausal":11695,"ĠMarked":11696,"ĠAle":11697,"163":11698,"ĠHepatitis":11699,"Ġpharynx":11700,"8054":11701,"ograph":11702,"Extraocular":11703,"233":11704,"Ġpush":11705,"Ġdeferred":11706,"Ġclean":11707,"estern":11708,"Ġarthropathy":11709,"Ġtree":11710,"ylate":11711,"Ġtear":11712,"Ġcomfortable":11713,"Ġauditory":11714,"414":11715,"CHARGE":11716,"Ġcurvature":11717,"777":11718,"Lives":11719,"lind":11720,"Ġ190":11721,"Ġhttp":11722,"258":11723,"rica":11724,"Ġpantoprazole":11725,"ERSON":11726,"ĠMARG":11727,"Patients":11728,"Tests":11729,"Ġdispose":11730,"ĠMi":11731,"HT":11732,"ĠPERFORMED":11733,"Ġfalling":11734,"ference":11735,"Ġmarkers":11736,"Ġfulf":11737,"Mary":11738,"ĠFU":11739,"dose":11740,"ĠPenn":11741,"ĠENC":11742,"ĠTravel":11743,"ĠRET":11744,"AMB":11745,"Ġsigning":11746,"gement":11747,"MEM":11748,"ĠDeborah":11749,"Ġ29910":11750,"Hip":11751,"aret":11752,"ĠBarbara":11753,"ĠObs":11754,"ĠLOWER":11755,"Ġhiatal":11756,"Ġnocturnal":11757,"des":11758,"342":11759,"Ġ844":11760,"eni":11761,"OZ":11762,"inium":11763,"1940":11764,"Room":11765,"ims":11766,"Ġappeared":11767,"orced":11768,"Ġknowledge":11769,"ENNIFER":11770,"ĠOU":11771,"338":11772,"ĠHave":11773,"enna":11774,"ĠNED":11775,"275":11776,"Occupational":11777,"spine":11778,"Thomas":11779,"Ġgroup":11780,"ĠInsomnia":11781,"ĠHEMAT":11782,"ĠRelationship":11783,"ĠOA":11784,"Ġpoints":11785,"Ġtrying":11786,"Ġperfor":11787,"ĠDIAMOND":11788,"ĠEv":11789,"ĠSamuel":11790,"ĠCARDIAC":11791,"olf":11792,"OLIN":11793,"ĠDIRECTED":11794,"Ġsick":11795,"ĠLight":11796,"enced":11797,"Ġrequires":11798,"Ġneut":11799,"ĠNod":11800,"aren":11801,"ĠExpected":11802,"Musc":11803,"Grand":11804,"ĠMONO":11805,"ĠREGIONAL":11806,"EARS":11807,"Ġia":11808,"oto":11809,"ĠPLA":11810,"ELECT":11811,"ĠHOL":11812,"edics":11813,"ĠTransmission":11814,"NEE":11815,"nasal":11816,"Ġthoughts":11817,"Ġbis":11818,"achel":11819,"seud":11820,"ĠRH":11821,"ĠInjury":11822,"tion":11823,"ĠPLLC":11824,"Mediast":11825,"ĠMammogram":11826,"265":11827,"ĠDesign":11828,"Ġradicular":11829,"lia":11830,"ĠExtension":11831,"Ġfast":11832,"enses":11833,"ADM":11834,"lofenac":11835,"arinal":11836,"Ġgrandmother":11837,"Ġelsewhere":11838,"ories":11839,"066":11840,"ĠLABORATORY":11841,"ighborhood":11842,"732":11843,"Ġalternatives":11844,"WAYS":11845,"Ġaching":11846,"Ġserious":11847,"ota":11848,"Minimal":11849,"Ġtaper":11850,"ĠHYPER":11851,"icles":11852,"iley":11853,"apro":11854,"ĠPUL":11855,"Ġny":11856,"Ġablation":11857,"Pancreas":11858,"Mat":11859,"asculature":11860,"Ġpostsurgical":11861,"Ġcompliant":11862,"emoral":11863,"Ġops":11864,"Ġcontrols":11865,"ĠGER":11866,"Ġproviders":11867,"ĠAsked":11868,"ĠDos":11869,"ĠMP":11870,"enhanced":11871,"oin":11872,"Ġ787":11873,"Ġ505":11874,"Ġaccomm":11875,"ĠSTATE":11876,"imetry":11877,"ĠADM":11878,"ĠEstab":11879,"OCYTE":11880,"ĠTaylor":11881,"ringe":11882,"rotic":11883,"PON":11884,"ĠFt":11885,"ORDERING":11886,"Ġsample":11887,"agnetic":11888,"257":11889,"Ġmis":11890,"Ġbiceps":11891,"Lymphadenopathy":11892,"Ġguided":11893,"ĠBlack":11894,"REST":11895,"Ġ152":11896,"osus":11897,"ĠNancy":11898,"Ġ780":11899,"Ġ327":11900,"TERNAL":11901,"ĠBoard":11902,"ĠTA":11903,"etics":11904,"ĠHours":11905,"uy":11906,"ĠLittle":11907,"Ġeight":11908,"FFE":11909,"otherapy":11910,"WA":11911,"Ġ218":11912,"onide":11913,"464":11914,"ĠLexiscan":11915,"Ġpacemaker":11916,"irometry":11917,"brid":11918,"inding":11919,"040":11920,"ewed":11921,"Seen":11922,"ĠBleeding":11923,"swick":11924,"Ġdefects":11925,"550":11926,"Ġspaces":11927,"thoracic":11928,"Ġmodified":11929,"Advised":11930,"ĠLIPITOR":11931,"Ġseg":11932,"Ġcraniotomy":11933,"Ġ610":11934,"Ġretention":11935,"Ġstay":11936,"ĠSMITH":11937,"teb":11938,"Ġsarcoma":11939,"317":11940,"ĠLane":11941,"Et":11942,"ĠFre":11943,"Ġgroups":11944,"ĠFACS":11945,"ĠLarge":11946,"ĠFacial":11947,"Ġvalidated":11948,"arily":11949,"iatry":11950,"268":11951,"ĠChem":11952,"ĠStaff":11953,"Ġrecheck":11954,"fax":11955,"2002":11956,"Hyper":11957,"cedural":11958,"Ġacross":11959,"ĠCARCINOMA":11960,"ĠAdm":11961,"umbilical":11962,"ĠWOJ":11963,"CORE":11964,"Ġadv":11965,"gnosis":11966,"Ġ199":11967,"044":11968,"dap":11969,"PHYSICIAN":11970,"aton":11971,"ĠLiving":11972,"Ġ813":11973,"GR":11974,"ĠUrology":11975,"ĠMount":11976,"Ġrs":11977,"ontrolled":11978,"ĠEditor":11979,"ĠSpinal":11980,"Race":11981,"DAY":11982,"Apply":11983,"Ġgi":11984,"uke":11985,"lene":11986,"Ġsubsequently":11987,"urp":11988,"Ġsurgeries":11989,"Long":11990,"Ġcu":11991,"ollicular":11992,"ĠCOMMENT":11993,"Ġlifestyle":11994,"ĠAmanda":11995,"Ġcapacity":11996,"Method":11997,"iation":11998,"ĠLas":11999,"242":12000,"ionate":12001,"Free":12002,"Ġye":12003,"1984":12004,"Ġmusculoskeletal":12005,"ĠAz":12006,"299":12007,"Ġpress":12008,"Ġcolitis":12009,"Lateral":12010,"Individual":12011,"Ġsuperv":12012,"USH":12013,"ĠIbuprofen":12014,"onents":12015,"ker":12016,"JO":12017,"ĠWELLCARE":12018,"ja":12019,"ĠSupp":12020,"Rectal":12021,"SIGN":12022,"ĠTREATMENT":12023,"ocytosis":12024,"Ġprinted":12025,"YES":12026,"Nurse":12027,"Ġangiography":12028,"ĠWeek":12029,"reational":12030,"Vi":12031,"Fasting":12032,"Ġosteophy":12033,"036":12034,"iginal":12035,"Now":12036,"ĠKent":12037,"546":12038,"Ġinhale":12039,"ialis":12040,"ĠBEDTIME":12041,"Ġcoll":12042,"1985":12043,"Ġfix":12044,"Ġ855":12045,"Ġ1996":12046,"ĠPPO":12047,"Ġsheath":12048,"ĠATT":12049,"ĠADL":12050,"Ġ174":12051,"167":12052,"ĠKNOWN":12053,"ĠNOTES":12054,"ilum":12055,"Ġestablished":12056,"FOR":12057,"0111":12058,"ĠCOPY":12059,"154":12060,"ĠTwo":12061,"ĠShield":12062,"ĠLOCATION":12063,"bicort":12064,"Ġrepro":12065,"Soc":12066,"ĠECOG":12067,"Vent":12068,"User":12069,"Message":12070,"ĠBill":12071,"Ġ502":12072,"296":12073,"ĠCABG":12074,"Ġtelec":12075,"OPHER":12076,"ete":12077,"Ġfulfilled":12078,"ĠAtrial":12079,"ĠSODIUM":12080,"UTION":12081,"Ġprotrusion":12082,"aric":12083,"Ġ251":12084,"Ġ310":12085,"194":12086,"iclofenac":12087,"ostomy":12088,"ĠBILATERAL":12089,"Ġgoals":12090,"Ġ338":12091,"Ġendoscopy":12092,"Ġphotophobia":12093,"251":12094,"Rash":12095,"Severity":12096,"Ġell":12097,"Ġhemorrhoids":12098,"IDA":12099,"ifocal":12100,"ĠWat":12101,"Central":12102,"KELEY":12103,"ĠAJ":12104,"Ġinform":12105,"ali":12106,"Contin":12107,"chy":12108,"Ġcanals":12109,"ĠLFT":12110,"ĠBruce":12111,"eman":12112,"ĠBuild":12113,"Ive":12114,"Ġdermat":12115,"ĠPay":12116,"Ġsymptomatic":12117,"ĠSD":12118,"ĠBronch":12119,"unately":12120,"ukast":12121,"ammatory":12122,"Ġparanasal":12123,"ima":12124,"Ġrelatively":12125,"ĠComplex":12126,"sa":12127,"Ġhospitalization":12128,"Consider":12129,"Ġhelps":12130,"Ġrecovery":12131,"ĠOccupation":12132,"ĠAddendum":12133,"GASTROINTESTINAL":12134,"Vaccines":12135,"ĠLOU":12136,"omplicated":12137,"ĠPreferred":12138,"Ġindeterminate":12139,"Look":12140,"HIV":12141,"Ġpassed":12142,"ĠFeeling":12143,"Ġ11042":12144,"Oxygen":12145,"OTHY":12146,"emic":12147,"Ġ158":12148,"intment":12149,"Ġdam":12150,"Pol":12151,"ĠCLI":12152,"1986":12153,"LEGEND":12154,"ĠBPM":12155,"Ġlimitations":12156,"inib":12157,"271":12158,"Ġambulatory":12159,"ĠNicole":12160,"Ġstap":12161,"Ġjudgment":12162,"Ġfully":12163,"chard":12164,"ONARY":12165,"288":12166,"ĠHum":12167,"Ġprobable":12168,"vo":12169,"336":12170,"Ġangle":12171,"Ġexudates":12172,"Ġpatchy":12173,"ĠLES":12174,"Ġearlier":12175,"ĠDOR":12176,"ĠBi":12177,"Ġ156":12178,"rile":12179,"Ġcovered":12180,"ĠHis":12181,"ĠEli":12182,"lications":12183,"PAIN":12184,"ĠItching":12185,"ĠIndividual":12186,"elukast":12187,"ĠAX":12188,"Ġ1200":12189,"ĠNEUR":12190,"ĠLUE":12191,"ĠFRE":12192,"Ge":12193,"Ġith":12194,"269":12195,"ĠContin":12196,"ĠSLIDES":12197,"Ġventricles":12198,"Ġere":12199,"ĠAppend":12200,"ĠCos":12201,"370":12202,"ĠPOL":12203,"Ġbuttock":12204,"ĠVenous":12205,"aritan":12206,"Ġuns":12207,"ĠComplaints":12208,"ĠWestchester":12209,"Ġ173":12210,"ĠJean":12211,"Ġdelivery":12212,"Ġaspiration":12213,"Ġwag":12214,"MY":12215,"valuate":12216,"University":12217,"ĠIntervention":12218,"omes":12219,"rec":12220,"Ġdetect":12221,"ĠADV":12222,"Ġ07922":12223,"Ġimportant":12224,"ĠSmart":12225,"Ġataxia":12226,"ĠPelvic":12227,"ĠTelephone":12228,"ĠGreat":12229,"Ġtherapeutic":12230,"ĠHNE":12231,"SUMMIT":12232,"Nasal":12233,"ĠLOR":12234,"earning":12235,"CVS":12236,"ĠROUTINE":12237,"rd":12238,"NON":12239,"185":12240,"ga":12241,"Ġalmost":12242,"BO":12243,"ematous":12244,"ĠBrunswick":12245,"ĠDS":12246,"ineural":12247,"ĠModified":12248,"Orally":12249,"Ġoccup":12250,"Appearance":12251,"Ġtid":12252,"roglycer":12253,"Ġsteady":12254,"law":12255,"UNCTION":12256,"Inhale":12257,"Ġimplants":12258,"ĠDian":12259,"lomer":12260,"gers":12261,"Ġribs":12262,"ĠHypertensive":12263,"ĠThu":12264,"ĠAppro":12265,"Ġtolerate":12266,"Ġstructure":12267,"eliac":12268,"ĠmU":12269,"ĠPortability":12270,"SEY":12271,"0005":12272,"ULE":12273,"Ġcomplicated":12274,"Advanced":12275,"Ġheartbeat":12276,"iblings":12277,"ĠFACP":12278,"ycardia":12279,"378":12280,"Ġplanning":12281,"usive":12282,"Ġecchymosis":12283,"Ġurgent":12284,"ĠKEN":12285,"Ġ78452":12286,"Emergency":12287,"181":12288,"ernand":12289,"Ġdilation":12290,"ventions":12291,"Daniel":12292,"ĠCert":12293,"Ġexertional":12294,"ĠWAS":12295,"Adult":12296,"702":12297,"Ġexams":12298,"vern":12299,"ĠQuit":12300,"ĠGMT":12301,"thern":12302,"Ġacet":12303,"ĠPCs":12304,"West":12305,"onsillectomy":12306,"therosclerotic":12307,"ilol":12308,"189":12309,"Ġinterested":12310,"232":12311,"Ġextens":12312,"Ġfive":12313,"Ġ216":12314,"atty":12315,"je":12316,"Ġnicotine":12317,"Decreased":12318,"levi":12319,"Ġextraocular":12320,"uh":12321,"ĠCounty":12322,"Ġfairly":12323,"ĠCells":12324,"ĠSubcutaneous":12325,"Ġrng":12326,"Ies":12327,"ĠMB":12328,"ĠFiled":12329,"ĠMICRO":12330,"Ġlaterality":12331,"Muc":12332,"ĠCONSULTATION":12333,"188":12334,"Ġensure":12335,"ĠIntake":12336,"VITAMIN":12337,"inject":12338,"RINE":12339,"Clin":12340,"Ġresting":12341,"Ġsubmit":12342,"Ġcp":12343,"ĠAch":12344,"ĠOil":12345,"roponin":12346,"ATING":12347,"jamin":12348,"254":12349,"278":12350,"Ġgall":12351,"Ġpayment":12352,"House":12353,"ĠRehab":12354,"Ġ161":12355,"icalWorks":12356,"Bar":12357,"ĠTl":12358,"moxic":12359,"Gallbladder":12360,"Ġelbow":12361,"ĠKimberly":12362,"bt":12363,"Mom":12364,"Ġpractice":12365,"ĠTRANSMITT":12366,"276":12367,"Specimens":12368,"Ġhematochezia":12369,"ĠNV":12370,"778":12371,"ĠÂ§":12372,"ĠROOM":12373,"Ġepistaxis":12374,"corenational":12375,"Miscellaneous":12376,"Ġlumps":12377,"Ġarrhythm":12378,"ĠTrig":12379,"Ġessing":12380,"vular":12381,"ĠMcC":12382,"endocrine":12383,"Blocks":12384,"Ġtonsils":12385,"ĠSeizures":12386,"312":12387,"iny":12388,"ĠSTUDIES":12389,"rad":12390,"ynthia":12391,"Ġgradient":12392,"Ġore":12393,"preter":12394,"ĠRadiculopathy":12395,"oda":12396,"Ġpedis":12397,"Ġ1001":12398,"Ġfilling":12399,"267":12400,"ĠJACK":12401,"therapy":12402,"ŀ¢":12403,"Nuclear":12404,"ĠHosp":12405,"Ġmeg":12406,"Sl":12407,"Ġ1939":12408,"Ġaut":12409,"Performance":12410,"Ġventral":12411,"0004":12412,"Ġmalformation":12413,"386":12414,"Ġcandidate":12415,"ĠWEE":12416,"ĠMARIA":12417,"ĠDETAILS":12418,"aired":12419,"ĠDavis":12420,"Ġatherosclerosis":12421,"andom":12422,"ĠMEM":12423,"urc":12424,"unter":12425,"Zip":12426,"FEV":12427,"ĠAlan":12428,"ĠNIC":12429,"Pediatric":12430,"urmurs":12431,"ĠCaffeine":12432,"Edit":12433,"ĠSymmet":12434,"Ġhopeless":12435,"OPL":12436,"Ġdiverticulosis":12437,"ĠCam":12438,"ĠVert":12439,"Ġrhinorrhea":12440,"ĠCourt":12441,"fs":12442,"Ġ541":12443,"ĠCore":12444,"ĠDesignation":12445,"icat":12446,"Ġ509":12447,"ardian":12448,"rell":12449,"Ġnucle":12450,"irn":12451,"stead":12452,"ĠBH":12453,"ĠNight":12454,"Bronx":12455,"Ġreformatted":12456,"ĠPayer":12457,"053":12458,"ĠMich":12459,"ĠDip":12460,"ucky":12461,"Ġ185":12462,"272":12463,"ifestyle":12464,"Ġendpl":12465,"ĠTone":12466,"IBLE":12467,"iCore":12468,"Ġdl":12469,"ĠREL":12470,"Ġinsp":12471,"ĠamLODIPine":12472,"Ġmorphology":12473,"ĠAxial":12474,"INOPELVIC":12475,"ĠPrescription":12476,"Ġupdate":12477,"Bones":12478,"Ġnebulizer":12479,"Fund":12480,"Ġselected":12481,"Ġren":12482,"298":12483,"Refer":12484,"Ġdependent":12485,"Obesity":12486,"284":12487,"pain":12488,"CEA":12489,"Ġ195":12490,"Ġoption":12491,"Ġrm":12492,"314":12493,"664":12494,"Ġcyclobenzaprine":12495,"Ġempty":12496,"Ġconjunctivae":12497,"ĠNichol":12498,"Ġ815":12499,"Ġaggreg":12500,"HEMOGLOBIN":12501,"Ġgastrointestinal":12502,"Sim":12503,"Ġmakes":12504,"Ġ770":12505,"ĠCollege":12506,"ĠVOL":12507,"Ġpaln":12508,"Ġtransmittal":12509,"iox":12510,"ĠKIM":12511,"Ġasleep":12512,"Ġsymmetrically":12513,"ĠSurg":12514,"ĠPerformance":12515,"Ġwk":12516,"ĠRefer":12517,"Ġcoord":12518,"ĠTIA":12519,"Ġpediatric":12520,"ARK":12521,"544":12522,"GY":12523,"ĠAccountability":12524,"aflet":12525,"iratory":12526,"ĠGro":12527,"Ġvo":12528,"Loc":12529,"Sinus":12530,"Ġconsideration":12531,"Ġrelative":12532,"Ġdiscrete":12533,"Ġ230":12534,"onase":12535,"Ġsob":12536,"Ġgel":12537,"Iron":12538,"PRID":12539,"irrhosis":12540,"Ġsequences":12541,"ĠDiag":12542,"Ġturn":12543,"PULMONARY":12544,"EXA":12545,"Ġbackground":12546,"Eff":12547,"Sur":12548,"Deep":12549,"ĠRyan":12550,"Ġbx":12551,"alges":12552,"una":12553,"Ġvas":12554,"ĠAllen":12555,"ĠTER":12556,"ĠDouglas":12557,"vue":12558,"IK":12559,"enry":12560,"Ġrates":12561,"462":12562,"ĠSAL":12563,"ĠPRIN":12564,"oadjuvant":12565,"ĠAdminister":12566,"Tongue":12567,"448":12568,"ĠSection":12569,"ETTE":12570,"anderb":12571,"ĠINTERNAL":12572,"Ġverteb":12573,"iller":12574,"346":12575,"ih":12576,"ĠINTENDED":12577,"Ġdentition":12578,"Ġpig":12579,"Ġreconstructions":12580,"Ġdisk":12581,"ĠCHOLESTEROL":12582,"Spouse":12583,"ĠDNA":12584,"Ġ814":12585,"ĠDAYS":12586,"ELS":12587,"ĠKathleen":12588,"station":12589,"Ġ817":12590,"Ġ2004":12591,"locyte":12592,"586":12593,"hou":12594,"ĠReconciliation":12595,"Ġlimit":12596,"was":12597,"Ġdefinitive":12598,"Ġplus":12599,"Ġsa":12600,"Sexual":12601,"ĠResponse":12602,"ĠPOST":12603,"060":12604,"Ġopinion":12605,"Ġfirm":12606,"231":12607,"Images":12608,"ZN":12609,"uri":12610,"0003":12611,"odd":12612,"379":12613,"abdominal":12614,"ĠInfusion":12615,"Ġoxycodone":12616,"ĠVersion":12617,"ĠBrand":12618,"west":12619,"OUL":12620,"ĠPersonal":12621,"uplex":12622,"Insured":12623,"ĠPMH":12624,"ACCESSION":12625,"ĠRochester":12626,"456":12627,"ĠLumbosacral":12628,"Ġnat":12629,"Therapeutic":12630,"ĠHEMOGLOBIN":12631,"ĠAnesthesia":12632,"vedilol":12633,"Respiration":12634,"Ġpredicted":12635,"anter":12636,"Ġree":12637,"364":12638,"Ġki":12639,"MPT":12640,"ĠIrregular":12641,"ompson":12642,"Ġduodenum":12643,"roglycerin":12644,"OUNTER":12645,"vironment":12646,"320":12647,"ĠREN":12648,"LES":12649,"COMMENTS":12650,"ĠTam":12651,"rio":12652,"ĠGranulocytes":12653,"ĠPag":12654,"Patent":12655,"Ġreceptor":12656,"Ġinitiated":12657,"urmur":12658,"ĠSeen":12659,"Ġderm":12660,"Ġrelieved":12661,"Ġaccommodation":12662,"Ġconsum":12663,"thnicity":12664,"Ġwaise":12665,"CMP":12666,"Ġentry":12667,"kes":12668,"oclonal":12669,"Ġ111111111":12670,"Ġ1500":12671,"QRS":12672,"335":12673,"Ġlas":12674,"Ġ020":12675,"Magnesium":12676,"Ġverify":12677,"187":12678,"Ġ788":12679,"Ġhormone":12680,"ĠAmin":12681,"Ġ1100":12682,"ĠIgG":12683,"ĠLl":12684,"Act":12685,"ĠLimited":12686,"Ġ196":12687,"dermal":12688,"moxicillin":12689,"377":12690,"Ġsuperficial":12691,"iry":12692,"Ġmutations":12693,"ĠMetoprolol":12694,"ingham":12695,"ifen":12696,"ades":12697,"activity":12698,"Ġ810":12699,"Ġeng":12700,"October":12701,"traline":12702,"ĠSeverity":12703,"ĠPreAuthorization":12704,"339":12705,"VASC":12706,"Ġreactions":12707,"NOTES":12708,"ĠPrescriber":12709,"667":12710,"ĠJacob":12711,"ĠRog":12712,"Ġselect":12713,"atracheal":12714,"riction":12715,"aves":12716,"ĠCOMMUNITY":12717,"Oth":12718,"itux":12719,"Ġapplied":12720,"edema":12721,"omast":12722,"ĠSter":12723,"Started":12724,"wing":12725,"Ġfit":12726,"ĠRelated":12727,"Ġexpress":12728,"nam":12729,"ĠTue":12730,"260":12731,"Need":12732,"ETIC":12733,"ĠAIRWAYS":12734,"Ġclick":12735,"ĠPPD":12736,"Smith":12737,"Ġdisclosing":12738,"ETT":12739,"Ġ99214":12740,"Ġhorn":12741,"lent":12742,"279":12743,"orrow":12744,"oni":12745,"ritten":12746,"ĠFLEX":12747,"iguez":12748,"Ġmetformin":12749,"RIAN":12750,"Ġsmokeless":12751,"ĠUpdate":12752,"space":12753,"ĠDat":12754,"NIA":12755,"ĠOak":12756,"ĠEmp":12757,"Ġbelieve":12758,"Ġinterp":12759,"Ġmarginal":12760,"Beg":12761,"ĠAngela":12762,"ISTRATION":12763,"Ġbodies":12764,"CONS":12765,"Ġcooperation":12766,"ĠCatheter":12767,"lose":12768,"ĠHz":12769,"CLUSION":12770,"Ġcounter":12771,"Ġ182":12772,"olumbar":12773,"ĠFEM":12774,"ders":12775,"Ġtermin":12776,"ABSOLUTE":12777,"ĠSelected":12778,"Ġconcurrent":12779,"ADDITIONAL":12780,"ilitation":12781,"ĠMATERIAL":12782,"Ġsol":12783,"ĠORTH":12784,"290":12785,"ĠSPECIAL":12786,"Ġ197":12787,"Ġdosing":12788,"Ġdesignated":12789,"aur":12790,"ĠEVAL":12791,"MERCY":12792,"ĠSignificant":12793,"ĠObstructive":12794,"ocytopenia":12795,"HES":12796,"Ġendocrine":12797,"ľĵ":12798,"rest":12799,"Ġestablish":12800,"Information":12801,"arl":12802,"ĠNotification":12803,"encies":12804,"548":12805,"Ġcramping":12806,"Ġgray":12807,"Ġtum":12808,"Breath":12809,"Ġrendered":12810,"oce":12811,"034":12812,"ivan":12813,"Ġthc":12814,"Ġ701":12815,"Facial":12816,"ometrics":12817,"uda":12818,"Ant":12819,"ĠPACS":12820,"ools":12821,"786":12822,"Edema":12823,"Ġbur":12824,"253":12825,"HAR":12826,"Northwell":12827,"Ġconj":12828,"ĠAshley":12829,"ĠRAM":12830,"ĠRonald":12831,"ridor":12832,"ĠWIL":12833,"entery":12834,"ĠRock":12835,"QT":12836,"ioplasty":12837,"comp":12838,"Ġprim":12839,"Echo":12840,"Ġserous":12841,"Ġsumm":12842,"ĠTaxol":12843,"EPI":12844,"anderbilt":12845,"PROVID":12846,"ĠAtorvastatin":12847,"ĠIdentified":12848,"Ġdiag":12849,"ONCOLOGY":12850,"ĠIJ":12851,"Automated":12852,"NEY":12853,"Ġrat":12854,"ĠoxyCODONE":12855,"Rhythm":12856,"349":12857,"CHE":12858,"Acetaminophen":12859,"ĠCyt":12860,"XT":12861,"ACCO":12862,"East":12863,"ĠDD":12864,"OSEC":12865,"Ġ630":12866,"ĠBab":12867,"ĠVIS":12868,"Ġfragment":12869,"strument":12870,"ributory":12871,"CTURE":12872,"Filed":12873,"incent":12874,"Ġ244":12875,"ĠSuspension":12876,"CER":12877,"347":12878,"oen":12879,"UI":12880,"Ġcapsules":12881,"Ġradical":12882,"Ġtail":12883,"ĠEffective":12884,"ĠGuidelines":12885,"ĠSant":12886,"ĠScler":12887,"ILA":12888,"riguez":12889,"ĠMir":12890,"ĠGynec":12891,"upus":12892,"ĠELIZ":12893,"ĠLymphoma":12894,"028":12895,"sheet":12896,"ĠBa":12897,"ĠLVEF":12898,"Additionally":12899,"nessee":12900,"376":12901,"orphine":12902,"gether":12903,"ĠHIstory":12904,"PRI":12905,"ĠWashington":12906,"ANDA":12907,"ennis":12908,"Ġinhib":12909,"BD":12910,"Ġeffective":12911,"Ġwat":12912,"Ġspecialist":12913,"Ġlids":12914,"jects":12915,"ĠJENNIFER":12916,"Director":12917,"INALYSIS":12918,"Ġapproach":12919,"Ġ409":12920,"ĠShore":12921,"286":12922,"annon":12923,"UTES":12924,"ĠReadings":12925,"codone":12926,"ĠCSN":12927,"ĠAlexander":12928,"Nor":12929,"ĠEstablished":12930,"Pelvic":12931,"ĠVentricle":12932,"ECTION":12933,"173":12934,"ĠTUB":12935,"SCOPIC":12936,"Ġseptal":12937,"HAN":12938,"oding":12939,"ĠPED":12940,"Ġparatracheal":12941,"Ġvaricosities":12942,"SODIUM":12943,"quis":12944,"Ġsuccinate":12945,"ĠBO":12946,"Appropriate":12947,"arelto":12948,"max":12949,"Ġexcl":12950,"ĠBio":12951,"ĠPrescribed":12952,"Coronal":12953,"fortunately":12954,"Ġmach":12955,"HO":12956,"Sam":12957,"374":12958,"Ġtransfusion":12959,"oloration":12960,"ĠTP":12961,"iguous":12962,"ERCIS":12963,"ĠFellow":12964,"Son":12965,"umbia":12966,"POTASSIUM":12967,"ĠWid":12968,"August":12969,"ANDRA":12970,"rl":12971,"Ġtransmitted":12972,"Dale":12973,"uries":12974,"Attestation":12975,"pa":12976,"erk":12977,"Ġwords":12978,"ĠVEN":12979,"MESENTERY":12980,"March":12981,"giver":12982,"April":12983,"ipment":12984,"Lymphocytes":12985,"Email":12986,"ĠRebecca":12987,"Ġtesticular":12988,"Ġkit":12989,"Ġ2001":12990,"ROB":12991,"hyp":12992,"Hepatitis":12993,"ĠFT":12994,"ĠRF":12995,"Communications":12996,"Posterior":12997,"ĠCharges":12998,"Ġ710":12999,"ĠMUS":13000,"Ġfainting":13001,"Card":13002,"immun":13003,"Ġconservative":13004,"067":13005,"adolinium":13006,"263":13007,"cautions":13008,"ĠMagnesium":13009,"vastin":13010,"agic":13011,"erritin":13012,"ATIN":13013,"Ġfore":13014,"Ġcongestive":13015,"152":13016,"Bladder":13017,"Ġtam":13018,"PRAZ":13019,"ĠHabits":13020,"Ġsalt":13021,"sovue":13022,"During":13023,"1988":13024,"NC":13025,"ĠOptical":13026,"285":13027,"ropometrics":13028,"Ġ917":13029,"ĠAorta":13030,"277":13031,"Ġeyel":13032,"Steph":13033,"SPECI":13034,"Ġsyn":13035,"ĠpH":13036,"ĠFrancis":13037,"ĠOh":13038,"ĠRED":13039,"Ġamlodipine":13040,"Ġpull":13041,"Flow":13042,"ocytic":13043,"raig":13044,"unc":13045,"Ġnetwork":13046,"Ġclips":13047,"Mob":13048,"Ġyourself":13049,"idg":13050,"027":13051,"Ġsimple":13052,"Ġremission":13053,"Ġ611":13054,"ĠREQUI":13055,"OSA":13056,"088":13057,"oro":13058,"FAC":13059,"ĠIVC":13060,"ĠVO":13061,"ĠBUR":13062,"Ġdecomp":13063,"ĠJonathan":13064,"Men":13065,"Sed":13066,"541":13067,"Ġrage":13068,"038":13069,"MAT":13070,"ĠYOUR":13071,"Ġons":13072,"Ġemployed":13073,"expected":13074,"ĠRecommendations":13075,"Ġru":13076,"ĠSqu":13077,"cribing":13078,"ĠLEG":13079,"alse":13080,"Advance":13081,"Ġedited":13082,"ĠBONE":13083,"365":13084,"ĠOthers":13085,"ĠPac":13086,"ĠHOR":13087,"ĠHam":13088,"ĠVen":13089,"Ġsufficient":13090,"LIPID":13091,"ĠReceipt":13092,"ĠAH":13093,"Ġhemang":13094,"ĠAdministered":13095,"026":13096,"aling":13097,"ĠMV":13098,"ĠIng":13099,"Ġspouse":13100,"Ġcontinuous":13101,"ĠDar":13102,"Ġforamina":13103,"ĠPet":13104,"etanus":13105,"eated":13106,"Ġrecommendation":13107,"ĠFRANC":13108,"Ġ317":13109,"entional":13110,"030":13111,"Ġ1938":13112,"Ġoverlying":13113,"295":13114,"ĠFlexion":13115,"terolateral":13116,"type":13117,"Ġrigidity":13118,"COMMENDATIONS":13119,"Disposition":13120,"Ġsclerae":13121,"Ġ222":13122,"Ġ931":13123,"Ġmmo":13124,"ĠBroad":13125,"Ġlc":13126,"offman":13127,"ushing":13128,"Ankle":13129,"1987":13130,"Ġexperience":13131,"ours":13132,"ĠChemo":13133,"056":13134,"8898061":13135,"Ġrestart":13136,"ĠOPT":13137,"ilin":13138,"ĠWWI":13139,"Ġsacral":13140,"Ġ247":13141,"ĠCVS":13142,"ĠOphthalm":13143,"ĠWV":13144,"Ġsurgeon":13145,"osartan":13146,"ĠCommunication":13147,"Anemia":13148,"Living":13149,"ĠChristine":13150,"ĠPLATELET":13151,"289":13152,"Ġpunctate":13153,"Ġgem":13154,"ĠThorax":13155,"Cal":13156,"Ġexperienced":13157,"Peak":13158,"ĠPatent":13159,"ABDOMINOPELVIC":13160,"Routing":13161,"Mitral":13162,"genital":13163,"hetic":13164,"ĠHandle":13165,"Ġdescription":13166,"ĠHysterectomy":13167,"Ġmyelopathy":13168,"SPECIMEN":13169,"uels":13170,"ĠMobile":13171,"Ġcf":13172,"Ġsmokes":13173,"410":13174,"ĠTRANSMITTAL":13175,"559":13176,"ĠVITAL":13177,"loyed":13178,"ĠIli":13179,"ĠMeth":13180,"Cat":13181,"BLADDER":13182,"ĠCNP":13183,"ĠLP":13184,"izzy":13185,"ĠBU":13186,"Ġreasons":13187,"ĠRX":13188,"Ġdisplaced":13189,"496":13190,"ĠADEN":13191,"Ġawaiting":13192,"ĠCF":13193,"Ġ1101":13194,"ĠSpr":13195,"ĠDiagnosed":13196,"ĠAssessed":13197,"ĠDonna":13198,"SPINE":13199,"ĠLouis":13200,"Mt":13201,"Ġtrap":13202,"Ġstep":13203,"Ġwheeze":13204,"fib":13205,"Ġstents":13206,"Ġdin":13207,"Ġtandem":13208,"Ġunexpected":13209,"CIA":13210,"ĠABNORMAL":13211,"Ġ504":13212,"ioc":13213,"Ġitems":13214,"Ġmucositis":13215,"ĠHart":13216,"Ġven":13217,"280":13218,"Failure":13219,"ĠDIST":13220,"186":13221,"Ġhypercholesterolemia":13222,"ĠLength":13223,"Ġ246":13224,"CHLORIDE":13225,"Facsimile":13226,"Mont":13227,"ĠABDOM":13228,"ĠRespirations":13229,"368":13230,"Ġnothing":13231,"ĠWAR":13232,"BON":13233,"Ġpenal":13234,"Ġ235":13235,"ĠHeadaches":13236,"Ġstridor":13237,"ĠAFR":13238,"leason":13239,"ĠDisposition":13240,"ifically":13241,"ĠLawrence":13242,"Ġ166":13243,"ĠELIZABETH":13244,"ĠHighway":13245,"ĠSUMMARY":13246,"294":13247,"ĠVict":13248,"WJ":13249,"Ġlobectomy":13250,"ĠEA":13251,"vate":13252,"ĠBel":13253,"Ġinjectable":13254,"ĠAwake":13255,"Ġblurry":13256,"Ġ253":13257,"ĠIMMUN":13258,"Ġangiogram":13259,"Ġradio":13260,"ĠAi":13261,"033":13262,"Ġparticularly":13263,"Ġphysiologic":13264,"Ġmeningioma":13265,"Ġperiods":13266,"Del":13267,"Ġ281":13268,"illo":13269,"ĠCHARLES":13270,"ormoactive":13271,"Recommendations":13272,"457":13273,"ĠMAC":13274,"ĠRATE":13275,"Ġheader":13276,"ĠPUFF":13277,"ĠSTEVEN":13278,"aro":13279,"Ġshared":13280,"Inal":13281,"Add":13282,"ĠRADIOLOGIST":13283,"Mart":13284,"ATHY":13285,"Ġclar":13286,"ĠLang":13287,"Trace":13288,"inois":13289,"atadine":13290,"ĠTenderness":13291,"ĠTrace":13292,"ĠDil":13293,"Ġkyp":13294,"ĠMDD":13295,"Ġturb":13296,"ASMA":13297,"Ġacuity":13298,"Codes":13299,"Following":13300,"1990":13301,"rophic":13302,"esylate":13303,"Signatures":13304,"ymbicort":13305,"Vert":13306,"Ġrx":13307,"oic":13308,"ĠIi":13309,"egmental":13310,"ĠJam":13311,"ĠAnton":13312,"DAILY":13313,"Ġrehab":13314,"posed":13315,"elli":13316,"446":13317,"297":13318,"Ġcross":13319,"OBACCO":13320,"ĠSand":13321,"270":13322,"Ġ720":13323,"ASONE":13324,"Ġconfig":13325,"217":13326,"zi":13327,"Ġcorp":13328,"SHE":13329,"Ġew":13330,"Ġinterim":13331,"Ġanorexia":13332,"Ġpredominantly":13333,"Ġbulging":13334,"ĠRace":13335,"Ġdox":13336,"ĠASA":13337,"Ġhab":13338,"ĠMPV":13339,"ĠCSF":13340,"LENOL":13341,"Two":13342,"Ġpill":13343,"Ġsuspect":13344,"Seiz":13345,"ĠGary":13346,"ĠBROOK":13347,"330":13348,"Contains":13349,"ĠSuperv":13350,"ĠHospitalization":13351,"PROBLEM":13352,"IZED":13353,"GROSS":13354,"TM":13355,"ĠDocumented":13356,"Basophils":13357,"Ġuncomplicated":13358,"Ġthinks":13359,"prick":13360,"erd":13361,"vv":13362,"CTA":13363,"ĠGeneralized":13364,"Jeff":13365,"iment":13366,"ĠPacks":13367,"Ġsupine":13368,"Differential":13369,"Ġvit":13370,"Ġsneezing":13371,"ĠGEORGE":13372,"Pending":13373,"yy":13374,"ĠBEL":13375,"ATHAN":13376,"ĠAdverse":13377,"Ġeth":13378,"odil":13379,"oshua":13380,"ĠREFLEX":13381,"ĠLeuk":13382,"Sk":13383,"ĠReflexes":13384,"Ġanastomosis":13385,"MAGN":13386,"uant":13387,"Ġtea":13388,"Ġparalysis":13389,"PLACEMENT":13390,"264":13391,"ĠSandra":13392,"boro":13393,"ĠCHANGE":13394,"left":13395,"Ġnas":13396,"Resulted":13397,"retion":13398,"utt":13399,"ophor":13400,"vered":13401,"January":13402,"Ġ163":13403,"Ġappointments":13404,"uo":13405,"Ġthrombus":13406,"ĠAUTHOR":13407,"ĠCondition":13408,"ĠSYN":13409,"ebral":13410,"Ġintern":13411,"ux":13412,"1989":13413,"Ġhyperplasia":13414,"aclofen":13415,"Ġextends":13416,"PLOY":13417,"Ġ339":13418,"Relation":13419,"IMI":13420,"vula":13421,"Renal":13422,"Ġsteat":13423,"099":13424,"261":13425,"ĠTEM":13426,"ĠPATRICIA":13427,"ĠNeut":13428,"genic":13429,"Ġtc":13430,"attenuation":13431,"Cla":13432,"Ġedu":13433,"uscept":13434,"Ġaccount":13435,"287":13436,"Ġhypodense":13437,"000000":13438,"Ġirritation":13439,"Lt":13440,"COHOL":13441,"Ġsheets":13442,"Ġsolely":13443,"037":13444,"Ġnail":13445,"ycline":13446,"Both":13447,"ificance":13448,"Ġdark":13449,"ROCARD":13450,"Ġsweating":13451,"althcare":13452,"Hematocrit":13453,"late":13454,"Ġps":13455,"ĠFALL":13456,"Ġ159":13457,"Historical":13458,"Inactive":13459,"Ġexclude":13460,"herent":13461,"Ġ198":13462,"ĠNOS":13463,"Ġmicroscopic":13464,"ĠPRESS":13465,"869":13466,"anner":13467,"Arthritis":13468,"Hgb":13469,"193":13470,"ĠRespiration":13471,"oltum":13472,"ĠQUEST":13473,"ĠGrossly":13474,"ĠChi":13475,"Ġendplate":13476,"Ġhesitate":13477,"ĠDonald":13478,"046":13479,"Ġuncertain":13480,"ĠSensation":13481,"Ġ296":13482,"Ap":13483,"Ġfailed":13484,"Ġham":13485,"Ġshape":13486,"ĠBay":13487,"itrate":13488,"guided":13489,"structing":13490,"447":13491,"Ġkr":13492,"Ġambulating":13493,"Ġnaproxen":13494,"Ġheld":13495,"Based":13496,"ĠDTR":13497,"192":13498,"lioma":13499,"1001":13500,"Ġnoncontrast":13501,"FORE":13502,"Common":13503,"iva":13504,"ĠNutrition":13505,"551":13506,"ONTIN":13507,"Itt":13508,"162":13509,"ropium":13510,"Ġprofessional":13511,"ables":13512,"ĠPAL":13513,"Ġaa":13514,"Ġphysically":13515,"Ġremember":13516,"ĠAccording":13517,"Ġankles":13518,"BLOOD":13519,"Prec":13520,"COMPANY":13521,"ravastatin":13522,"ĠAncillary":13523,"Ġwalks":13524,"Ġinduced":13525,"Ġpurpose":13526,"ALINE":13527,"JOHN":13528,"inol":13529,"ĠRot":13530,"Ġprepped":13531,"ĠFish":13532,"anted":13533,"Ġchief":13534,"ĠONC":13535,"Ġoment":13536,"terus":13537,"COMPREHENSIVE":13538,"ĠGra":13539,"ĠAddressed":13540,"riptan":13541,"rowth":13542,"Ġvertebra":13543,"ĠSedation":13544,"Ġvalid":13545,"ĠTa":13546,"Ġitt":13547,"XI":13548,"ĠPLE":13549,"ĠRUE":13550,"ĠBet":13551,"ĠSOCIAL":13552,"Ġght":13553,"Ġtriceps":13554,"353":13555,"ĠAnna":13556,"ĠALEX":13557,"Ġgenerally":13558,"ĠImmed":13559,"ĠLewis":13560,"Ly":13561,"Ġcompany":13562,"Ġfascic":13563,"Kidneys":13564,"ĠPhy":13565,"1500":13566,"ĠVE":13567,"cu":13568,"aria":13569,"uncture":13570,"Ġwire":13571,"Ġhum":13572,"inct":13573,"ĠCAROL":13574,"ĠCAN":13575,"ĠReading":13576,"71260":13577,"DICTATED":13578,"ĠOk":13579,"Ġband":13580,"Ġhematoma":13581,"ĠChemotherapy":13582,"Globulin":13583,"ĠCharge":13584,"ĠFinger":13585,"ĠWAY":13586,"ĠIntolerance":13587,"Ġfingers":13588,"Ġproductive":13589,"ĠINTRA":13590,"VITY":13591,"ĠNUCLEAR":13592,"Ġsuggesting":13593,"ĠJAC":13594,"Ġ999":13595,"ĠDevices":13596,"Ġchiropr":13597,"HH":13598,"Measurements":13599,"183":13600,"669":13601,"ĠIntern":13602,"598":13603,"iorad":13604,"iece":13605,"Ġorbits":13606,"ĠBuck":13607,"Ġmonthly":13608,"upil":13609,"pf":13610,"Ġpros":13611,"iS":13612,"Ġ530":13613,"ĠSLE":13614,"Ġdiseases":13615,"ĠWa":13616,"ĠPRIOR":13617,"Ġpuls":13618,"Ġsacroiliac":13619,"Echocardiogram":13620,"Ġtypical":13621,"wn":13622,"Ġremained":13623,"ĠRISK":13624,"ĠQT":13625,"ĠRoss":13626,"iphen":13627,"lolisthesis":13628,"711":13629,"ĠUNITS":13630,"Hand":13631,"Ġppd":13632,"ĠABS":13633,"ĠBA":13634,"ĠASSESSMENT":13635,"Ist":13636,"Ġprescriptions":13637,"eu":13638,"Ġinfiltrates":13639,"ĠTransportation":13640,"Cop":13641,"ĠAnne":13642,"184":13643,"THONY":13644,"Ġbasilar":13645,"396":13646,"rontation":13647,"Here":13648,"ithelial":13649,"Ġern":13650,"Ġexpressed":13651,"Dyspnea":13652,"ĠWo":13653,"ĠNL":13654,"ĠBern":13655,"aptist":13656,"Ġgave":13657,"ĠKNEE":13658,"Ġmodification":13659,"Ġbif":13660,"loxacin":13661,"eryl":13662,"atie":13663,"Ġocclusion":13664,"Ġsomeone":13665,"ITZ":13666,"mer":13667,"Ġalter":13668,"Ġnarc":13669,"ĠPathologist":13670,"INI":13671,"Ġmonitored":13672,"Great":13673,"480":13674,"Elect":13675,"Ġculture":13676,"ANDER":13677,"Inv":13678,"ĠCHRISTOPHER":13679,"ENE":13680,"Ġ176":13681,"upt":13682,"Practice":13683,"Ġ164":13684,"stem":13685,"ĠAud":13686,"Ġyness":13687,"ĠNorco":13688,"Ġneoplastic":13689,"ĠAlbany":13690,"Ġincomplete":13691,"enticated":13692,"Ġpersist":13693,"ENA":13694,"ĠBrooklyn":13695,"pid":13696,"Ġdysplasia":13697,"ĠpN":13698,"Ġpalliative":13699,"June":13700,"NRBC":13701,"Ġ221":13702,"383":13703,"oca":13704,"kl":13705,"494":13706,"Ġdexamethasone":13707,"Ġtel":13708,"ĠHormone":13709,"Append":13710,"soas":13711,"ioxide":13712,"ithromycin":13713,"Ġmammo":13714,"ĠCooperative":13715,"ĠVII":13716,"886":13717,"ĠClar":13718,"Degenerative":13719,"ĠOmeprazole":13720,"ĠEDWARD":13721,"ĠCoverage":13722,"562":13723,"ĠKing":13724,"Ġtie":13725,"Ġvent":13726,"ĠFO":13727,"Ft":13728,"ĠEmail":13729,"Severe":13730,"Ġnodal":13731,"ream":13732,"Section":13733,"ĠGastroesophageal":13734,"ĠTor":13735,"bar":13736,"Ġpharmac":13737,"Ġmechan":13738,"Ġpump":13739,"SCH":13740,"amax":13741,"ĠChicago":13742,"ĠMonocytes":13743,"343":13744,"Ice":13745,"ĠAlbuterol":13746,"ĠAdenocarcinoma":13747,"rovascular":13748,"ELA":13749,"ĠSAR":13750,"369":13751,"ĠSCOTT":13752,"Ġrequesting":13753,"ĠGil":13754,"Aorta":13755,"ĠCornell":13756,"ĠAnterior":13757,"Ġapplication":13758,"Fever":13759,"Ġposteriorly":13760,"Ġtomorrow":13761,"ĠFi":13762,"Ġ333":13763,"Ġdevelopmental":13764,"Ġ700":13765,"Ġjudgement":13766,"uded":13767,"ĠAunt":13768,"Ġneoadjuvant":13769,"ROCARDIOGRAM":13770,"Again":13771,"IJ":13772,"ĠNeutrophils":13773,"Ġ729":13774,"ido":13775,"arean":13776,"153":13777,"ĠAnthropometrics":13778,"hicle":13779,"ĠOrthopa":13780,"075":13781,"380":13782,"ĠHisp":13783,"ĠFil":13784,"Ġvirus":13785,"ORATOR":13786,"Don":13787,"Ġ496":13788,"252":13789,"Aspirin":13790,"Ġwarr":13791,"ĠHeather":13792,"1800":13793,"ĠCLA":13794,"ĠImprovement":13795,"Ġ703":13796,"ĠGoals":13797,"ĠULTRAS":13798,"Ġhit":13799,"Ġpleura":13800,"obronchial":13801,"ĠRON":13802,"ĠAny":13803,"ski":13804,"Ġtogether":13805,"ĠSharon":13806,"Ġ2003":13807,"Biopsy":13808,"ĠADMIN":13809,"Ġcataract":13810,"ĠLymphocytes":13811,"bonate":13812,"ĠLess":13813,"ĠJEFFREY":13814,"Eosinophils":13815,"zed":13816,"Ġnut":13817,"rontal":13818,"Ġ178":13819,"Ġdt":13820,"inton":13821,"GED":13822,"Ġbehavioral":13823,"Ġ612":13824,"lycerides":13825,"ERCISE":13826,"elch":13827,"Ġordering":13828,"ĠAvastin":13829,"Specialty":13830,"RECTOMY":13831,"ULF":13832,"Ġ857":13833,"Ġgastritis":13834,"Metastatic":13835,"URAL":13836,"aortic":13837,"GRE":13838,"Ġanalges":13839,"DEPARTMENT":13840,"ĠCyst":13841,"ĠBASED":13842,"ĠASPIR":13843,"ĠPk":13844,"ependently":13845,"ĠDetected":13846,"Ġae":13847,"atem":13848,"eneric":13849,"rochanter":13850,"arcia":13851,"Steven":13852,"ref":13853,"ĠTYLENOL":13854,"irizine":13855,"Ġforamen":13856,"ĠSet":13857,"anax":13858,"Ġ254":13859,"Ġ510":13860,"Ġtendency":13861,"KI":13862,"Ġ188":13863,"Ġcn":13864,"signed":13865,"apine":13866,"Ġcorresponding":13867,"321":13868,"mediate":13869,"Ni":13870,"Ġhur":13871,"Ġforms":13872,"ĠNarrative":13873,"PAPP":13874,"ĠWas":13875,"CHOCARD":13876,"Ġsomething":13877,"ĠPERSONAL":13878,"Ġrim":13879,"cd":13880,"ĠPAY":13881,"ĠANDREW":13882,"aires":13883,"RESP":13884,"TAB":13885,"ĠSUSAN":13886,"WORK":13887,"567":13888,"ĠPVC":13889,"Scheduled":13890,"Ġmanual":13891,"URN":13892,"Pregnancy":13893,"abri":13894,"ĠStates":13895,"Mount":13896,"ĠAdmits":13897,"076":13898,"ĠHay":13899,"Ġwash":13900,"IRE":13901,"eny":13902,"ĠLIPID":13903,"Basic":13904,"ulating":13905,"Ġ912":13906,"ĠJay":13907,"IDELIS":13908,"Ġcane":13909,"ĠTx":13910,"Elevated":13911,"more":13912,"ĠAmp":13913,"ĠSuccess":13914,"Ġjaw":13915,"COND":13916,"althe":13917,"Ġ989":13918,"Ġblue":13919,"ĠShort":13920,"079":13921,"367":13922,"âĢĺ":13923,"ĠSpring":13924,"ĠROC":13925,"ĠGLU":13926,"Activ":13927,"ĠTy":13928,"Ġaltered":13929,"Ġprox":13930,"ĠmetFORMIN":13931,"see":13932,"Ġost":13933,"ĠStanding":13934,"ĠRachel":13935,"ĠJER":13936,"ĠCampus":13937,"Ġweb":13938,"ĠSEEN":13939,"Ġlord":13940,"itriptyline":13941,"ĠNEURONTIN":13942,"Ġfell":13943,"Ġock":13944,"ICI":13945,"ĠIsovue":13946,"Ġrouted":13947,"Ġballoon":13948,"gnant":13949,"PAM":13950,"Ġ8061":13951,"Ġ702":13952,"Ġ153":13953,"ĠPneumonia":13954,"Ġtrapez":13955,"Ġsatisfaction":13956,"ĠPART":13957,"ĠRev":13958,"Ġ903":13959,"arently":13960,"Ġ344":13961,"ĠConsent":13962,"Ġtrain":13963,"AMS":13964,"ĠASH":13965,"Ġcarriers":13966,"Ġsegments":13967,"ĠMEL":13968,"ĠDy":13969,"785":13970,"ĠGAR":13971,"055":13972,"FACS":13973,"FLEX":13974,"ĠAppears":13975,"essor":13976,"Mammogram":13977,"CONCLUSION":13978,"ĠExpires":13979,"ĠREQUIRED":13980,"icc":13981,"ardo":13982,"Ġepigastric":13983,"Ġpremature":13984,"idd":13985,"ĠNorthwell":13986,"Diarrhea":13987,"220":13988,"ameters":13989,"MADol":13990,"ĠRaj":13991,"lines":13992,"Ġpenalties":13993,"ĠNeb":13994,"Ġelectrocardiogram":13995,"Ġ8005402406":13996,"___":13997,"Ġsupporting":13998,"integr":13999,"olumab":14000,"esarean":14001,"Ġquitting":14002,"Ġgenital":14003,"istr":14004,"ocusate":14005,"IZON":14006,"ZO":14007,"cy":14008,"094":14009,"274":14010,"Ġcigarette":14011,"069":14012,"Ġrandom":14013,"Ġpromp":14014,"ĠGlen":14015,"Ġcaused":14016,"Ġoffered":14017,"endering":14018,"INC":14019,"OCRIT":14020,"ĠEpic":14021,"iron":14022,"uu":14023,"Ġbath":14024,"Ġbronchiectasis":14025,"Pi":14026,"557":14027,"ucated":14028,"Ġ229":14029,"ĠLOB":14030,"ĠFIR":14031,"Ġreproduction":14032,"FS":14033,"078":14034,"Inject":14035,"ĠMINUTES":14036,"African":14037,"RL":14038,"ĠPoint":14039,"Ġhcl":14040,"Ġweighted":14041,"ĠCreated":14042,"Ġ812":14043,"Ġformation":14044,"Ġopioid":14045,"ĠDUR":14046,"ĠLYN":14047,"aled":14048,"ĠEMRN":14049,"Ġregulation":14050,"Ġled":14051,"ĠWrist":14052,"ĠIv":14053,"ophorectomy":14054,"Ġrefused":14055,"ĠAmeric":14056,"Support":14057,"ĠTRANSM":14058,"Ġdisp":14059,"ĠNeutrophil":14060,"Ġfriction":14061,"Ġsten":14062,"Ġprostatic":14063,"Ġalternating":14064,"ĠLAS":14065,"Ġcomplexity":14066,"amma":14067,"ICORE":14068,"ĠSUP":14069,"Ġmos":14070,"Ġ237":14071,"Ġbox":14072,"ĠRecipient":14073,"ĠLOZ":14074,"Ġadipose":14075,"ĠHispanic":14076,"earm":14077,"Ġsatisfactory":14078,"Ġprognosis":14079,"ĠIntramuscular":14080,"ountry":14081,"787":14082,"Ġment":14083,"afe":14084,"Scanned":14085,"amsulos":14086,"ĠRELEASE":14087,"451":14088,"348":14089,"Ġspecify":14090,"FIED":14091,"Ġchain":14092,"elson":14093,"ITION":14094,"ĠBut":14095,"Ġimaged":14096,"ĠRuss":14097,"Ġaped":14098,"Ġoropharyngeal":14099,"ographic":14100,"idog":14101,"ecum":14102,"Heme":14103,"coidosis":14104,"July":14105,"ĠIntensity":14106,"imp":14107,"Ġauth":14108,"283":14109,"ĠRUL":14110,"Ġmusc":14111,"047":14112,"Ti":14113,"blast":14114,"Ġplanes":14115,"Ġqualifying":14116,"Ġvaccination":14117,"Ġfullness":14118,"Ġxray":14119,"OBULIN":14120,"890":14121,"ĠAuthored":14122,"oes":14123,"fft":14124,"Ġcombination":14125,"AMINE":14126,"Ġsip":14127,"Ġkin":14128,"mittently":14129,"ATI":14130,"ĠURE":14131,"Ġ737":14132,"orp":14133,"Ġ5000":14134,"Ġindication":14135,"Ġloops":14136,"Ġconfrontation":14137,"Change":14138,"ĠAnnual":14139,"Ġouter":14140,"Then":14141,"Ġbrief":14142,"ĠInto":14143,"ĠMK":14144,"Marg":14145,"ĠCHRONIC":14146,"Increased":14147,"Ġ187":14148,"ĠWilson":14149,"ĠAxis":14150,"Ġ224":14151,"Ġsuccessful":14152,"you":14153,"ricuspid":14154,"ĠAO":14155,"odine":14156,"lial":14157,"Ġconversation":14158,"Ġlimbs":14159,"ĠPAP":14160,"ONT":14161,"340":14162,"Ġxxx":14163,"MOKING":14164,"Ġstructural":14165,"CLIA":14166,"Neutrophil":14167,"ĠInclude":14168,"Admits":14169,"ĠpredniSONE":14170,"ĠBRON":14171,"ĠFRANK":14172,"utation":14173,"VISIT":14174,"ĠRS":14175,"ika":14176,"irk":14177,"inda":14178,"ought":14179,"ĠMn":14180,"ĠStaging":14181,"ĠSeries":14182,"273":14183,"Infusion":14184,"iastinal":14185,"key":14186,"Ġnails":14187,"Ġsul":14188,"ĠDAW":14189,"ĠLABS":14190,"ivolumab":14191,"Constipation":14192,"ĠGO":14193,"lf":14194,"Ġscribe":14195,"Ġcarbo":14196,"Ġbrad":14197,"ĠPoor":14198,"ĠFred":14199,"Ġ417":14200,"BERG":14201,"LABS":14202,"Lip":14203,"ionnaires":14204,"dd":14205,"vie":14206,"Ġdecisions":14207,"ĠLink":14208,"ĠGar":14209,"556":14210,"Ambul":14211,"Ġsound":14212,"ortisone":14213,"Ġbecome":14214,"Ġtransient":14215,"Ġ425":14216,"ĠAssociation":14217,"096":14218,"Ġstranding":14219,"ĠTWO":14220,"Dys":14221,"CTICE":14222,"ialysis":14223,"577":14224,"ubic":14225,"ĠPRIV":14226,"Trig":14227,"aaai":14228,"516":14229,"BARA":14230,"integrating":14231,"663":14232,"iltration":14233,"FRAN":14234,"lies":14235,"Ġchewable":14236,"ĠPCR":14237,"Ġimmunohistochemical":14238,"SG":14239,"Mal":14240,"Ġshin":14241,"ĠAvailable":14242,"Pred":14243,"Ġlt":14244,"790":14245,"ĠDIRECT":14246,"Ġ785":14247,"ĠInsulin":14248,"Ġfluids":14249,"September":14250,"PLATELET":14251,"Ġosteoporosis":14252,"Ultrasound":14253,"Ġsimvastatin":14254,"ĠCulture":14255,"Ġbreaths":14256,"ĠGREEN":14257,"Basophil":14258,"Throat":14259,"ASTING":14260,"OPHIL":14261,"ulum":14262,"ĠLAKE":14263,"Ġ1937":14264,"Meds":14265,"Documented":14266,"Functional":14267,"ravity":14268,"ĠIX":14269,"ĠKi":14270,"ĠEB":14271,"ordance":14272,"ĠCROSS":14273,"511":14274,"399":14275,"aty":14276,"ĠKeppra":14277,"Ġgroomed":14278,"ĠRIVER":14279,"Ġresected":14280,"ĠAk":14281,"rips":14282,"Paul":14283,"ĠPrivacy":14284,"Ġcoming":14285,"lins":14286,"ĠBeth":14287,"haps":14288,"ettes":14289,"ĠQuant":14290,"Ġintravenously":14291,"Ġ928":14292,"Wor":14293,"ĠAMERICAN":14294,"ĠFair":14295,"ĠHarrison":14296,"1991":14297,"PAIR":14298,"Ġcarecorenational":14299,"ĠBritt":14300,"ouston":14301,"313":14302,"Ġmu":14303,"ĠLINDA":14304,"596":14305,"eltoid":14306,"ioradialis":14307,"Ġachieved":14308,"Ġ415":14309,"ached":14310,"now":14311,"Ġ731":14312,"Trachea":14313,"ĠMIL":14314,"ĠTABLETS":14315,"Ġchol":14316,"086":14317,"Ġtestosterone":14318,"ĠConc":14319,"996":14320,"opulmonary":14321,"ĠHall":14322,"involved":14323,"Ġhydrocodone":14324,"Ġcorrection":14325,"Ġtumors":14326,"EXT":14327,"Ġgauge":14328,"oking":14329,"coh":14330,"ĠBry":14331,"afety":14332,"Ġbloody":14333,"REFERRING":14334,"045":14335,"ĠVACC":14336,"Ġrecipients":14337,"itative":14338,"Ġcertified":14339,"Ġ191":14340,"Ġpresentation":14341,"Unauthorized":14342,"ĠChills":14343,"Ġophthalmic":14344,"Ġ617":14345,"Ġsaturation":14346,"041":14347,"obal":14348,"ĠBODY":14349,"Ġinsecurity":14350,"ĠIncrease":14351,"ĠsI":14352,"Ġune":14353,"DEN":14354,"encephal":14355,"Ġ179":14356,"Ġoptim":14357,"RET":14358,"Payor":14359,"amsulosin":14360,"Ġadnexal":14361,"ĠKay":14362,"nan":14363,"Ġ70551":14364,"MCG":14365,"elled":14366,"ĠAtrium":14367,"inates":14368,"ĠGer":14369,"Ġovaries":14370,"Denied":14371,"Ġinvestigational":14372,"UATION":14373,"Ġaccurate":14374,"EMA":14375,"Followup":14376,"Pen":14377,"ĠCynthia":14378,"Ġmultilevel":14379,"ĠREPLACEMENT":14380,"Ġessentially":14381,"onomic":14382,"ĠCHIEF":14383,"Joint":14384,"Ġbeta":14385,"Ġuncontrolled":14386,"445":14387,"ĠAPPROVED":14388,"Ġ10016":14389,"780":14390,"omatous":14391,"roma":14392,"Ġâŀ¢":14393,"Ġmont":14394,"ĠSections":14395,"ĠUnder":14396,"Ġaggregate":14397,"ĠConsultants":14398,"Self":14399,"LEPHONE":14400,"Ġlose":14401,"Ġdiagnoses":14402,"Ġdecided":14403,"duc":14404,"Ġsentinel":14405,"ernandez":14406,"ĠTRANSMISSION":14407,"February":14408,"adiation":14409,"Ġwar":14410,"bin":14411,"imab":14412,"ĠRepeat":14413,"Ġonline":14414,"Ġmanaged":14415,"Ġairspace":14416,"sis":14417,"ĠRANGE":14418,"upp":14419,"Ġdizzy":14420,"ALS":14421,"660":14422,"erald":14423,"amilton":14424,"lah":14425,"Iss":14426,"ĠBil":14427,"Ġpruritus":14428,"810":14429,"Ġexcess":14430,"412":14431,"arche":14432,"Ġcircumstances":14433,"Ġdetection":14434,"Ġinterc":14435,"istance":14436,"Ġnoncalcified":14437,"Ġsupplements":14438,"bn":14439,"Ġao":14440,"ĠMANAGE":14441,"ĠBuilding":14442,"TEIN":14443,"579":14444,"tometry":14445,"Axial":14446,"jay":14447,"Ġhernias":14448,"vens":14449,"reatitis":14450,"ĠLate":14451,"ĠPRESSURE":14452,"Married":14453,"November":14454,"Ġimpact":14455,"bye":14456,"Eos":14457,"Ġspan":14458,"Ġfist":14459,"Ġmonoclonal":14460,"GENCY":14461,"MARK":14462,"Ġ777":14463,"ĠMALIGN":14464,"San":14465,"ĠIle":14466,"ĠAlc":14467,"ĠSyncope":14468,"igraines":14469,"ĠDioxide":14470,"ĠASAP":14471,"isph":14472,"ancies":14473,"460":14474,"ĠBegun":14475,"ĠBASE":14476,"ĠLeon":14477,"chell":14478,"ilities":14479,"Ġ422":14480,"ĠNeoplasm":14481,"Detailed":14482,"Ġadhes":14483,"ĠHL":14484,"small":14485,"iomy":14486,"Ġfemur":14487,"Ġ219":14488,"yclobenzaprine":14489,"ĠInvasion":14490,"262":14491,"Ġointment":14492,"Ġdense":14493,"Ġmucus":14494,"Ġscanned":14495,"Ġdoc":14496,"Ġoutlined":14497,"Ġspells":14498,"459":14499,"ĠTS":14500,"ĠLAR":14501,"Sar":14502,"gar":14503,"treatment":14504,"Ġrc":14505,"458":14506,"quin":14507,"087":14508,"Obstetric":14509,"Ġsprays":14510,"ganization":14511,"lantic":14512,"ĠNITRO":14513,"Judgment":14514,"Ġsignificance":14515,"ammad":14516,"olds":14517,"ĠCigarette":14518,"372":14519,"olol":14520,"Ġsteatosis":14521,"HOSPITAL":14522,"Ġdepressive":14523,"iport":14524,"IATED":14525,"ography":14526,"ordial":14527,"Ġantibodies":14528,"Ġvena":14529,"ĠIMMED":14530,"vt":14531,"ĠExcessive":14532,"Ġaunt":14533,"Ġneuroendocrine":14534,"ĠTomography":14535,"Ġreasonable":14536,"ĠField":14537,"Ġnumerous":14538,"FILE":14539,"HETER":14540,"Ġretired":14541,"balta":14542,"PHOS":14543,"Ġworked":14544,"ĠAE":14545,"ĠAttestation":14546,"rating":14547,"Orthop":14548,"loss":14549,"CCA":14550,"inely":14551,"Ġunint":14552,"idogrel":14553,"Ġclonus":14554,"ASM":14555,"Ġfam":14556,"ĠRAND":14557,"LT":14558,"ĠCav":14559,"ĠATTENDING":14560,"ĠSB":14561,"ĠPolyp":14562,"569":14563,"ellite":14564,"aching":14565,"ĠPHOSPH":14566,"onat":14567,"itidine":14568,"385":14569,"Administered":14570,"ĠULTRASOUND":14571,"ĠMag":14572,"OID":14573,"Ġshown":14574,
[...]
